fffb
ff2f
ff7b
ff60
0001
ffab
005f
0051
0062
ff3f
ff95
ff11
0049
0001
ff68
ff7f
003c
ffb4
0041
ff62
002b
0033
ffcc
ff2d
0084
0039
ffe4
ff48
00e8
ff81
00fd
ff8a
0043
ffe0
000a
0034
ffea
004b
ffc6
0099
ffe2
ffa7
fff9
ffba
ff5a
010f
feb4
ffa6
00ac
000e
010a
0050
0060
ffc6
fff7
ff66
00b5
0000
ffad
ff66
fffb
ffa1
ff71
ffa6
0005
0084
0161
ffeb
00a6
ffbb
002f
0037
ff9a
ffec
003e
005f
0059
ffc9
ffb4
ffcd
ffb7
0055
008f
ffc3
006c
fffc
ff72
0034
ff94
0052
ff65
0004
ff4f
ffcf
0041
009d
ffb8
0077
ffbd
ffbc
fffd
015d
ff1e
ff1c
ffcc
ffb3
ff9f
ff04
0059
ffe0
0052
004a
ffe8
ff4f
ffc4
ff61
ffc7
000f
0047
ffb9
0004
fffa
ffff
0010
ffe1
001f
ff13
007a
000c
ffdd
001f
ff6c
ffa2
fff3
000d
ffe7
ffef
001d
005c
ffb0
000f
feff
0070
ff69
ffaf
00fd
0009
0064
ff88
001a
ffb0
005c
ffbb
003e
002b
ffd2
ffbb
0000
ff6b
ff91
ff66
ff75
0020
ffac
0046
ffaa
003c
ff93
fe2c
ffd8
ffa0
ff29
ffcc
ffd0
001f
ff89
ffd3
ffde
ff3f
fe73
ffe5
ff96
00cc
ffa3
0016
ff68
ff06
ffa7
ff09
004e
ff60
ff8f
ffa2
006a
005e
ffbb
ff18
ff9f
ffbd
ff65
ff8d
ff24
0060
0027
ff26
ff61
009c
003c
ff66
0003
ffb2
005c
ffe2
0032
0030
01e1
ff7d
0098
ff4d
ffd9
00d2
002b
ffd3
003c
004a
ff47
ffe4
ffae
0092
ffdb
0026
00b1
0011
ffd0
ff1d
0080
0048
0002
ff6c
ffb8
003f
ffed
005e
ff80
ff69
001d
ff74
ffc9
0191
0025
ffb7
ff96
ffaf
ffff
ffba
ff33
