00010000fffa0002fffd0004fffd0004ffff
fffdfffc0000000700010004fffe00060000
fffb0004fffd0002fffbfffd000300030000
000400030000fffc0001ffff0000fffd0002
0001fffb0003000000050004fffe00040000
0001000500000000fffa000200010000ffff
fffe000600000000fffd0002fffdfffffffb
00010000ffff000500030002fffcfffefffc
0000fffdffff000800000001000200010005
00040003fffefffffffbfffe000900040004
fffe0006000000000001ffff00000000fffe
0001fffcffffffff00000001000400020003
00000002fff8ffff0002fffdffff00010005
00000003fffffffbfffafffdfffafffb0001
0002fffc0002fffefffefffefffe00010000
fffe0001fff90004fffdfffc0000ffff0000
fffe0000fff9000000040000fff7fffdffff
000100020000ffff000000000000fffbfff9
fffffffbfffd00080003ffff000400050005
0006000300030003fffdfffd0006fffe0004
fff9fffe0005000500030001fffffffd0000
ffff00000001fffb00070000fffa0000fffe
0001fffcfffe000100050000000200040001
00000000fffefffcfffd0005fffd00010000
0000fffcfffe000200020004fffffffffffb
0002fffefff70000ffff0001000400030005
0001fffefffb00020000ffff00010007ffff
fffffffa000000000000fffd00040001ffff
ffff0002000600000000fffe000000020003
00060000ffff000100020001fffffffc0000
000000010001fff900040000000200010003
0003fffd00000002fffd0000000100010003
0003ffff0003fffbffffffffffff00000002
0002fffd0005000700010000fffdfffdffff
fffd00000000000000020001000000040001
fffd000000000001fffffffe00020000ffff
0002fffd00020003000400070001fff6fffc
0002ffff00040002fffafffb0000fffd0000
00020003fffdfffd0002fffdfffdfffefffe
0002fffcfffe0005fffd0001fffe00020000
0000000400020001fffdfffd00000000fffd
00000002fffe00020000fff90001fffd0004
ffff000300020001fffc0003000200000007
ffff00010000fff80001ffff000200020003
0005fffffffe000100020003ffff00000001
00010003000200000000fffb00000000fffb
000600040001000100000002fffffffc0000
0002fffd0000000700020002000300020003
0000ffff0000000200050000000000000000
00000000ffff0006000000010000fffefffc
00000003000100010001fffc000300000001
fffe00030001fffefffd00000004fffafffe
0002fffcfffc000300000001fffcffff0006
0006fff700000003000200010004fffb0000
fffeffff000600070004000400000001fffc
0000000500020000fffa0000fffeffffffff
fffa0000fffc000600010007fffbfffcfffd
fffefffb000000020004fffa000000000000
fffd0001fffa000100030008fffb00000000
000500000001fffcfffffffbfffc00070004
0000000000030000ffff0000fffffffe0001
0000fffffffe0001fffe0000000100040002
fffe0001fffefffe0004fffb000000050003
0004000500060003fffffffffffefffe0002
fffefffdffff000100000003fffe0000fff9
000000010002ffff0000000300010004fffe
fffe00040000fffffffd00000002fffb0004
fffefffdfffe00030004fffc000000040004
000200010003fffcfffe00010005fffbfffa
fffe0000ffffffff00020000fff8fffd0000
0000fffe000100050000fff700050004ffff
0003000600000000ffff00010000fffefffe
ffff0002fffd0000fffffffc00000001fffe
0003fffcfffffffc0000fffd0003fffe0002
ffff0000fffe0000fffc0001000200060000
00020000fffefffdfffbffff000300040007
ffff0002ffff0003fffe0002000000000001
0004fffefffd0002fffcffff0000fffefffe
000500010000fffb00050004fffbfffc0000
0000000000000001000000040000fffe0000
000300000004000000040000fffa00000001
00070003fffe00050003fffefffb00000003
000000060002fffbffff0000fffefffffff8
000200010000fffd0000000500000000ffff
fffd0000fffd000700000005fffe00000000
fff8fffafffc000200000000000200000000
000100020006000000000002fffffffafffc
fffcfffd0000fffcfffd0001000000020000
000200010001ffff0004fffd00010001fffe
fffe00030000000500010000fffe00000000
0005fffe0006fffefffb000100000000fffd
fffb0000000000000004ffff0001fffffffd
fffe00040001fffe0000000100000004ffff
0001fffaffff0005fffffffdfff800030001
0000fffffffc00040001fffe000100020001
fffd0001fffcfffffffd0000fffb0001ffff
00030002fffe00010000000100020002fffd
ffff00000008fffbfff80000fffdfffeffff
fffb0000fffdfffb00000001000000000000
000000000002ffff0007000500020000fffa
0003000300060000fffcfffefffcfffe0000
0000fffc00010009fffe0003fffffff6fffa
fffffffe00000000fffffffefffd00000003
0004000100030000fffdfffffffd00000001
ffff00000002ffff000000000001fffcffff
00030002000500000000fffe000300010002
000000020004fffbfffd0003000200000000
000000060001fffffffb0003fffafff9fffe
fffcfffffff9000afffe0002fffe00040001
ffff000000000005ffff0001000600010000
000000000001ffff000200060000fffd0003
0000fffe0004fffffffb0006fffffffe0004
fffdfffd0000ffff0000fffcfffc0002ffff
0000000200000009000000000000ffff0004
00040005fffd000300040000fffefffcfffe
0000fffe0001fffc0002fffb000100080007
00010000ffff0004000000000000fffcfffa
fffe00020005fff8fffd00000002ffff0005
0004fffdfffffffdfffbffff0000fffeffff
fffefffd0000000200020000000000030001
ffff00000002fffbfffbfffc000000000000
00000000000000000000000a00050000fffd
0004fffffffb00000001fffe000500010001
00060008000100060001fffdffff00050002
0001fffeffffffff0002fffeffff0005ffff
00010003ffff00000005ffff0004fffafffa
0005fffd0005fffe000000060000fffefffe
000200010002fffe0001000200010001fffc
fffd0000ffffffff00000003fffffffd0005
0005ffff0002ffff0001fffb000100020004
fffffffa0005000800000007fffafffefffc
00020003fffb0008fffd00010003fffdfffe
0000ffff00010000000500040000fffa0002
fffe0000fff7ffff0009fffbfffdfffe0000
ffff0004000200010002fffa000000010000
0000000000020001fffeffff00010007fffb
fffffffdffff0000fffc0001ffffffff0000
0000fffcfffdffff000500070002fffd0001
fffe00010002fffbfffd000200060000ffff
fffd00020000ffff00010000000000000002
0002fffdfffb00000005000600070000fff9
0006000200000005fffd00010003ffff0003
fffe0002fffc00030000ffff000200000003
ffff0002fffffffffffbffff0001fffe0004
fffb00040006fffefffd00020000fffcfffc
fffe00000002fffb0000fffefffe00000002
000000080006000200000000fffe0000fffe
0004fffdfffd0001fffefffe000400050003
0001fffe0004fffefffdfffe0000fffdffff
fffe0003fff9000300000003fffb0000fffa
00050000fffd00040006fffe0003fffcffff
0002000200000003ffffffff000100010000
00010004fffd0000ffff00020004fffc0001
0000fffc0000fffe0002fffd000100010005
00000005fffd00040004000600040000ffff
fffffffe0002fffbfff90002fffffff60000
00020000ffff00000004fffffffb0003ffff
fffe000400000001fffc0004fffafffffffb
000000000001000000030004fffbfffc0002
00050005fffffff8fffb0002000600070000
0000000100000000fffe00020000fffc0000
0001fffa0005000000050001ffff00060001
0000fffe00030002fffe0003fffefffffff8
fffe0002fffe0000000000020000fff9fffd
0006ffff0000fffcfffcffff000300080006
0007000100060001ffff0000fff9fffd0002
0003fffd0000fff600000000000300030003
fffe0000fffc0008000200050003fffdfffb
fffcfffafffa0001fffffffb00030005fffc
000200060005000200000000000100000000
00020000fffe00030000000000000000fff9
000400000001fffe0003fffc0003fffc0001
fffdffff0001fffd0003fffefffa00000000
ffff000000020005000b0001ffff0000fffe
0003000400010000fffd0000000000000000
0001fffcffff000000040000ffff00000002
0004fffe00020000fffe0000fffe0004ffff
0004fff9fffffffd00040000000000020006
0000fffcffff00020005fffd0000ffff0004
000200010002000400040002000300010002
0001000000050001fffbfffffffd00000005
fffc0000000100010000fffd000000030003
00010000ffff000100040000fff900020004
ffff00030000fffffffc0002000000000002
fffffffe0000000300000003000100000002
000000010000000100050006fffcfffffffd
00020000ffff00040002fffdfffc00030000
fffdfffffffe0001fffb0006000200040000
000000000005fffc0004ffff00040001fffe
fffbfffcfffe000400040001000000010000
0003fffc0000fffd00000001000600020005
fffdffff0004000000040002fff80002ffff
0000000000030001ffff0002fffefffb0001
fffe000000000006000500040005fff9fffb
000200050004ffffffff000000040004fffd
000afffa00040004fffffffe0000fffeffff
0006000a0007ffff0001fff9fffffffc0000
fffcfffdfffd00040001fffbfffafffafffe
0004ffff000400010004ffff000300020005
00000000fffb000000020003000100000002
000400010000000000000006fffe0002fffd
0003000100000001ffff00050004fffafffe
0000fffe00040001fffdfffbfffe0001fff8
fffefffbfffe00040003fffb000000010004
000100010000000500000000fff9fffe0001
fffcfff9fffc00010001ffff000600050007
fffeffff00000000ffff0005fffdfffefffe
fffd0007fff90005fff7000200000002fff8
fffdffff0000fffeffff0000fffb00000000
00000002000400000001fffe000100030001
00000001ffff000200000000000000030000
0001ffff0002000000000001fffc0003fffd
00000002fffd0003fffafffd000000030001
000400000006fffa0007fffe0003fff90004
0004fff70000fff9000200060007fffa0001
ffff0000000600010000fffcfffd0000ffff
0000fff8000300040005000afffc0001fffd
ffff000000040006000300000001fffd0000
fffb0006fffd0001fffe00010002fffbfffe
0003ffff0000fffffffa0000000800030001
fffcfffd0004fffefffd0001000200060003
ffff00060001fffdfffbfffc000000010001
fffe0006fffbfffefffdfffefffb00020003
00020004000200010003fffe0000fffdfffd
fffffffefff7000400010003fffe00010000
000100010005000400000001000000030002
000000000000000000000000fffe00010002
fffdfffafff800020004fffcffff00050001
000000040002fffffffc0000fffdfffcfffb
fffffffffffe0000fffd0001fffd00010001
fffc00030001fffe0000fffd000000020002
fffe00010004fffb000200010001fffc0003
0001fffe0003ffffffff0005ffff0000fffe
fffc000100020003fffe0001000000000000
0001000400000001fffb0000fffa00040000
000100000000fffe0000ffff000200030000
000000000001fffffff7fffffffb0000fffc
000200020000000000060000fffffffbfffa
fffbfffa0000000200050007ffff0000fffc
fffdfffcfffc00060006fffefffcfffafffd
0002fffd000000020007ffff000500000001
fffd00010005ffff0000fffcfffcfff90000
0006fffd0005fffffffd0004fffffffe0000
00000005fffffffbfffe0003fffd00000000
0002fffffffa00010001ffff0004fffdffff
fffbfffeffff0004fffe0004000100000002
000100020005fffffffd0006fffafffe0002
00010001fffe0004fffe0002ffff00010001
00000005fffe0005fffeffff0002ffff0001
fffefffdfffc0000fffd0001000500000002
000100000000000600000001fffd00000000
00000003fffafffdffff0000000000050006
00000003ffff000200060000fffffffafff7
fffffffe0002fffffffbfffdfffffffcfffe
fffcfffefffdfffeffff0003ffffffff0002
0000fffe000200000000ffff00000004fffa
35
89
1a4
92
e5
18c
f6
119
185
ffe8
15f
fe
c7
1cc
9a
136
95
31
1d3
144
144
1cc
21
103
e3
103
15d
2c
151
d1
145
10f
12b
8e
177
191
177
65
158
a2
4d
21e
cc
12c
138
e2
50
d9
190
fb
170
127
a9
13f
161
175
39
1b6
ffba
c9
86
de
149
e4
db
c9
c5
119
271
ff9e
14e
105
160
e4
f6
147
146
dc
e4
b7
142
e9
6f
12d
10c
10a
69
a0
1df
4f
217
13a
8b
174
b0
108
e0
c3
e5
fe
2e
1dc
1d
c0
23a
127
db
cc
ed
145
117
116
68
152
110
112
d7
139
6
50
255
85
121
129
ef
192
171
d0
7a
19e
7e
109
fd
65
14b
13a
13c
1d5
152
1a9
6d
27
fe
50
ef
b4
c3
7c
127
185
25c
10d
fa
bc
24
16f
f6
139
36
124
fb
13b
1a7
f4
bc
19b
a1
10b
29
e5
20
174
10e
1e8
13e
53
a1
ee
2a
126
d2
234
154
8b
158
27
16a
c6
d6
f9
189
d7
fe
188
155
a8
12c
ffdd
1c4
103
8e
106
157
7b
eb
17d
6e
153
a9
100
aa
19f
184
19d
163
77
114
38
175
12f
41
53
1ae
ad
e8
cb
2b
7d
1b5
199
1aa
128
c4
3e
157
118
f9
147
20
157
129
c4
a8
16b
d2
122
12b
83
ef
2a9
58
190
10b
6e
b6
10a
e9
116
c3
14a
140
69
19d
12a
cf
1ec
b3
2f
ce
1a
1ac
11e
f4
11c
17b
130
7d
e2
ff27
ce
a3
180
ec
159
118
18e
15c
da
139
119
9d
a3
ce
101
f3
d7
190
ffdb
76
10f
1d8
d9
174
205
140
eb
163
9d
4b
18f
118
89
2d
18f
fff4
122
ee
199
161
157
157
92
1b0
16f
be
b4
47
62
172
19f
c3
212
6a
d5
d9
ba
100
16f
b8
1a5
fc
12d
f5
126
9b
9e
207
ffab
d9
8f
14c
127
117
8f
133
e9
108
11d
f9
119
17f
1c4
1e3
e4
ffdf
120
3e
4a
b3
11b
e7
141
25c
ffd5
e4
b0
11d
a9
1bc
101
ab
f1
153
cd
1bd
152
125
159
167
65
4e
1c4
a4
12d
196
c9
5b
f6
d7
1b
d0
fff2
149
49
ec
286
c6
177
11e
103
be
11f
d0
13e
b5
15b
15e
126
18d
18e
94
e5
d0
108
c1
199
ff57
188
69
11d
101
ed
174
10c
148
101
74
1df
1d8
e5
13f
4c
14f
6a
38
113
62
100
8e
141
be
d9
fe
115
c5
fb
1b8
ffb3
c0
ef
1c1
210
144
e4
106
15c
f0
115
161
fffe
e4
127
b9
272
159
da
116
5d
87
f6
122
b3
198
f8
ffeb
253
55
13a
a8
142
92
13f
11a
f1
171
112
214
79
13c
17f
174
ffdf
197
110
12a
159
8c
6c
166
b6
cb
dc
142
9
96
46
131
12b
176
d9
c4
c1
27d
9a
13e
10b
e1
16a
120
b7
10e
11f
ffe3
f5
be
df
17a
10f
1f2
8d
1e7
2d
133
152
163
158
64
17e
ff
7a
11b
81
be
130
23d
b7
1a0
103
1a
12a
f1
e6
c9
16f
19d
c8
12a
171
133
4b
17b
ff6f
a9
163
12a
100
138
91
a9
11b
151
ffdf
18c
a3
1a8
1ce
8d
166
f4
fa
139
5e
132
ee
71
c9
187
1ba
f0
1c6
130
5c
1ff
10c
b7
1f
90
de
80
14f
16d
92
95
198
179
ee
7e
ffdb
106
f6
15d
ae
17a
184
c6
b3
15c
10f
181
19
256
c8
11b
127
131
128
a9
91
55
131
6c
c6
10b
130
149
bc
cf
103
17f
a6
d2
2ad
11e
b1
14f
57
133
9a
13e
84
7b
1b5
2a
1f0
d2
3d
1be
12b
e8
127
eb
e6
16f
16e
e1
196
16f
ae
106
54
13
160
181
122
154
ffe3
14a
8b
ffbd
12c
fa
f5
138
ec
255
df
10e
114
8e
147
b1
172
3b
125
114
196
125
dc
e5
c1
9e
139
e5
af
222
35
1c7
7d
4a
184
130
df
c7
18f
19d
161
155
116
69
149
ff21
c1
13c
11c
de
12d
84
16a
67
ca
13d
85
1bf
197
131
14b
1d1
6e
99
12b
34
ad
157
90
ad
2b
cb
17f
10d
8c
151
1af
43
1ea
130
9e
18c
90
123
8d
aa
119
1fc
15e
18c
ffa7
c0
df
12e
18e
d6
81
11e
f8
ffe8
b4
159
f2
1c
197
82
154
170
155
aa
209
e6
126
e6
b1
110
82
e6
91
138
117
12b
181
140
7e
93
13e
19
295
be
150
130
e5
149
ee
106
111
17b
de
26
179
ff27
d3
11b
ba
16a
134
88
144
1aa
190
1c6
2d
55
c8
163
197
6a
e3
e0
b9
102
14a
dd
144
c2
a3
3a
24e
135
11f
139
30
13a
107
94
192
c6
132
17
a0
67
8f
e7
217
135
8e
138
b9
a1
16f
141
139
d6
1f4
6b
1ce
b6
14
9f
83
a4
104
11e
1bd
80
1d0
153
f8
181
13e
156
f9
43
16d
146
22
146
b9
1f4
1cd
f2
e8
71
7f
e0
142
a2
179
ac
12d
117
16a
ee
85
1e2
5e
99
12a
ffea
17d
12a
1c1
174
12d
119
133
e6
58
cf
11f
11e
167
f1
c3
bc
56
2b6
82
d0
175
143
68
b3
6
ec
db
164
1f6
d9
1ab
4a
15a
dc
94
91
150
13f
ff
169
245
aa
95
134
3c
1a5
ba
122
84
e4
69
120
fa
105
104
170
e4
ffd0
130
b7
153
262
d1
11c
b1
d2
bd
a2
11d
1ac
c4
ab
231
107
192
4d
3e
5e
da
fc
15e
141
110
1a0
13e
8f
ffd3
fffe
146
1d3
fc
e7
af
cf
131
131
128
af
1d3
69
129
113
132
1c5
68
1ff
4e
1aa
ea
da
d5
11a
1c
12d
145
a8
b4
12c
104
17b
116
151
c0
b5
c7
167
1b6
cd
1e8
fff2
9
e2
13e
93
14f
cd
75
2f9
9f
171
ba
10f
4f
165
113
110
d3
a7
192
100
191
79
132
bc
111
e8
fffd
18d
42
186
1e2
fc
db
11f
f8
1f1
d3
120
10b
79
143
155
2
dc
a9
f1
21a
124
49
1d7
1da
39
233
90
10a
5e
c8
181
9e
107
fd
94
121
f1
bf
40
13c
e0
167
db
e5
a0
85
1fb
7a
118
141
c4
27b
72
112
147
f1
70
107
1d7
85
11b
36
7a
19b
198
163
6
172
b6
f3
161
a9
76
14e
f5
135
9f
16c
13c
84
2ad
c5
10e
58
e7
114
11d
8f
fb
66
106
f4
b6
215
1b8
10d
1fc
57
151
63
c2
9b
f2
cb
ea
ac
129
167
fd
12a
16f
ffbc
1dc
89
ca
1a2
79
129
15f
f4
1cc
ae
10
136
c0
43
d0
1b8
133
16a
197
1a
f3
11b
101
29
c0
151
f8
1df
132
6e
181
72
13d
116
f
1be
12d
8c
105
13c
11c
14d
7e
1fe
13a
a9
c9
ff
ffd2
1c3
167
ef
64
118
14d
12d
ea
c9
114
b1
fff2
111
1f1
131
142
1c2
ffe7
c4
144
c1
a9
fb
52
fb
84
5f
ae
170
1fe
5f
12b
159
154
1b9
af
1b5
7f
156
c4
9d
d9
184
127
39
1b7
8d
1a3
147
9d
8b
65
1f0
154
16a
102
13c
178
12a
ffbc
71
db
192
63
175
9a
ad
197
138
d5
e0
61
a0
16b
1fa
1bd
d9
a3
179
27
197
ee
b1
b8
d6
bb
76
d3
93
161
1f3
16f
90
99
17
13f
ef
1bc
18f
9f
133
f0
ff51
e3
12c
11b
18e
1ec
161
8e
f0
ce
89
f3
150
142
ef
225
ef
118
65
1c9
13a
2c
b4
ba
17c
ff
1da
10e
a0
66
e5
bf
1ce
1f0
156
14a
15b
112
9f
11d
71
ffa0
10d
be
d7
115
b8
108
37
15f
15d
10f
1c3
12b
b9
8e
15d
128
121
1d3
3c
9b
11
8d
87
128
174
201
1ec
3e
fb
e8
f0
15e
ce
66
18a
7c
ee
14d
e6
10a
11a
cf
17b
96
e5
18e
73
23e
86
cd
10f
ffe8
14c
135
ae
1d5
176
c3
197
ffcf
143
d3
43
167
118
10b
12f
144
61
f3
c6
f5
15d
d6
2df
f6
110
a4
61
115
185
df
12a
3f
129
12c
e6
c9
147
108
c0
127
14f
92
122
ff11
15a
18d
f6
153
1a4
132
135
150
db
b8
187
d5
d3
138
95
273
54
127
72
a2
ea
18f
115
10a
148
149
d9
11f
12a
82
1ca
ff5b
10b
41
ec
115
11a
11b
134
e9
fa
42
1d4
91
126
197
ffcd
17e
f9
123
81
169
142
ce
d6
13f
11c
74
148
188
14a
e0
15f
ffdd
12c
8a
e7
1fd
32
37
164
cc
eb
141
e2
f7
93
be
21e
220
bc
9e
b5
b3
130
b8
125
c0
125
154
113
ffa9
9c
1e7
114
1b3
181
132
d5
bc
64
1b7
10e
b3
1cc
125
102
226
162
11e
ee
b3
4a
ffff
124
dc
4c
1b0
8d
af
d2
d3
19d
12c
120
e3
ffea
151
105
16e
1ca
2a
f1
c1
e2
108
ee
d3
22d
b8
bb
61
a2
a9
98
184
1c7
17a
fc
8b
56
151
142
116
145
23
257
140
15f
33
e5
fe
d1
12a
12e
9d
de
68
183
10e
cf
18e
fe
4f
157
0
113
18e
106
20b
fa
14d
c0
12d
15f
c7
5f
177
57
60
1a7
192
c8
13f
c
19f
114
149
af
f6
14d
149
c5
157
a1
27
28d
e9
156
d3
129
9c
76
17c
c1
d2
b0
a2
8d
a1
c5
135
fd
1e1
2a9
df
138
7c
ac
14a
198
fd
e8
15f
149
11a
fff9
5c
17b
bb
b2
1d4
fff8
149
12e
ec
156
a5
161
12e
ffee
261
f5
10f
157
11f
104
84
90
f0
c3
b9
181
153
126
60
126
8a
10c
158
fb
a7
1ab
7f
166
1ed
ffd1
13a
173
104
a3
d2
111
13b
ff91
f3
47
121
f3
cd
1e1
146
1b2
d1
105
8e
1b6
19d
91
17d
e5
7a
11a
d0
d4
137
aa
221
d
180
1be
12c
67
fff3
ee
8b
1e2
aa
179
128
6a
da
140
8e
143
114
a5
e5
60
6f
195
125
1b2
bd
1e7
7d
10a
161
fffe
f9
165
19d
66
208
131
f6
c4
231
117
10b
a2
10a
12a
11c
37
52
df
114
a2
1b2
47
168
71
1a3
171
a0
167
e
eb
191
106
8a
16f
92
128
6d
1e4
120
1b3
ff
86
b7
e2
ffae
fa
13e
16d
18b
fd
52
112
8f
178
123
168
e7
147
cd
ffcc
13a
53
198
18e
d9
1b1
12d
112
81
159
114
119
a6
a0
13a
118
2f9
f5
af
a9
8d
bf
ffc7
e9
206
de
15e
1bc
37
143
140
f0
e9
ca
af
89
147
121
ec
e9
193
172
129
ed
da
11b
71
22f
167
8c
5d
10d
ffe5
123
187
18b
1bd
180
180
4d
a0
ba
169
59
bc
145
7a
17c
106
18
d7
f8
ff
115
de
1f1
71
136
ee
16
185
aa
124
1af
45
1a7
14d
124
1ba
15e
10c
12
5
17b
66
c3
1c4
f7
f4
f9
ab
161
151
108
e
69
18d
cd
e6
110
104
1f6
10b
115
ef
54
1c2
34
e4
101
cf
12f
f7
61
257
68
152
f
1a1
102
13e
106
11e
8e
d4
179
184
a9
178
11
9a
12f
188
df
1dd
65
50
165
91
104
9f
7f
1d2
127
114
1ae
2
3c
1a4
108
67
146
fa
11f
14b
db
6a
179
b9
174
ffec
1c6
9c
7d
12a
e9
133
14c
13f
63
1b5
13a
10d
139
be
cc
ed
a3
110
e1
142
da
1a9
ed
a9
1ed
ff87
197
7f
15e
7b
10a
13b
2ad
159
9e
a6
127
40
c7
13e
71
129
126
a1
101
96
112
121
104
b2
125
73
323
58
164
117
10c
e2
14a
136
d5
8b
161
14f
e2
142
f8
8c
2a8
7e
163
11a
96
7b
d4
bf
1f0
80
5e
eb
164
117
102
161
2b
e5
104
212
97
188
78
106
112
1e7
19c
70
fc
3c
70
122
f5
48
1d9
158
b8
196
b9
11e
fb
154
d6
6f
25d
53
ce
6a
d2
fc
12c
166
10b
1b0
8b
141
ff
16f
90
10b
e2
12f
a0
106
a0
161
f1
60
2aa
137
2b
1aa
233
f9
128
5a
118
169
170
e0
fffb
103
ed
5c
147
e4
84
d1
129
f4
104
a3
127
103
b4
154
18e
ffbe
17f
f
1f5
147
d7
132
2e
10c
19b
a9
1f7
129
ed
51
11b
57
185
c3
16c
155
78
1
1c9
98
115
33
11a
1ff
c0
19e
fc
89
151
ba
11f
d3
13f
bf
8a
14d
88
79
28d
83
113
bf
174
fe
f6
97
139
df
1a9
103
d9
f2
145
7e
b
1e5
1a5
138
1fe
b0
b3
d5
b9
106
b5
a5
db
c8
6d
12f
133
e8
ca
1a4
24
d1
1df
1c2
19
193
128
147
12c
93
147
d7
6e
34d
50
128
13b
f8
ec
101
121
d6
146
a9
a3
11c
127
a6
1cc
4f
d8
f4
25d
60
151
ed
a4
15b
104
100
a8
128
db
e6
17b
168
d2
198
b1
fb
1ea
121
1b
143
ffcd
c2
a7
16b
8c
106
e6
d8
8a
1f8
ee
122
1da
41
1e4
db
53
ad
ffff
186
119
11d
d6
100
fa
12d
ffca
1a6
113
12e
1bf
10b
b7
1a0
f0
146
156
b3
6b
141
e3
ec
1ba
53
137
a8
102
1da
ffd5
138
ec
2e
c1
ac
85
23d
159
14d
a2
159
12d
159
b1
156
24
149
b8
db
2e
125
ffda
180
17f
f3
d8
1e5
cf
17a
c6
9d
16c
fc
a2
120
1bc
166
204
b5
fd
e4
15b
ffd8
bb
15b
6d
152
9c
109
82
5d
16a
128
ae
ffad
5d
e1
1a4
166
198
1a6
104
13f
11c
ea
49
eb
108
10c
174
126
276
19d
2a
d2
a0
c1
114
14a
b3
128
e7
11c
cb
19d
7a
19b
11a
1d2
8b
3a
15b
8f
144
15c
4
f6
b6
14e
d1
a5
1f6
cb
130
c4
f0
ff92
1cf
7f
11e
145
ef
15e
152
64
16b
e5
8d
16d
e2
5
218
ab
85
18c
b4
135
c4
133
15f
ffd9
8b
14e
76
213
98
102
dc
109
10c
168
176
79
153
149
ffee
199
188
170
153
92
58
5b
dd
1ab
b3
15e
169
96
14e
12e
106
197
a7
62
1de
4b
1a3
3f
c9
f9
1c8
121
159
a3
9b
dc
de
ce
10a
13e
d3
119
ac
52
34e
112
134
12e
ca
7d
f9
130
137
d5
107
155
fee5
180
81
122
147
11e
e7
e4
cc
f0
43
6d
ffa8
105
b0
199
106
139
c6
17b
180
88
1ca
b1
7b
108
19e
ffcd
3b
a1
130
155
221
10d
130
87
169
ad
bc
129
195
145
f9
145
ec
c0
123
b5
16c
19e
60
a2
136
ff69
194
d5
199
e2
c5
f8
a4
179
134
f9
a6
ea
bd
47
2c5
13a
159
171
51
ee
bc
145
130
184
9b
131
19f
135
9e
cd
bf
ff97
1a4
65
a0
16f
10e
14d
13e
106
16e
80
15c
111
63
144
5e
22d
a5
72
1a7
7a
df
16a
c8
cc
45
9c
17b
194
116
d9
f8
6c
23b
4b
135
147
41
4a
92
c4
e3
13d
14f
b6
14f
b5
1f9
4
d7
160
d1
1da
124
84
75
20c
72
ac
165
76
15c
113
172
d4
be
1e8
2e
158
10a
1ce
158
ee
ae
ec
ef
19d
17e
cc
fc
ff13
76
137
106
115
bc
23
f9
ac
4d
15b
110
112
193
1a0
ffad
124
11f
10e
15c
18d
e5
158
66
112
d0
12
1dc
103
ea
185
13d
a
112
a5
e8
1d5
ff
11a
b1
bb
9d
d6
187
ef
117
169
58
1a3
f9
6c
241
49
127
183
fe
e5
d7
5f
1b1
164
109
15f
ffd9
126
15
17e
f3
172
100
25
72
81
12c
c6
185
72
d9
19d
8d
21c
132
11e
136
b6
150
126
195
186
db
d3
114
26
147
18a
ff9c
156
104
115
99
112
139
154
2d
1dd
f3
a4
3a
140
143
161
8b
120
fc
63
1de
a7
188
df
9c
120
fd
a6
a9
1d0
80
1b8
89
120
151
3e
179
1aa
39
cb
131
b2
9c
ca
bc
164
10d
e1
111
ffaa
13f
9e
16a
26e
114
123
da
138
114
16f
11b
af
16c
59
134
fffa
11d
1b6
112
1c5
fff6
189
a8
123
c7
148
ff8a
197
115
cb
184
45
c2
149
11b
16f
e8
184
ee
ba
17e
101
85
11f
a6
9f
1c8
12e
79
19f
ffed
1c1
bf
1ce
159
168
c6
120
160
10a
139
9b
9c
ffad
1ad
63
117
126
eb
a3
135
156
113
107
e9
be
22f
100
d8
ffce
de
160
1f4
e4
4b
1c1
ec
15d
126
b5
a6
46
141
ee
153
16b
13d
1
1b2
fffa
133
130
7b
138
c
10f
202
b1
143
17
131
69
e7
196
d0
18a
154
40
164
116
fa
156
1e6
109
136
152
ffa9
105
53
14b
124
95
c0
107
173
e6
133
130
ff4f
198
55
169
10b
9f
165
12f
d5
15b
d1
ae
c0
1a6
ea
13f
f9
1e3
116
e6
f2
ff9d
1cc
ac
a3
122
7d
17d
1ec
53
7b
16
1b1
ef
17d
db
95
13e
111
e4
1a6
65
115
199
60
155
142
fa
107
1a8
102
144
c8
ff2d
101
f2
166
ec
d2
154
fe
c2
c0
ff
122
1b8
108
bd
89
b1
167
b3
2f3
9a
149
ed
ee
e9
1a9
9d
181
159
b8
107
ffe1
1a9
ba
fb
b6
1ea
47
14d
14c
a5
11e
17d
122
84
1d4
dc
85
f7
b1
ffc1
1f3
d8
fe
174
183
13c
59
de
a5
129
1ff
155
196
a2
cc
9a
ffc9
f2
c5
df
195
104
bd
1a0
18
10c
165
143
109
114
c5
e6
11
1f1
6d
d5
190
1ca
11b
194
c5
160
a1
5d
9f
83
199
45
1a7
ba
4c
101
188
b0
f8
13f
16b
140
162
d9
ff54
2c
10b
14f
134
17f
103
16a
101
9c
67
17b
ffb3
184
42
16d
77
14e
1a4
e1
145
102
135
127
ec
bd
13b
b5
ff70
1df
c9
1d9
f0
fa
11d
be
119
eb
10b
fff5
14d
d6
1aa
ed
147
15f
98
70
a0
154
e3
231
d4
6a
187
a5
19e
1a
f0
13f
5d
163
166
12e
66
131
32
1b8
e5
151
1a6
e2
13c
e3
9f
c2
1b4
ce
ff
125
1
49
1b4
1cf
c6
1be
af
c6
10b
ab
16f
13f
11a
86
b6
30
1df
20f
159
cc
101
113
1a
f2
173
105
ff
146
62
18c
177
6b
146
ffed
e7
1f1
d0
142
85
138
8b
1cd
c5
fb
1a9
163
54
11
f1
191
72
12d
87
d6
189
162
104
c3
f7
13f
7d
e6
1d0
10d
3f
17e
b0
cf
231
42
133
14a
104
d1
dd
1a5
1c7
d7
11e
9c
c5
fff4
199
59
ec
1d4
9b
1ba
f3
124
c2
101
146
6b
f3
f9
43
112
18f
167
ab
1fa
fff5
a2
b0
cc
d6
84
188
fa
132
99
1e7
ff5c
148
177
173
fb
f9
c1
116
125
199
de
188
72
14b
da
ffc7
192
83
196
ff
a9
197
13
122
de
84
232
5e
116
cb
1a3
158
8a
16e
113
a5
ce
184
1d7
15d
f1
108
1ce
ffc5
161
11c
8a
137
12e
8d
130
36
146
d3
12b
79
db
e0
d3
2c8
c6
139
8c
166
10c
e4
b7
44
130
140
e6
145
254
141
97
d4
b7
38
1a5
d0
dc
4b
b7
184
ce
1b0
b3
121
136
bb
eb
120
155
be
b9
123
ff5d
20a
d1
18d
f6
ef
1
98
1d7
12d
1f0
7b
1b1
4f
ff
118
c2
153
c5
107
bd
13a
b1
bf
fb
9a
e3
105
14e
100
17a
c
152
1fd
10
1dc
d4
ce
172
158
ad
10b
153
11f
d0
108
bf
ff74
17f
124
d0
1ab
16c
41
d0
fa
c4
16f
ed
184
17b
122
15f
ffdc
138
42
8b
f8
1f8
9e
af
1bc
9f
12b
59
1b8
fffe
1dc
12e
b8
179
114
c4
15f
81
cd
77
13d
fa
12f
10f
87
176
ffca
109
1cd
12d
1d5
146
43
83
f7
ed
d6
97
e9
164
15e
12c
140
1a
103
16f
a8
12e
256
3f
8d
1ba
130
19c
ca
b5
10e
16b
7f
ed
ffdd
e9
165
24
1d0
e1
e5
135
1ac
17e
18d
12f
182
ff3a
10b
f9
c7
88
ed
7f
128
117
113
111
143
114
136
12c
1be
af
8
10e
5f
1ef
12c
b8
24
ea
151
11b
45
171
104
90
103
67
c9
18b
e7
179
1aa
113
1e6
fffd
da
9e
14d
103
14b
172
c6
5e
8c
ec
99
2a4
173
91
102
d7
146
129
aa
1c9
122
12c
de
187
ffbe
162
47
194
110
4a
f9
106
123
109
1b3
103
a0
14e
7
d9
18e
5d
10d
82
150
23f
106
132
d9
145
126
114
4d
dd
14e
1a0
ff
207
62
f2
56
f3
8c
5f
1e1
106
104
154
d9
124
149
9f
156
e3
1a7
ff78
146
c3
cf
1cd
e4
10a
60
1ab
91
1b7
119
ae
1bc
73
165
b9
38
133
128
70
1b6
204
de
90
9b
e2
a2
88
114
ee
15c
3b
1a8
f7
132
20b
79
7d
13b
119
129
1c2
17f
189
9e
116
ffd9
11e
e6
7b
159
e5
9d
177
166
15b
11d
116
aa
30
7c
102
a5
280
128
10d
104
92
d7
79
9d
ed
e9
13f
15a
175
12d
5b
42
44
130
162
217
18d
9e
155
d0
1ca
75
10a
a
116
156
10c
1f1
107
131
152
55
7d
a8
193
d4
18c
af
d8
d9
ffe5
15e
86
1d0
69
199
190
117
c0
fa
dd
72
10d
19d
50
169
76
1f2
60
163
26
14c
110
11d
172
149
15b
4f
fa
131
107
e2
11c
15f
89
134
fe79
11c
119
d4
16f
128
174
125
164
135
115
ff65
24
17e
161
f9
147
160
a9
76
10e
135
107
cb
37
48
168
9e
118
1e1
14b
14d
182
89
fffb
17d
11c
b5
140
12a
f2
107
5f
14c
13f
151
a7
18a
9e
ffdb
13d
1bb
2d
184
ae
153
a3
fe
6d
1ad
b6
12f
15e
1a
a3
127
ae
24b
121
14e
13d
d8
ac
e5
fc
114
c6
118
27
27c
b6
178
13f
2b
107
146
139
69
140
c8
55
11e
1e
17b
e9
1d3
2f
1a3
117
15c
110
10c
105
e4
128
c5
96
e0
168
76
13a
f9
14
13c
ad
2c4
e3
14a
f9
c0
10a
cb
d4
2c4
76
15f
d0
78
10e
11a
ec
17b
160
fe
150
1ac
b4
12e
cb
ef
ff7f
129
194
d3
1ae
c9
d2
c6
16e
e9
8e
10e
10d
11d
74
119
c9
af
168
1e7
ff95
10a
a3
13a
1ac
137
18a
cb
ffc4
101
10f
16d
b4
e9
6e
124
190
175
1d4
92
87
118
133
10f
b0
177
b5
1f5
115
f5
b6
69
17
127
195
71
1d5
107