0001fff4000200050009000cfffe00080002
fff1fff6fffcfff200030001fffbfffcfff9
0009fffdfff7fffbfffffff20008fffbfff8
00050007fffe000100080000000200090011
00030011fffc0002000b00040002fff10007
fffa0004fff50004fffc0001000200010000
000700000000fffd000bfff3fff8fff7fff6
fff90000fffd0000fff8000100060006ffff
0003000c0001fffc000b0008fffd00010006
00060005fff90000fffffffbfff60001fffe
0003fffffff6ffef0005fff300010002fff5
000b0004000d000a0007fffd000c000e0006
000c000800000007000efffefffd000d0010
0004000bfffdfffd0006000600010002000b
000dfffffff8fffafff9fff9000c00070001
000bfff0ffee00020002fffb0003000e0006
0003ffefffeefff1fffb000bffecfffa000f
0004fffe00030009fff5fffb00030000ffff
fff0fffafffcfffcfffaffff000300090008
fffc0004fff6fffdfff7000500070014ffff
001300030009000400010007000f00020000
fff10005000efffcfffa0004fffa0004000a
fff10000fff80005fff60006fffffff80010
000c0003fffe0005000000020011fffbfffe
fffd0003fffefffd00000004fff6fff6ffff
ffef0005ffeefffa000b0007fffefff8fffa
000d00060006000d000f0006ffff0009fffe
00020006fffffff6000700070001fff40003
00000002fffe000ffffffff4fffbffff000a
fff000010005000afff2fff6000f00010009
0009000c00000008fffe0002fffd00000000
fff8fffa0009fff4fffb0000fffb00010009
fffe000d000b0006fffa00020003fff8fffa
fffcfffd0000fff4fffe000600080004fffa
fffd00000004000400050002fffafff9ffff
000ffffeffff00000002000c000c0000fffd
fff8fffa00000000fffbfffa0005fff30003
00060000fff00008fffe0012fffd0004fffd
0003000e0005000bfffd000cfff10007fff9
000cffff0007fffb0000000200040006ffff
fffffffd000e000500050005000ffff6fff7
0000fffb00050004000300010000fffc0002
00060002fff7000dfff90000000000070006
000d0002fffdfffe00040000ffff00060001
fff6fff5000d00090003ffff000400040000
fffdfffafff8fffa0002ffeb00020006fff7
fffffff9fffcfffb0000ffff00000001ffed
fff7fff4fff5fffe0008000bfffffff90000
000c000f0004fffbfffdfff8fffa00040000
000000010000fff6fff8000f000000030008
fff6fffe0008fff100040008fff7fffe0011
fff70008fffd00000004000b00020001fff9
fffefffffffefff9000100000005000e0002
fffffffbfff00000fffffff9fffefffcfffc
fff3fff5fff5fff200000002fffdfffaffff
000b0003fffffffc0008fffa000d0004fffb
0002fff7fffcffecffff0000fffb00140001
0002fffafffdfffe0002fffc0009fffd0015
fffb0004fffd000effecfff8000a00100000
0009000000000002ffff00090001000bfffc
0012fff700000005001700020002fffd0005
fffa0001fffafff1fffc0000000300000003
0009000900010000001100020005fff40002
fff90009fff5fffefffafffd000000030003
00030008fffdfffafffcfffafff50001fffd
0008fffbfffe000300000006000bfff4fffc
fffd001200090006000cfff8ffff0009000e
00060004fffcfff2fff0ffe70008fffe0007
0000fff5fffc000a00140003000200000005
00000010ffff000c00010005fffdfffafff6
0009fffe0001fff5ffffffffffff000bfffe
fff500070000fff800010001000200000006
0001000500040005ffff0002fffdfffb0000
ffe70000fffdfff2fffffffbffebfffa0009
fffb0011fffefff90013000a000500000006
ffeafffc000efffcfffbfffafffbfff50004
0001fffcfff8000000030001fff700010000
fffd0000fffdfff90003fffd000a00070009
0003fffffff80000fff3fff70000fffc0007
fff2fffa0004fff30002fff6fffdfff4fff5
000f0000fff20001000a0000fff8fffbfffe
000600000003fffffff50007fffb000e0000
00030006fffe000b000cffff00010004fffc
fff80006fffdfff9ffffffed0000fffe0002
ffffffecfffd0001fffdfffdfff9000a000b
fff9000d000300000001000600040001fffe
000bfff90004fffe0000ffee00000003fffd
fff600030003fff9000b00040004fff90001
fffffff8fff800090003ffff00030006000d
0005000e0000000afff9ffeefff800070000
fff9000cfff7fffb000b0000fff30000fffe
0002fffefffc0003fffb000afff1fffd000c
0003000affedfffe00070006fff30000fff7
fff9000200050006000500070000ffeefffe
000afff5fffafff7fffc000000050000fff6
fffc000c000700050000fff9000000000000
000000000000fff8fffffffcfffafff20004
ffee0005000bfffffffc00060006fffbfffc
000600000007fffdfffafffcfff6000e0002
fff7fffc000cfff60003000c000000030008
00070000000700070002fffb0000fffbfff8
0006fffd000e0003fffe000e001000090000
00030018000900060011fff80009fffa0005
fff900070001000000030001fffd0008fffb
fffa0005fffd0002000000020001fff9000f
fff4fffe00080009fffd000700040001000b
00000006fff80005fff9fffcfff9fffe0002
fff1fff20004fff9fff0fffdfff70000ffed
fff1fffdfff800000000fffafffe000f000c
fff6fffbfffffffbfffeffffffecfffcfffb
00140004fffd000f00040000fff80002fff4
fffa0002ffff00040001000e00030005fff9
000800000009fff7000afff4ffff0000fff3
fff6fffe0003000300010009fffe0000fff3
0003fff30008000700060001fffe00030003
fff6000e0011fffcfffcfffefffc000a0000
000f0003fffa000e0003fffc000dfff9000f
000200050009fffdfffe00000006fff6fff8
0001fffdfffffffb0001fff400000004000f
fffeffff0002fffb0006000400010000fff9
0005fffe00050007fffdfffcfff8fff3fff7
0005fff9fffe000d0000fffe000f00050000
fffaffff000400040009001800030008fff3
000cfff60005000200060000fffb0007fff9
00140008ffff000b0009fff1000bfffffffb
0009fff4ffff0002000500030002000efffe
fff50002000a0000000000070000fffcfffe
0009fffafff10001fffa0001fff8fffa0007
fff5fffffffc00080003000400010000fffd
fffe0004000f0013000d0000000100020000
0004fffbfffd0003000f0002fffe0009fffe
000300000000fffd0008fff4fffbfffffff9
0004fffffff90007fff7fffb0000ffefffff
fffe0008fff80004fffffff6fffbfffcfffe
000600010001fffa000dfffdffeefffafffb
fff7000c0008000100040007fff000000007
0004fff3fffafffb000700010000000a000f
ffff00050004fffcfff1fff900050003fff7
fffbffef000200090005000c0006fffe0000
0008000600000006fffbfffafff5fff8fffc
fff6fff8fffa0007ffff0003fffafff60007
0000fffa0005fffb0006000dfff6fff80009
fffcfffa0002fff8ffef0004fffeffff0000
00000009000500090000ffff000900090003
000500040002fff90004ffeefffdfffdffff
fff90008000300060009fff6fff9fffcfff2
fffe0000fffe0002fff500010007fffb0002
fff90000fff1000cfffb000f0003000b0002
000a000000060009ffff0002fffe00030000
fffe000d000800010004fffafffa0000fffc
fffefffc0003fffefffdfff300070001fff4
00030000fffcfffa00010002fffe00080005
0000000c0000ffff0002fffb000400010006
00060000fff6fff6fffbfff3fffcfffd0003
0008fffe0006ffeffffb0009fffe000bfff8
ffff0002fffb000a0000fffe0002fff50008
0003fffbfffb0002fff9ffef0003ffff0004
0001fffd000300030006000efff900040003
0001fffd0008000100070002fffb0007fffb
fff6fff8ffff0006000fffff00000010000c
0010fffdfff5fff8fffefffe0008fffefffc
fff00002000400060011000c0008fff6fff8
0007000000020004fffc00010009fffc0000
fffb00010001fffc00050003fffcfffe0003
fffc000c0000fff6ffff0013fffa000a0003
0005fff7ffed0005ffecfff900010000fffc
0008ffff0000000cfff600010003fffdffee
00040009000400000011000100040005fff5
fffd00020003fffe000c0004fff20000fff7
000300000007fffdffff0004ffff00020001
fff9000f0004fffafff6fffbfff90001fffe
0003fff50002000100040009000900050004
fff3fffefff3000000050000fffd0006fffc
fff90000000000000004fffa00020003fffb
001000070001ffe600030005fff8fffa0002
0007fffbfffb0001fffffffa0012000cfffe
fffe00000001fffd00020011fff200030006
000effecffec0005ffeefffdfff000000000
0000000800030015000bfff80006fffffffd
000a0007000ffff7fffefff4fffdfffbfffc
fff9fffffffdfffafff60006fffd0004ffef
ffec0003fffbfff50000fffe000400000001
0004ffeafff9000bfff5fff60006fff40006
00030001fffbfffbfffefffefff80011ffef
0004000c00070001fff9000cfff90009fff3
00070008001bfff2fff90007ffff0003fff9
fffffffe0008fffd0009000000060009fffe
ffff0003ffff00070004fff8001600040006
fff0ffef000a000100020001fff3fffefffd
fffe000100110004000500070002000afff3
0013000dfff2fffa000efffffffe0005ffff
0004fff5fffbfffc0001fffc00070001fffd
0004fffd000100050007fffcfff2ffe20008
000400080000ffff00070001fffd00060003
ffffffff000d0008fff9fffffff30000fffd
fffd00050000000b0000000a0009fffa0008
fffd00010006fffffff60007fff700020002
fff5000ffffa000700060003fff5fff6000b
000afffbfffc000c000efffafffa0007fff8
fffdfff4fffcfffdffecfffbfffa00040000
00030008000effff0000ffff000100040004
0007fff3fffe0000fff3fff90009fffafff6
000a0012000bfffa000500010003fffd000c
fffbfff5fffa000000090002000a000f0001
0006fffe0002fff1fff60006fffb0000fffd
fffc0000000a0006fffd000200010001fff9
000bfffafffe0009fffcffedfff7fff4fff8
ffea0009fff90005fffe00050009fff20009
0005000a0000000cfffbfffbfff5ffffffe9
0005000100050005fffa0004000600080006
fffa0000fffdfff70001fff9fff6fffffffb
ffff00060001000c0005000bfffdfff6fff7
fff6fff7ffebfffefffd0004000000020003
fff1fff0fff3fffafff900020001ffffffff
fff4fffffff8fff3fffafffc00080001fff4
00060001fffe00030003fff3fffbfffc0009
000400020000000d0006fffefffbffef0003
fff40003000e00000000fff9000c0000fff0
fffe0005fff7000e00000004000cffff0001
ffff0004fff70006fffe000d001700090000
ffef000c0006fff9fff9fff3fffcfff5fffa
fff9fffb0003000000000002fffc00030001
0000fff9fffe0013fff90014fffb000effed
fffdfffffff3fffa000000020000fffd0000
00030002001000000005fffcfffffffafff7
fffe000a0001fffa000f0005fff6fffdfff3
fffc0006fffe000e00020004fffafffe0000
fffc0000fff2fffd0000fffe0008ffff000c
00000008fffdfff20006fff4ffff00080003
000cffff0000000a00050007ffecfffffffe
fff900040009fff20000000c0002fff70005
000500070008000300070001000300040001
00010007fffa000d0002fffafffe00040000
fffcfffafff7ffff0003000700040000000c
fff8fffdfff1fff4fff3fff1fff4fffafffb
000b0001fffefffb0006ffef0010fff9fffe
0000fffd0003fffdfffe0006fff800040004
00060005fffd000200060001ffff0008fff6
0005000400040008000b0000fffc0009fffe
00000005fff70009fffc00050001fff8fffe
fff40000ffff000900010000fffefff5fff6
0006000bfffdfffa0000fffefffaffeffff5
fff4fffd0003fff00003000200010001000c
fff4000e0005fffd00020003fffd00050001
fffdfffcfffd0002fff8fff7fff90004fff8
000e000300000003000c0003fff3fff7000c
0001000000010005fff6fffbfff1fffaffff
fffffff80002fff4000c0005fffbfff80006
fffd0005fff4000efff8fffffffc0004fff9
001100060003fffafffc00080000ffec0000
fffcfffefff5000afff3ffec0007fffffffb
fff8ffff00130011fffe000a00050001fffe
0004fffbfff40002fffeffff0008000d0004
0008fff9fffc0000fff4fff90004000afffa
0008000b0007000500030002000a00080009
0002000000050009000200000006000a0003
0000fffcfff9fffafffbffeefffbffff0000
fff2000700000003000200020000fffdfff7
0000fff9fff8fff0fffbfffe000bfff60005
000dffff0000fffafffffffffff9000afffb
fffafff90003fff8fffffff5000a00000003
fff70006000100030000001100060005fff3
fffa000c000dffff00070003fff8fffa000a
000d00090005fffefffb000b000800020001
fffdfffbfffd0009000f00030000fffb0001
ffde00090003fff8000bfff300030000fffd
fffffff3fffcfff80006fffc0003000c0006
fffe00000008ffff00060005000c000bffff
fffb00040000fff6fff800040002ffedfff6
00000019000a001100050002000800030001
000600000007fff6ffff00080004fffc0004
000cfffb00000006fff90009000f00010004
0001fffd00000003ffff0000000700020007
000f000bffff00060009fff7fffa000dfffd
fffc00090003fff90003fff3fffc0003ffff
000bfffe000d000ffffd0000fff20005fffc
0007000afff7fffbfff7ffff000cfffc0009
fff8000a000cffff0017fff40004fffb0001
ffee00000007000200050002fff10002fff1
0005fff70006fff30004fff7fffdfff5fff6
fff800080000fffffffa0005fffffff8fffa
00030002000900010004fffc000600010001
fffa000c00160009fffe000afffdfff5fffd
00000009fffafffafff7fffb0006fff7000e
fffffffd0007ffeafffbfffe0005fff4fffc
fff9fff40003fff4fffefff500020009fffb
0002000e00010007000d0002fff000000000
fff0fffb0007fff5fff7fff9fff8fffffff4
00060010fffafff7ffff0005fffe0004fffd
000600060001fffcfff5000a00010000fff5
fff0fff4fffb000b0003fffdfffd00060000
000a00100001fff4fffa0006fffd00050012
fffafffffffafffdffeefffa0003fffefff9
fff6fff7fffe0005fff2ffef0002fffafffe
fff40000fffd0002fffe000600090001fffd
fffafffbfffeffff0005fff7fff9fff5fff8
00090006fff6fffe000d00050004000b0001
0002000500010008000a0007fffdffff000f
000b0008000900000011fffe00000013fff0
fffc00070014000000130008ffee000d0008
0008fffefffdffff0000fff50000fffffffe
000e0000fffcfffdfffdffff000afffa0000
fffcfffefff6000dfff5fffefff90003fffb
fff200000002fffc000dffeafffbfff90004
00080000fffefffd000bfffefff5fff8ffff
00060007fff30001000100090002fff90000
00050005fff80002000c000000020005fffc
fff4fffcfff8fff3fff3fff9fff8fff8fff8
fff5ffff0000fff300060008fffc001afffa
fffc000b0003fffcfffb000f0002fff70004
00080004fff700010003000dfff9ffff000a
0007000b0009fffe0005000efffc00070013
fff9fff50006fff6fffcfffafff300050007
0000ffff0007000500020001fff7fffffff9
fffbfff8fff1fffb0003fff1000500050004
fffe00040004fff4fffc0006fffdfffffff9
0006fffa0005fffc0001fff3fffd00010002
fffefff4fff60002fff2fff2000100040006
fffbfff7000cfff9fffafff8ffff00050005
fff5000e0009fffdfff100020006ffff0002
fff70000000000060002000fffeeffff0004
00050001fff9000a0002fffd0004fffdffff
0001000cfffcfff8ffe7fffcfff2fffbfff4
fffa0001fffd00020000fffefffffff7fff8
fff90000fff40001fffe0008000d00080005
00040000ffeffff60007fff9fff5fff5fffe
0000fffbfffefffefff60004fff4fffa0000
ffff0002fff9000b000c0005fff100040001
0001fffcfff20003fffefffc0013000bfffe
fffefffefffefffefffa0005fffffffd0003
fff6fffefff30009fff3000700050000fffc
ffff000a0005fff00006fffffffc00000003
fffa000dfffd0000fff8fff40000fffb0000
fffd0000fff8fffc000100050002000d0000
ffff000c0004fff6ffecfff4fff8ffe4fffa
fff90004fffd000ffff0fffc00080003fff9
fffefff5ffedfffc0000fffc000b00000008
fffffff40001ffff000c0002000000050009
fff9fffe00050001fffefff9fff5fff4fff5
00010011000d00000006000efffd00090003
00060002fffefff2000a0003ffff00050009
fff2fffd00000000000f0013000b00050003
fffdfff60004fff8fffcfff9fff1fff4fff9
0001000a0009fffefffffff60005fffcfff8
00070011fff9000afffb000b0001000cffe7
0008000600000000000efff100000001fffd
0000fffe00130004fffd000effe9fff0fffc
fff90003fff5fffcfffbfff30000fff8fffa
000700080000000d0000000200020000000b
0001fffbfffbfff8000b0005fff100000005
fff9fffcffff000cffff000afffffffa0003
0002fff5fffdfffe000900110001fff80000
0001fffdfffc00050002fff7000a000a000a
ffff0012000000000008fffa0000000cffff
fff600030000fffffffc000dfffdfffa000d
0000000f00000008000400020000fffafff8
fff4fffc0006000dfff9fff9fffc0001fffb
000100090014fffe0000fffd000a0005fff9
0001fffbfff4000300030000000500050004
0006ffff0006fff9fff90000ffecfffe0003
000200080002ffff0003fffefff0fff6fffb
0009fffffff70004fffd0004fffb0000fff8
0002fff7fffd000600000000fffb0000fffd
000900020002000bfff400040000fff8fff8
0004000c0012fff700100009000cfff9000c
fffcfff3fff0fffc00060000ffff0000000c
fff7000300030008fffafff9fff500020003
fff30002000e0007fff8fffc000afffc0004
000b000000030004000200050001fff9fffb
fff9ffff00000000fffafff7ffffffffffff
0008fffd000100000003fffafffd0000000e
fffe0005ffffffec000e0002000900020002
0001fffbfff4fffffffbfff7000700000004
ffff0009fffffff9fffc000a0009000afffc
ffff000200010004fffdfff8fffc0000fff9
0005000efff8000300040000fffcfffffffc
fff90018fffa000100070006000600070014
0002000bfffd000efffffffc0000fff70003
fff60002000200000004000afff700090000
000bfff70010fffefffd0010fff3fff7fff1
fff6000600060001000500010005fffffff5
001400080009fffb000c0009fff5fffe0000
fffdfffefffd000c00000007ffee00010005
fffefffdfffb0012fff7000c0008ffee000a
0000fff5fffb0003fffb00070002fff7fff2
fff0fff7fff1fff8fff00001ffeffff3fffb
fff9fffa000afffb0000000c0013fffa0004
000ffff80006fff700070002fffffffefffb
0005fffcfff9ffee0006fff4001400000002
fffafff500010007fffc00000006ffeffffa
0000000efffefffd00000000fff7fff5fffe
000000010003fff5fffafffb000800100001
ffff0007000b0009000700060007fffe0003
fff500000003ffeafff1000500000000fffc
fffefff8fffbfffe0000ffeffffc0002fffa
0009000b00000009000afff9ffec00130006
fffdfff90007fffcfffc00000006ffff0001
fffe00070002000f000efffe0000fff50000
000bfff8fff3fff00007000e00010005fffa
fffafff6fffafffcfffb0005fff800090009
0000000800070006fff7fff80001fffbfffc
fff00001fffdfff5fff50017fffafff40001
000b0000fffa0003fff5fff90003fff7fff6
fff80002fff8fff6000000000006fffc0001
fffffffd000efff2fff2fff7fffdfffbfff8
fffe00040004fff7000f00060005fff00009
fffc00110006fff10007fffdfff7000d0006
00060002fff80009000f0005fffd00050000
fffffff3fff4fffa000a0000fff900020000
0008fffcfffb000b001400010004fffa0002
fff6000000120006000dfff70005fff90000
ffff0000fff40004fffa0005000800000005
0000000a000400030005000b0007000c0000
00060000000700030003ffff0000fffc000c
fff1fffdfff2fffb00080002fff0fffe0000
00010003000bfff6fffefffafff9fff1fff4
0013fff0fffefffd0001fffc000200010000
00060001fffe000600030000fffaffff000a
fffafff600060000fffcfffefff5ffeffffc
ffef0001fff900000007fffc00010005fff5
fffbfffb0001fff6fff2fffffff900070005
000b0003fffe000900090012000c00010000
fff4fff70005fff7fffbfffe000f0004fff5
00090006fffe000800020003000000020006
fff1fffd0001fff50001fff7fff7fff8fff8
0003000d000ffffa0000fffdfffafffc0008
0004000efffafffc000f000f0006fffe0006
0004000500090001fffafff2fffefffdfff8
fffffffefffb0004fffb000afffffff90018
0004000600010007ffedfffe0013fff4000a
00070009fffe00010003000f00000002fff4
0010000f000400000000000b0004000efffd
000e0003000300030000ffff0013000e0008
0004fff0fff1fff50003fffa00030008ffff
0016000000050009fff0fff9000cfff8fff5
0005ffff0000fffb00080004fff60008ffff
000dfffe000800000000fff5fff9fffc0004
0005fff7fff1ffff0006fff9ffff00000003
fffefffa0005fffefff8fffffff9fffe0003
fffffff80000fffa00080000fff9fffa0002
fffbfffc000bffeffffeffff0000000b0003
00060004ffea00060002fff8fffdffebfffa
0008000d0000fffb000cfffffffeffff0005
00000008fff800040001fffc0013000a0004
0002ffef00030000000100030000fffb0006
000c0005000afff50009fffd00060006000d
00010002fff6ffea0005fff900060000ffff
00000012000000110002fff9001000050008
fff8fff90006ffed0005fffdfffefff4ffef
0007fff4fffc0007fffe0000ffee00070006
fffafff9000400000006fff500040008fffb
00090007000e000200000000000200060005
0001fff8fffcfffbfffe0003000000060003
00070000ffff0004fffd000100040006ffff
000800050008ffff0007001600020006fffe
fffffff400020000fffefff1000400090004
0006fffe0008000300080004000e0006fffc
fffb0003fff900090012fffa00000004fffa
000b000dfff80002fffdfff9000000000004
000b0002fff6fff6fff9fffb0008ffe4fff4
00050005000b001100110010000900080000
fffc000000070008fffc0000000500080007
00060011fffd0004fffefffb0005fffd0001
0004fffc00000007000bfff30004fffcfff7
fffdfff90004000200030003fff600060008
000afffc0005fff0ffecfffe0001fffdfffc
0004000efff6fff900090000ffea0001fffd
0006fff3fff90000ffff0005fff3ffff000e
0007000200090002fff8fff7fffdfffe0009
000dffff000a000800140000000100040004
0012fffe000500070014000700070005fff9
0005ffffffff00060000ffff0001fffc0000
00060005fff0fff7fffafff0fff900000001
fffe000cfff80000fff20004000dffff0000
fffcfffa0005fff5ffff0001fffdfff6fff1
fff8fff7fff9000afff9fff50005fff7fffa
0004000800030003fffd00080000fffe0008
000600030000fffe000cfffbfff7fffc0009
0000ffff0002fffcfffefffefff800010005
fff9000f0000fffafff800060003fffbfff9
0000fff6fff00000fffa0000fff80005fffb
00140002ffffffff0007fff40003fffb0004
fffffffcfffc0004fffd0002000cfff8fff7
0007fff700020011fff70001fff600060002
0006fffc00040003fffa0009fff4fffa0000
0008000efffd0006fffe0007ffe80010000e
00130009000a00050001fff8000200000008
0002fffdffff0002fff5fff30002fffffffe
fff90000fff900000000fffe0000fff6fffe
fffb0000fffcfffcfffefffb000afff9fff7
fffafffafffbfffefff90003000dfffe0001
000400070009000ffffeffff000200040004
fffcfff3ffecfff70013fff70005fffffffc
0004fff20003fffb0000fffe000500000003
fff50000fff9fff6fff5fffd0000fff9fffe
fffa00000005fff80013ffffffffffea0001
00000005fffafff9ffff001100080002ffff
fffd000900050012fffbfffc000300000000
00080014ffffffff0000fffbfffdfffefff6
fff60006fff5fffcfffe0000000000030008
000000010002fffdfff30000fff9fffafff5
fff9ffff00020006fff9fffcfffffffffffd
fff3fffc000ffffcfff9fffb0003ffeffff6
00180002000ffffa0007000efff4fff5000a
fffd0003fffffffffffd000a0000fff8fffa
000e001b000bfff500000009fffd00000015
fff8fff6fffafffe00080004fffffff3fffd
000bfffd0001000400000009fff4fff9fff8
fffc0005fff5fff40001000c000efff30003
000ffffb00010001fffe0000000300080009
0006fff5fff6fffffffbfffe000b000b000d
000f0007fffc000afffcfff90008ffea0003
00030004fffefff9000d00020005fffe0004
00080004fffd0009001100060000fff1fffc
000400020009fff60000fff8000ffffbfffd
fffdfff0fffd0003fff6fff3000c00090005
000000090002fff600000011000d000e0003
fff7ffff000afff0fff5000f0003fff60005
00020004fffd0008fffc0000fffc0008fffe
00050008000400000003ffff000300000000
fff800030004fff200080004fff3fffefff9
fffd0005000b0002ffff00030001fffb0001
000900080000000d0004fff6fffeffffffe7
0003000a0006000a0007fff2fff9fffeffff
0000fff800010006fffefffbfffbfffdfff9
fffd0007ffff00150014ffee001200080002
fffd00000000fffd0001fff5ffff00020002
0008000a00010006000a0003fff6fff70001
0004fffbfffcfffe000000000003ffef0006
00050001fffc000000090012000ffffdfffc
000800070009fff80010fff5fffc000e0002
fffa0011fff2fffd000d00030008fffd0007
00050000001000080006fffbfff90007fff9
0003fff9fff8000000150000000100090006
ffff0007000e00000001000bfffefff9fff6
000800010006000000100005fffefffc0002
fffefff60005000e00060002fffafff30002
fff6ffff000900030000000efffbfff5fffb
0000ffeefffcfff6000200080000fffe000e
fffb00070008ffff0000fffd000efff40000
fffa0011000000080000fffc00020010000a
000a0000000c0005fffd000c000100040000
0004fff7fffa0007fff500020005fffaffee
ffff000000080004000afff9fffc00000007
000100020002fffafffc00010006fff30003
ffedfff2fffbfffe0001fff800000006fffa
0000fff90005fffdfffa00010000fffa0003
0005fffcfff8fffbfff4fffdfffa00020003
0012fff9fffc0003fffafff1fff7000bffef
000cfff400000005000400030003fffa0005
0002ffff00010004ffff0007fffe0005fff6
fffa0002fffffffd000ffffeffff000cffff
00000005fffd00030008fff7ffff000dfffe
0004fffdffff0005fff5fffc0006ffff0002
fffc0004fffa0003fffffffe000100000003
fffc0000fffcfffc0006fffb0015fff3fff3
0010000000050001fff8ffff0012fffc0002
ffeffffefffc00030012fffc0000fffd001a
fff000080004fffefff600060000fffffff8
fff800060003000200070004000bfff10000
fffd0004fff9000100040000fffa0003fff3
fffd0007fff9fffd0006fffd0004000a0000
0009000a000cfffdfffd0004000c0017fff8
fffc000400150001000dfff50005fffb0002
fffffff9fffd00060003fff6000c0008fffc
0002000d0009fffe000c00070014fffd0001
0006fff20003fff9000300090001fff9fffe
00030003000a000200020006fff30004000b
fffd0006fffefff500000006fffe0004fffd
00080000fff300000001fffc001400040001
0006000bffff000bffffffff000300010002
ffff0009ffef000400040003000000100004
ffff00020002000a0009fff7fffc0006fff6
fffcfffefff60004000400000000fffa0005
0001fffefff200070011fff9fff0ffeeffff
0009fffb000b0006fff4fffd000a0001fff7
00010004fffd00000000000200000007fffe
00000000fff600000004000300020005000c
0007ffecfff30003ffdefff7fff9fff6fffa
0002fff40009000c00060005fffffffb0005
fff4fff0fffc0004fffd0003fffffffd0002
0013fffd0000000c0002fffb000dfffeffff
000d0004fff9ffeffff6fff6000efffeffff
fff100070006fffffffe0002fff90002fff3
fff8ffff0000fffefffcffedffffffff0005
00060000000200100001fffa0001fffe0002
fff8fffafffffff700060003fffcfffcfff7
fff8fff40000000afff5fff9000000000000
ffff00000000fff700090002000ffff9fffd
0006fffffffb00040000fff00006fffdfffe
000a00020006000cfff9000afffcfffffffb
fffbfff0fff7000000010008fff50001000d
000300090002fff70000ffff00090000000b
0004fff40007000c00000004fff7ffff0014
000700010003fffefffefffb000b0001fffc
fffdfffa0002fffc00050006000d00040009
fffdfffbfff70004fff900000005fffc0000
ffff000bfffd000a000b00070005000a000c
fffdfff9000a000ffffe00030000fffefff2
fffdfffdfffc0000fff8fff8fff8fffcfffa
fffa000000030001fffffffd00080005fffd
ffff000a0003fff8fff5000cfff600050000
0009fffe0012fffc00000007fffcfffdfffe
0004fff6fff9fff9000c000c0007fffafff6
fffdfff60004fff300010000000500000008
0002fff70002fffafff9000000090000fffa
00060019fffeffff000400090005fff60001
0000fffdfff30006fff1fffb000afffe0007
fffb00000000fff50000fffdfffffff5fff7
0005fffb0005fffbfff3fffafffefff6fff5
0006fff50009fffe0009fffa000a0001fff6
fff70000001100070004000000160002fff4
fffb0001fffffff4fff90003fff6fffe0003
0004000efff50005fff8fff40003fff8fff9
0001fffefffd0002ffff0000000400000005
fff8fffe0006fffe000f00060001fffcffff
fffcfff600000005fff9ffff000000020000
0000fff80000000c0006fff80006000affe8
0005000bfff4ffff000300000000fff9fff9
00040000fffe000cfff9fff8000b0001fff4
0005fffcfffffffefffb0005fff900020004
000900000006fffcffef0004000500020014
fffe000b00000002fffa0007fffcfff90018
0003000000040003fffefffb00040001fffe
fff5fff20006fffa000cfffbfffb0004ffff
ffff000300040007fffc00030000fffc0005
fffd0002fff700010006fff20002fffdfffb
fffe0004fffa000200020006fffd00030001
000300070008001200060010fffdfffefffb
0000fffffff7ffebfff7fffaffff00030000
fffafff800020007fff9fffefffdfffc0002
00050005000f000a0004000afffefff9fff7
ffff000d0008fff8fffe0006fff4fffe0000
00060000fffd000cffff0006fff400010015
fffb000b00120001fffc00000000fff80004
00020002000bffff0006fff9ffff0000fffc
0003fffefffb000f0002fff5000c0004fffb
0000ffedfff6fff9fffcfff800000004fffe
0006fffb0006fffcfffe0009fffa0002fff6
ffea000d00000004fffe0002fffa0003ffff
0000ffeffff8fff9ffff0001000affff0001
fff9000d000400000009000f0006fff9000c
000a00000001fffe00030005ffee0002fffd
fffd0005000100060003ffff0005fffe0001
00070009000c0009001500060003fffa000d
fffa000afff2fff2000000010009fff7ffff
fffdfff900040004ffff000700050004000d
000e0001fff6000bfffdfffd0007fff40000
0009fff60003fffefff2fffbfff1fff8fff6
fffa00010015fffe0006fffcfff900030009
fff6fff20007ffeffffafffb0003fffefffc
fffffff8fff6fffe0007fffb00010004fff9
fff700000005fffcfff80000000a000b0001
fff60002fffcfffcfffffffcfffffff30004
000f0018fff80009001b00060009000efffd
0003000c0004000afff6fffe0006fff80000
fff10000fffb000a000000000011ffff000f
fff700000005ffefffed000c000f00050003
0006fff50003000a0002000c0009fffb000b
fff4ffecfffdfffcfff4fffa000100010005
fff8fff6fff6fff6fff7fffc0003fff1fff8
fff30001fffdfffb0000fff90000fff90001
fff7fff1fff6fff9fff500070003fff8000c
00060008fffe000d000efff8fff700050006
0000fffd0000ffedfff3fffc0003fff80000
fff9000ffffb0000fff80011fffefff6fffe
00080000fff900040005fffcfffffff90003
00030000000e000bfff9000d0001ffec0006
0001fff80000fffffffd000200050002ffee
000000000000fffaffff0011fff70013fffa
000400000000fff600090002000a00060011
fff5ffff0003000e0001000200000009ffff
00030008fffffff9fffdfff100020003fffc
0001fff8fffefffdfff90001000bfffafffc
fffbfff7ffed0000ffeb0007fff4fffefffb
fff9000d0006fffc0008fff9ffff0000fff9
ffffffff0006fffb0006fffb0009fffe0002
fff000000003fffe00050002000c0003fffa
fff200030004fffd00020003fffd0000ffee
0001fffc0009001200020001fffdfff6fff5
0005fffbfff6fff3fff60006fffbfff9fff3
0007fff900060003000a0000fff4fff0fffd
ffed00060007fffe00000004fffb00030000
000a0000fffa000efff6fffefffe000cffff
000300010002000e000800000009fff10009
00070002fff3000bfff9000800030000fff7
00000008fffe00130005fffe000400080005
fff8fffe00080000fff90002fff4000afffe
00000003fff7000a0000fff7fff000030006
000800060000fffe00030007000f00050000
0003fffdfffbfff700020000fffd00000006
fffe0001fffefff9000c0000fffa00020000
fffd00050007fffefff90000000efff6ffef
000c0000fffdfffefffc0008fffb0000ffff
fff50003fff8fffafffb000500000000000a
fff90000000d0007fff5fffffff9fff50001
000c0008fffbfffafffffffb00000002fffe
fffefffdfff9000000040016fffcfff7fff3
0002fff9fff7fffb0004ffff00030009001e
fffbfffe000800030009000dfffe000b0000
fff60000fffe00010001fffcfff8fff60006
000700030008000000090004fff6ffff0003
0004000afff80000000d0004fffb0002fffd
ffff00040003ffeffffffffb000c0006000f
ffe50009000fffed00060001000a0000fff8
000000010009fffb000300010008000f0004
0003fffcfffbfff70003fffffffafffdfff9
0001000a000600010003fffcfff80001fff9
fffa0008000300070009000500090000fffd
000c0000fffcfffdfffb0002000100020011
000300110004000d00040002000600050004
00000009000afffefffe0002fff1fff8fff5
ffff00070006fffafffa0007fff5000efffd
fff3000a0009fff6fffcfff9fffb00000005
fff9fff7000afff800000001fffc00060000
00060000fffe000000060006fffdfffc0001
ffeffffafffffff8fffdfffa0006fffafffd
fffefffd00080003fff9000700000003000c
fff60000fffdfff9000200030010fffd0001
fff4000100020000fff50003000300010009
0008000500080002000bfffc000500080005
fff30003fff700000000fffcfffb00050009
fffcfffb000500060000fff2fffbfffbfffd
fffbfff0fff600080006000600080000000d
0002fff000000006fff9ffec0009fffc0007
00000007000d000600010008fffe0007fff8
fffffffafffefffcfffcfff000150000fff4
0005fff70011fff3fffbfff2fff1fffd000c
fffd000a000600010000000bfffa0000fffb
00010003fffa000000070006000500170008
fff6fff60010fff700000005fffeffed0003
0004fffdffe80004fffe0002fffb0004fffe
0000fffbfffc000b000b0000000800060000
fff70005fffdfffcfffefffd000200090001
fffd00000001000cffff0003000cfff8fffb
0002fff4fffa0000fff5fffffffffffc0009
001000000000000bffff0001000800030006
00090000fff9fffd0013000affee00060013
fffd0005fff8fffbfffd000900040000fff7
fff9fff6fff8fffb00080007fffa00030008
00090007000800010000fffd0002000a000b
0000fffffff70006fff80001000cfffeffef
0000000efff80005fffc0002fffc000c0001
0005fffefffb000f00050006000700000007
0001fff0fffd000efff8ffff00000000fff7
fffe0000000afff9000800150000000d0000
0005000500000000fffc00000007fffc0005
fff8fff6000cfff90003000c0004000b0000
fffd000dfffb00040003fff1fffafff5fff8
0009fffdfff8fff200040000000800030001
fffbfffd0003fff500020006fffd0000ffff
0002fff6fff90005ffeefffb00050005fffa
fffefffafff40009fff9fff60004fff8fff3
fff3fff5fffbfff9fff6fffffffd0004ffff
0005fffafff8000bffff00060005000c0000
fffdfff6fff90000fffdfffe0004fffdfffc
fffefff50004fffbfff5fff90000fff90007
0005000a00180002ffff0005fffcfffb0000
fffbfffdfffeffffffebfff90005000a0007
00010000000300170000000c00060005fff1
fffafff70000fffc0002fff2fff8fffffffb
0003fffa000e000300070009fffb00020004
0001fffb00020007fff8fff30005000c0004
0006ffff0002000efff90012fffcfff90001
0004000bffff0009fffc0004fffbfffffff3
0002ffff0000fffd0001fffcfff400000003
0000fffffff9fffe0007fffeffff00020008
0005000e000dfff40004fffa000700030011
fff70003000a00050002fff400000006fff7
0008fffcfffbfffefffdfff10006fff50003
000e000000000001000a00000008000afffa
000efff4fffafff1fff5ffff0000ffeafff4
0003fff7ffe400020000000afff9000a0002
00040002fff6fff3fff3fffdfffafff50002
fffe000400000008fff7fffd0001fff30005
0000fffbfff3fff60002fff80007fffcfff5
fffbfffcfffafff3ffeffff300100005000c
fffcfff900070003000000090000fffa0001
fffefff8fff90005fffc0001fff1fffb0008
0005fffd000a000b00030002fffbfffe0007
0006000700020009fffafffb0000fff7fffc
fff4000a0002fff50005fff700040005000a
000200030004fffbffff000c000000000004
fffffffffff7fffdfffbfff80010fffefffb
00020003fffa0009000c0002fffe0007fff7
000bfffdfffbfffd000000010004ffff000b
0009000f0001000a000200030000fffcfffb
0001fff5fffa0000000200020007fffb0009
000effff000ffffafff80011fffffffc0002
000bfffafffb00130002000200000001fff5
fff1fffe0011ffeffff90011fff3fffcfffc
fffcfffb000cfffcfffd00070000000afffd
fffe00070000fffbfffbfffafff0fffa0001
0004fff80002fffd00070006fffc000c0007
00050009fff800160005fffdfff80011fffc
00060003000dfffc000300000006fffc0002
ffff0001fff40004fffefffe000000030000
fff8000400020007fff6fff5000700010001
fff6fff7fff4000200030008fff400020014
0005000a0000fff9000400040000fffcfffe
000d0003fff5000700030002ffff00080000
0000fffaffffffed00060003000dfffefff5
ffeffffefffa00020006000500010001fff4
00070009fffa00000004fffd0001000d0003
001000130010fff6fff7fff80009fff9fffa
0007000d000200060003fffe000000010001
fffb0006fffdfff9ffee00000007fff8fff1
fff1fffbffe7001000050000fffd00000001
fffdfffe0005000affff0007fffb0000fff7
0000000c0000fffefff40000fff8fffefff7
0007fffc000a00000000fff70006fff7fff7
000d000600080004fffd0000fff50008fffc
000a00010002fffffff2fffdfff500040000
fffafffbfff3fff1000b0000fffb00000006
00040004fffbfffe0000fff20003fffb0002
fffe000d0002000dfffaffff0001fff60005
fffe00090008000f00000001fff8000d0003
fff90011000afffe0012fff9fffbfffd0000
fffdfffe000dffff00050002ffff0004ffff
fffb0009fffefffbfffd0003fffe0003ffff
fff3fff80004fffefffb00000003000afff0
0001fffc000efff7ffff000afffe0000fff6
fff6fffa0001fff000010001000000010007
fffc0000fffcfffcfff8fffefffdfff5ffff
fffb0009ffff000000010007000300040006
fff50003000700020003000a000100040002
0009fffc000bfffafffc0003fff70001fffd
0001fffdfff80000fff7fffb00070006ffee
0008fff9ffebfff00000000c000700020000
00000002000cfff500020007fff9fffdfff1
000cfff5fff700040002fffd000200060013
fffd0003fff50009ffeafffe00010000fffe
ffea00090002fffefff5fffbfffc00000000
0000fffe000200000002fff7000700050000
fff90006000a0009fff60001fff9ffe60000
0004fffafffbfffd00000005fff30002fffa
00010005fffe00010003fffc0000fff8fff8
0007fff7000c0001000d0009fffa00080003
000bfff0fffbfff9000000010007fff8fffe
0011fffdfff7fff4fff9fffcfffafffa0003
00020003000ffffb00020003fffc0000fff8
0008000f000000000000fffa0001fffe0004
0000fffefff50002fffefffbffff00000000
fffc00000000fffc0004000a00080002fffd
000c0004fffdfff30004000000020014fffe
000c0012000700000009fff6000c00030000
fffafff3fffa0000fff4fff20005fff3000a
000dfff2fff2000cfffbfff9000200110002
00040007fff4fffaffff0000fffd000a0002
0003fff9000a000000020001fffffffe000b
00040007fffcfffe000c0006fffafffa0006
fff70000fffefffb00020000000200040009
fffafffa0010fff200030007fffcffe4000e
fffa0004000ffffa00000003000800000002
fffafffffffe00000008001f0000fff4fff5
00040000fffa0010000c00040001fff2fff6
ffe70003000a0002fffefff40008000afff9
000bfff8000000000010fff9fff9fff9fffe
0000fffe0008fffc0001fff400030004000a
fffffff4fff7fff0fffbffff00060004fffd
ffff000bfff8fff50003fff2fff4000d0000
00080014fffbfffb0000000a000000020000
fffcfffbfffcfff80003fff100060007fffc
000400060000fff70000000dfffdfff10003
fffafff4fff6fffffffaffff00060005fff5
00030002fff300010002fffd0002fff2fff9
fff90000fff90000fffdfff9fff2fffffff4
00070006fffd00010007ffea0008fffffff9
fffefffb0007000400080006000b000d0005
0008ffeffffc00030001000000030002fff8
fffd0002ffff00080005fffe000000030006
0012fffb0007fffe00000009ffff0003fffd
000100010000fff8fffc0005fff20001fffc
0005000bfffffff900000006fffbfff8fffd
fffbfffa000200030003fffefffffff6fff8
001500010000ffeffff40007fff6fff10009
fff5fff40000fffefffe0000000400020000
000300040008fffc000efffbfff90000fff5
fffb0000ffea000a00020001fffbfffafffd
0002000b000c0000fff90002fff7fffcfff7
fffe00100000fffefff80004ffff00070008
fffffffbfff7000700000008000500000000
0004000900000005000000030008fffffff9
0004fffd0007000100050008fff9fff4fffe
0013fff5fffc000d0004000e0003fffd000b
0000fffd00010000fff50000fff600080004
fff6fff7000c0005fff8000b00020004000d
00050002ffff00010008000b0002fffafff5
fff00004fffcfffffffa0012fff8fff70007
0000fffe0007fffe0005000000090010000a
00100000fffefff80008fff8fff6fff5fffe
000b0000fffbfff9fffa0010ffec0000fffc
0005fffa0008fffb0007fff80007fff4fff9
0002000a00030005fffd0005fffcffff0008
00090004fffeffff0000ffff0000fffffff8
fffb0004fff40004fff50006ffff0000000d
0003fff9fffb0003fff8fff2fffafff6fff6
ffff000400060001000200090005fffb0006
000300060000fffc0007fffefff800030005
00020002fffd000100030003fffcfffb0004
fffbfff400180003fff5fffbfff8fffe0002
00070005fffcfffb000d00140005fff8000f
fffc0005fff600010004fff4ffff0008fffd
000000050007000600190008fffdfffe0001
fffefffd00020001fffa0001000100020003
fffd0000000200040003fffbfff9fffc0003
fffdffffffff0002001200000008fff50012
00060009fffd0003ffff0008fffdfff4000b
fffdffff0013fffe000cfff90004fffa0003
fff7fff40003000d000b000a000ffff70005
fffb00000007fff4fff80000fff80006fff9
000000040008fffd00010001fffa00000005
0002fffd001500010000ffff000100070006
0001000cfff3fff70003000efffd000b0008
00020000fffc000b000000000007fff70004
fffcfff90018ffe9ffed0006000600080009
00020005fffefffc0005fffdfff2fffa0006
fff70006fffd0003fff30000fff9fff3fffd
fffafffdfffefffe00070005000000070006
000e0000000e0000fffe000000050000fffa
fff800080003000100030002fffaffff000d
000000000000000c0001000cfff00001fffd
0008fffdfffb00010004ffff000a0002fffa
fffb0007000efffcfff7000cfffefffdfffb
000bfff4fff7fffe00050007fff60000fff5
0002fffc000d000000030000fffc00090009
fffcffe8fffb0000ffed0008000000080011
0004fff3fffd000dfff6ffff00060000fffa
fff4fffcfff7000afff40007fff8ffe90008
fffbfffa00050006fff70006fff8fffb0000
fff8fffa0007fffcfff6fffffff8000c0001
00060002fff9fff8000300030002fff00002
000200070019000b0001fff000000006fff5
fff5fff80009fff70004ffffffeefffe000e
00050004fff7fffa00020009000800000004
000600160007fffa000c0000000800030005
fffbfff9fff7fffa000a0000fffcfff90003
fff6000c00120009ffff000dfff60000fff3
fffc000dfffa00030000ffff0007fff90003
0002000c00120001fff2000bfffcffedfffd
fff8fff600000000fffc0001fffffff6fffd
00190003ffff00080008fffefff300040005
0010fff5fff800040000fffafffafffcfffe
0000fff4000ffffd000100140001fff8fff5
00020010000000060002fff4000300000004
fff2000bfff8000afffa000300100007fff0
0004fffa00050000fff0fff5000300000002
fff4000e0009fffa000bfff00000fffe0003
0008fffafff8000000040004000a0003fffc
000c0000fffdffff00010005fffd00030003
fffd000100000005000500000002fff0fffa
00040006fff700050000fffa000000170004
00060005fff8fff700080012000a00080007
0000fff500010008000d000afff90000ffff
000ffff9fffffffe000f000600070006000f
fffd0009fff5fffcfffe0005fff2fffffffe
fffefffcfff800050002fff7ffff000d0009
000b0005fff9fffe00070002fffa0007fffe
fffbfffffffafffe000afff7000ffffffff6
fffafff6fffc000c000200010008fffefff0
0007fffd0002fff700060000000900000004
00030000000000040001000000000007000a
fff7000400000000fffdfff9fffffff2fffe
00070000fff6000afffffffffff60009fffe
fff8fffc0006fffd00050003fffbfffafff3
fff4fff6fff70007fff50000000300040006
fff80002fff80000000200000000ffff0000
000b001200010003fff0fff2fff600050010
fff50006fff8fff6000b0002fffefffc0001
00090008fff5000c000dfff800080009fff7
fff3fffeffe6000700030003fff7fffc0000
0003000900050000000900020003fff80003
fffc00130008fff9fffa0006fff70005000e
0003000ffff6fffd0001fff80001fffffffe
000300090001000c0005fffd0004000bffee
fffcffeffff9fffffffc00030002fffbffea
000bfff20000fffc00010010fffe00130000
fff80006fffc0005fffb00070000fff3fffd
0009fffefffe00000004000bffef0008fffc
fffbfffd0000fffd00020005fff6fffe000e
000100050008fff7fff80000fffffffdffff
000400010008fffefffafff8fffc0000fff8
fff8fff4000cfff4ffef00120007fffd0008
000efffdfff9ffef0003fffffffb00020005
000400040001fff0fffcfff1fffa000cfff9
fff9fff8fff30001fffefff6fffa00010006
fffdfffe00050005fffd0003fff7ffedfff7
fffb00040001fff4fffbfffd0005fffbfff7
00020000fffafffb000400060004000ffffd
fffeffff000100070003fff900020010fff9
fffa0000fff70005000cfff4fff50005fffb
fff4000a0004fffe0008000c0013fffffffe
fffcfffafff7000000020007fffe0000fffd
00080002fffa0005fffd0000fffd00060000
fffeffff0002fffcfffb00050007fffafffa
000a0008fffafff90006fffa0000fffafff9
00000008ffef0002fffd0008000300000004
00050000000dffff0007fffd000000050013
0000000800120002000c0007fff3fffc0005
0003fffcfffdfffafffffffc0000fffafff6
fff2000700000004001300030003fff80009
fffafffc0004fffdfffffff3fff900000008
fffd0002fff7ffffffff0006fffbfffbfff3
fff7000bffff0001fff8000000000002fff7
000200070008fff60007fff5fff5fffe0000
0006fffbfffdfffffff9fff700030007fff3
0008ffff00010002000b0001fffbfff8000e
00080000fff9000400040002ffebfff80001
fffb000200000001fff6fff4fffbfff3fff6
fffd000400000001ffeffffdffecfff70014
fffb0002ffec000b0008000a0003000e0003
fffffffc0000000b0013fffcfff7fffbffef
fffbfffffffd0009000b0007fffefffcffed
0001fff5000900090000000dfff4ffeb0007
0007000cfffa000e000d0003000e00080002
0006fffefff8000900000000fff70000000a
fff9fff8fffffffc0000fffffff6fff50004
fffd000600060003fffdfff3fff0fff9fff2
000400070000ffff00090000fffa000dfffb
00000003ffeb000100080000000600040017
fff3000800060009000900070002fffdffef
fff5fffc0001000bfff9fffe00070000fff1
000200020002fffe000d00060006ffeefffa
fff9fff1fffc000bfff8fff6fffdfff6000c
fff9fff90004fff4fff8000000000002fff6
000000040008fffbfffe0002fff9fffefff7
000600020010fff00004ffff000100070000
fffdfff800000000fff1fffbfffc00070007
fffffff50008000cfffdfffbfffcfffcfff3
fffe000400080005fff90003ffff0001fffc
fffaffeeffeefff5fff2fff800090000fffe
0004fffdfffd00040007fffb0014fff70011
fffe00000004000d000c0000fffffffafffc
0006000a000e000b00050003fffdfff2ffff
fff6fff9fff90006000afff5fffb0007fff9
00070007000000000000fff4fffb00040000
fffb000a0003000b0003ffff00070000fffb
0002000f00040000fff10001fffc00050000
fff7fff30003fffb00070004000000010003
0003ffeefffffff20000fff9ffff00060006
fffa0007fffffffe000000100007fffe0000
0003000000070010ffecfff8fff2fff10006
000c0004fff900040005fff7fffffffb0006
000cfff8000dffff0002fffefffdfffe0005
fffd000cfff900040013fff0ffff00080001
0002000afff70004fffcffff000100030002
0000000afffffff6fff90005fffe0012ffff
fffc0001fff9000800090004fff80000000f
fffa00050000fff1ffff000a0000fffe0000
0003ffee000a000afffc0006000200050003
fffbffff00090003fffa00060002fffffff7
0000fffb0007fffd0011000b0000fffefffe
0000fff50004ffff0000fff5fffefffcfff9
fffe000600000009fffefffc0018000f0003
00070000001bfffa0000000efff1fffafffa
000dffff0003fffd0008fff400080005fff5
0007fff9fff2fff50002ffecfffc000dfffa
ffff0008000dfffe00090006fffc00000000
fff9000ffff60008fff9fffffff5fffffffc
fff900050006fffcfffafffdfffe00100004
fffcfffffffc00000002ffeffff90005fff5
fff9fffd000afff9000800160002fffe0001
fffdfffe0003fffb0003fff6fff30002fffb
000900060001fffd0003fffb000bfffcfffd
000a0002fffc0004fffb00020000fff70001
000200090009000dfffafffa00010000fffb
0002fffa000c000000120004fff700060005
fff6fffbfff30000fffe00020000fffbfffd
ffeefff9fffafff7fff90007ffedfff50001
0005fffbfffc0003000f0004fff80001fffd
fffbffeefff80011fffefffbffff00020000
fff7fff900020002fffe001100040005000c
0002fffe0002ffff000c0012fff6000b0008
0005fffbfff40006fff6000c00060000fff5
fff90006ffff0000fffefff9fff20002fffc
fff40004fff9fffafffcfffb000600070000
ffff00100005fffb0007000b000300000007
fff8fff9fff0000dfff5fffc0016000fffff
000d0001fffd0000000300000000fffbfff9
0000fffdfffd000600000006000700030002
0009fff900090007fffffffffffdfffd000f
00040003fff80002fff6fff9fffdfff80003
000400030003000dffff00050006fff8fffb
0001fffe0001fffafffefffefff6fffe0003
fff3fffefff7ffff00030002fff50009fff9
0001ffff000300080008fffffffafff4fffc
000300090003fff300060006000d00020000
0008000e0002001b001afff800120005fff8
fffbfffe0007fffdfffc0000000bfffc0002
00000004fff10003fff90000000000000000
fffc0006fff50003000efff9ffee00000007
00000001fff9fffafff9fff9fff60002fff0
000000020006000600000000fffcfffdfff1
fff3000cfffd00040003fff70004fffa0002
ffe9fff9000000050011fffe000a0007fffe
0000fffafffa00000001fffbfff0fffd0003
0006fffcfffb000500030000000000040000
ffff0003000800000016ffff0008fff9fff1
fffcfff6fffd00020004fff80002fffbfffb
00000003ffebfffc0008fffdfffa0005fffa
fff9ffff00020003000800040003fff6000a
00020008000cfffb00060000000dfff9fff3
0001fffb0003fff900050009000a000b0000
fffc0009000400000000fffb000f0000fffe
fffa0001fff8fffbfff8fffb00030003fffe
000c0006000afffc0000fffb000b0006fffc
00020000fffc0005fff6fffe000bfffcfffc
0000fffd0010fffbfffd000b000bffff000d
0003fff80009fffdfff100000007ffffffff
0008ffff00070003000700030006fffc0002
00090010000a000b000e000b00020004fffc
fff800090002fffffff8fffaffef00020000
fffefffc000200020000fffc0002000c000a
fffa0004000afffefff8fffafffc0010000b
fff50004fff8fff60002000bfff7fff7000c
fffc0003fffb0005fffc0004000100020009
0002fffcfffb0000000200050000000a0009
fffdfffa000c0001fffcfffefffffff90000
fff700020008fff6fffe0000fff90006ffff
ffff0006fffe0005000ffff8000200070005
fff8fff9fff1000dfff0fffefff8fffefffa
fffbfffefff80004ffff0001fff7fff5fff2
fff1fff9fffc000500000005fff50008fff9
000f000400070009ffff0003000b00000009
fffc000ffffc0000fffdfffffff900010004
fff600010000fff7fffd000afff8fffcfffc
000afff80007fffe00070010fffdfffafffd
fffc0007000afff4000600040007fffdfffc
00040001fffb000000060005ffef00050006
0010fffb0005000300030000fff8fff90003
ffff0003fffb000200050003fffdfffb0007
fffbfff8ffe60008fffdfffb000700000002
000affed0006fffdfffe000800070005ffeb
ffe4fff40005fff50003000a00040001000e
fffb0000fff4fffdfffefff5fff6fff6ffff
0000fffcfff60001fffa0001fffe0008fff7
fff50004fffe000bfff7fffe000d00010007
0004fff2fffefffdfffd0006fff50005fffd
fff8fffe000bfffe00090001fff9000c0008
fffc000800000003fffffffe000200030000
fffb00030002fffdfff700090001ffedfff2
fffefffdfff9ffff000500050005fffffffb
fff8ffff001700010002000f000500050012
00070006fff5fff20000fffb00050007fffa
00010003000efffcffea00050006fffffffb
000efffd0004000200020004000affecfff8
000400130004000e000500010008fff4fff5
00060009000300010000fff2000bffff0002
0004000c0004fff400060003fffafffc0006
fffcfffbfffc00090002fff9fffa0005fffd
000c000700070010001400030000000ffff9
0000fff4fffbffff0011fffcfff9fffb0012
fffdfff7fff7fffefffcffedfffc0000fff4
0003fff6fffffffd00020007fffd00100009
0003000600030008fff90005fffc00000009
fffa0004000afff80004000000060006fff6
0001fff6fff90004fffafffe000400170007
fffb0001000bfffcfff50004fffd0000000b
000f000ffff90001fffd0000000600030002
0007fffb000e000d0000fff3ffff0000fff1
fffd00060006fff8fffa0001000000000004
fff0fff000030004000000000003fffb0006
0006000cfff700030006000b0009fff20002
00050008fff4000b0004fffffff2fffd0001
0000fffd000e00070002fff5fffe000dfffa
fff2fffcfffdfffcfffbfffafffa000a000d
fffffff7fffe000500010001fffc0001fff1
000d0006fffefffe00170000000e0000ffff
fff6fffbfff5fffdfff70001000afffc0007
fff8fff9fffc00040004fffcffff0007fffc
0000fffaffff000000090005000700010002
000200080007000000000005000500000011
00090000fffffffd00020003000f000d0000
000ffff6fff5fff0fff8fff8fffdfffcfffc
0003fff8fffffffd0003fffefffffff4fff6
000dffee00050006fff30000000400080005
fffcfff900020000ffff000bfff7fffbffff
fffefffefffafffffffb00060003fff90001
ffec00060003fff7fff70000000900000002
000afffbfffefffcfff8ffed0000fffefffe
fffdfffa00000008fff9000c0006fffefffe
0009ffe5fff1fffefffafff10000fffb0008
0004fffc00030003fff8fffc000b0006000b
fff60011fffcfffd000f0005000efff9ffff
fff200000008fff9000000160008fffdfff9
00090003ffed0005fff50004000400000000
000d0006fff8000000000000000900030009
00030000fff80005000efff4fff7fff40000
00020004fffafff4000f00080009fff4fff8
fffffffcfff8fff7fffdfff60000000afffd
0000000800090009000a000300010002fffb
fffb0003fffdfff9fffcfffefff7fff7fff7
0006000200040006fff70000fffafff90000
ffecfffa00090002000fffff000700040008
0013ffef00090000fff9fffbfff700080000
00050000ffff0009000000010001000d0000
0000000100060000ffef000afffc00000008
0003fffa0002fff40005000100000008ffff
0007000cfff4fffc0002000400050006fff5
00050005000f0002fffafffb000400030000
0002fff5fffefff5fff3000afffd0003000d
00060005000300020001fff6fff900010016
fffdfffcfffa000d000d000b00080002ffff
fff7fff4fff70002fff8000600000006fffb
fff90003fff400040001fff80005000c0013
000c000300040009ffff000b000600130002
fffdfffcfff4fff80010fffffffefff60002
00030008fffdfffa00050006fffe00010000
fffeffe60004fffcfff9fffa0000fffd0002
00100002fff700060000fffbfffd0007fff8
0000000000010005fffb0004fff2000afffe
000afff9fffe000efffdfffffffffff1fff5
ffff0001fff8fffb00070003fff90005fff4
0006fffefffb000200080003fffd0000fffa
ffec00000001fff50005fffd000100080003
000bffecfff300070006fffc0004fffefff1
0007fffefff20000fff3fff400010005ffff
0007fffffffc00020005fff8fff5fff90000
00000004fff800010000fffe0002fffcfffb
fffe0005000e0009000f000a000000050008
fff90013000800040005fff7fff6fffa0009
0009fff80002fffe0006fffe00080014fff7
000cfffeffff0002fffefffc00000004fffb
fffbfffbfffbfff0fff4fffffffdfff4fffa
000dfff700050003fff7fff9000f00070002
00000003fff8fff300030004fff60016fffe
00050002fffffff9fff9fff400090003fff5
fffe0004fff6ffec0000fff600010005fff8
0001fffdfff8ffff0000fff60006fff80000
0007fff0fffefff8fffb0000fff900040000
fffe00100005fffb00000004fff6fffffffe
fff4000ffffc00040000fff5fff2ffff0005
0002000d0001ffff0000ffff00030003fffb
ffec00000005fff100060003fffe00100016
000300110003fffbfffc0003fff6fff4ffed
fffcffff00000007fffdffff000900090004
fff7fffbffeaffff0005fffffffdfffb0002
fffb000a000cfffa000c000affff00020002
00050000fffe0001fffafff4fff400030000
0001fffafffc0002000afff800000000ffff
fff60000fff9fff3fff7fffafff2fff40004
000e0003000300030000000dfffb00000006
fff50001ffff000700080005fffa0003fffa
fffc000dfffc000600000004000200080000
fffc0002000300010006fff7ffffffff0005
fff6fffb0006fff5ffff0003000afff3000c
000000020012000a0002fff00004000bfff3
fff3fffb0002fffd00050003fffdfffe0002
0006000a0004000cfff80005fffcfffbfff7
0002fff100080002000200000008fffcfffd
0004fff7fff3ffef000a0005fffaffee0004
ffef0007001000000003000ffffe0001ffff
00080017000e00120009000a000900030005
000a0000fffc00040004000300070001fff2
fffe00040002fffefff9fff400000007fff9
000d000c000a000100010007fff3ffff0002
0004fffdfff6000c0003fff60003fffc0006
0000fffe000cffff00080006fff1fffc0004
fff100020007fffefff50003fffdfffcfff7
fff7fff60003fffb0002fff1fffd00040001
00090006fffb0009fffcfffe00030009fff6
0000ffff0005fff30000fff8ffec0005000a
0000000a0005fffb000c000afff5fff80006
00040002fffc0005fff2fff1fff8fffd0000
fffb0004fffcffff00060003fffb00000012
00090000ffeb0003fff20002fffdfff50003
fffbfffbfff10007fffe000b000500010000
0004fffe0000fffcfffdfff600120006fff8
fffe0001000dfffefff2fffefff9fff90000
000500020003fff4fff6fffffff6fff70008
fff8fffc0006fff800050008ffff0003000c
fff6000700040002fff600030000fffe0008
000a0002ffff000e000f00000007000efffa
fff7000b0000000afffa0009fff400070000
00090006000900070004fff600060001fff4
00010004fff200090001000000090007fffb
0008fffdffff0000fffd0000fffdfff90003
000600090005ffeefffb0000fff6fffbfff6
000f0006000ffff9fffbfffafffcfffb0003
0009fffdfff8fffffffdfff7000700000000
fffffff6000600000005000bfff9fffd0009
000d0012000dfffbfffb0004ffff0000000a
0003fffbfff6000000080000001200050003
fffd000400030004fffdfffdfff900020005
0001fffd000bfff3000bfff8fff90009fffe
fffcffee00020003fffefffd0003fffcfffc
0008fffbfff80013ffff0006fffc00090001
000500080000000700050000fffc000bfff6
0000fff000060001fffb0003ffff000b000d
0006fffdfffafffa0000fffd0000fffb000d
0000fffdfff4fff60002fffdfffffffd0007
fffaffff000bfffa000300020002fff2fffa
0000fff2fffbfffc0005001afff1fff4000f
00000002000b0002ffff0003000d0006000c
000a0004fff90000ffff00080003fff80007
0001fffefff5fffbffe3ffeefff8fff3fff8
0003000cfff5fff800030005fffc000a0000
0001000afffb000400080007fffb00040005
fffcfff90000fff600020001000a00070001
fff2ffff00000000000100000005ffff0002
000900000003fffd00090008fffffff4ffff
000300000000ffff0007000efffc00000000
00110003fff300020002fff20000fff5fff6
00070006fffd00060009000b0008ffff0009
fff50002fff4000dfffafff9000300080000
00020002fffc0000ffff0001fff20002000c
fffefffc00000001000600030003fff60003
fffe000bfffdfff200030002000000010006
0002fffbfffb0002ffeffffe0008ffed0004
fff800000005fffe000000070005fffffff7
0009000400030000fffe000100090009000c
000a000b0001000000010005fffbfff10007
fff5fff6fffe0008000afff9000afffe0005
0001fff8fff8fffaffff0001000500030009
000a0008fffefffe00000000000100070004
fff40009fffc000400000000fffe0000fffd
fffdfffd0011fffe0002000a00090003fffd
fffd0001fffb000b0006fff50000fffafff0
00000001000b00070008fff00006fffc0000
fffdfff20014fffb0009000fffff000b000f
fffc0012fffbfffa00040000fff5fff60003
0007000000000009fff90006000b0002fff4
ffff00000000fff4fff3fff6fffc0002fffd
fff3fff9fffbfffeffef0001fffc00050002
0000fff1fffdfffe0011000900060007fff0
000c000e00000004fffd0004fffc0000fffc
fffc0005fff3fffe0000000100070003ffef
0001000200040001000400050000fffeffff
0000fffdfffbfff90001fffdfffb0006ffff
00010006ffff0003ffff0005000b00020008
00010000fffcfff9fffafff30002fff3fff2
0006fff7ffff0000000e00010004fffaffec
0000fffcfff40005fffc0000fff8fffefff6
fff4fffbfffd0003fffdfff9000c00030002
fffb0001ffe5000000080001ffee00030002
ffff000f000d0005fffa0008000d0002001a
000900000014fffdffff0008fff8fffa0002
fffc0007fffffffcfffcffed000c00080009
fff8000c0008ffff0004000400080002000a
00070008fffafff4fffe0008000400000008
0000fffcfffc00110000fff5fffd00000000
fff70008fff1fffe00090000fffdfffe0000
0012000bfffefffefff5000600010007fffe
00000001fff900030000fffafff900020003
fff6fffffff9fff70002fffcfffe0006000a
fff8fffa0000fffcfff4fff70005fff5fff7
00000008fff9fffdfffc0007000300050007
0002000d000bfffc000d000300100004fff7
0004fff70007fff9fff70000fff300010006
0001fffc00050000000100040007fff30000
000600020001000300010007fff2ffef0002
000100020000000b00020002fffcfff8fffc
000100010006fffd000efffffff500060004
00090002000a0009fffefff90000ffe80000
00000003fffc00190002fff7000bfffffff9
0009000f00020001000b00080008000afffb
000000100003000800090001fffbfff70005
ffed0001000700010000000d00000001fffe
00010000000a00000007fff700090002fffe
0007fffdfffffff9000f000afffb00020000
00000006000f0011fff30016fff5fff8000a
fffa000c0006fffe00040007fffa000a0002
0003fff3fff800070004ffff0003fff8ffff
000200040000000800000008000100020010
000cfffa0009000600010000ffe1fffe0009
000e000b0007001200020005fffc00030000
0001fffd0001000000060000000efffd0008
fffe00080000000afffcfff8000ffffafffc
fffeffee00010004fff5000efffafff7fff4
fffbfff7fff6000dfff2fffcfffe0001fff9
0011000600010005000b0002fffdffff0002
00000005fff2fff70001fffc000600000008
fff1fff3fff800080005ffef000c0002ffff
ffeefff2fffe0001fffefff8fffdfff5000a
fff60005000ffffc0004fff8fffefffc0000
fff5000c0006fff9fff70001fff60004ffff
000900000000fffa0008000a0008fffa000e
00000008000dfffb0004fffefffbffff0000
fffc0006fff700000009fff9fffcfffffffd
fffc00000002ffe5fff2fffd000800000009
ffee0000fffc0004fff6fff2fffdffff0000
fff1fff2000200010002fffc000a00030000
ffff00060006000300010004ffff0001000a
00080000fff4fff8fff7ffebfff60000fff9
fff3ffe50004fffdfffa0003fffffffc0011
fffc00000003000dffff00030010fffefff8
fff9ffeafff0fff3fff0000cfffbfffe0006
fff9fffe000500000001fffcffff000fffff
0006000300070001fff800020007fff10002
fffe00000002ffff0004000c0002000a000c
00000002fff80004fff100120000ffef0009
ffff0000fffc0001fff20009ffeafff70000
0006fffa000c00070003fff5fff0fff80000
0002000100070000000900010000fff40009
fffc00000005ffff00020000fffc00030000
fffb000cfffd000400070001fff8fff9fffa
0005fffafff3fffa0007fff90000fffb0008
fff40009fffb00090008fffdfffefff6fff6
fff80002fffdfffa000000000004fffa0003
fffdfffffff9fffe000000090000fffffffe
0008000800010000fff10001fffc00000002
00030003ffff0002fffffff4000100000004
00140009000f001c00060001ffff0000fff9
0015000f000f001000170005fff200020005
fffe0011fff2fffd0007fffe00070005fffd
fff9fff0000600100004fffc00000003000a
000a00070007fff5000e0009fffcffff000c
fff4fff7fffb000c000c000e0000000bfff6
0002fffa0004fff0fffc0002ffff0002fff7
000dfffffff5fffb00060000fff7ffebfffb
fff9000500110004fffa00020000fffbffff
fffafffefffefffe00000001fff7000c0000
00000000ffff0000fff90003fff9fff60005
0000fffc00030007000000030007fff50001
fff1fffdfffefff0fff4000afffc000a0002
fffcfff40001fff6fff0fffb0001fff60003
0004fffa000cfffcffff0002fffe00000007
0000fff600040001fffffff8fffe0007fffa
000cfffafffe0004fffe000ffff300090005
fffa00000005fff3fffeffff000efff30004
fffb0006fffb0000fff4fffcffffffff0003
ffffffef0006fffdfffcfffdfffe00040000
fff90005fffcfff50000fffeffeaffecfff4
00020004fffe0007000b00020000fff30012
0004000f000700040009fffffffb0002fffe
fffa0003000afff300000000fff3fffefffa
fffcfff7fffafff3ffff0003fff80007fffa
000000080003fff9fff9fffbfff9fffc0000
fffcfff8fffdfffcfff6fffd001000010005
fffb0008fff3000f000c00010002fffd0013
00020002fffc0000000800010001fff80006
000a000000050010fffafff9000500010004
fffd0007000900010017000200090002000b
fff7fffe0001fffefff80003ffefffff000c
000100060003001300010009000500060006
fff7000000020000fffafff80009fffdfffe
fffdfffa00060004fff4ffec000400030000
0001fff500020001fffafffa00070006fff9
000f0003fffc00010003fffbfffc000afffd
fff10005000100010000fffc0009ffed0001
0004000a000cfffd00000002fffe0000fffb
fff5fff700030002000700010009fff7fffd
fff90000fffefffcffff00050006000afff7
0000fff9ffff0000fff9fffb0004fffbffff
0001fffcfff3fffc00090000fffffff40003
000afffcfffcfffd0000fffbfffd000a0007
fff60002fffefff7ffef0008fff400000007
00040004fff5000f0000fffdfffdfff1000c
0001fff9000300000002fff8fff900030003
0004fffd0009ffff000cfffdfffd0004fffe
0005fffd0006fff90004fffefffafff4fffd
fff70000000b000700080003fff6fff6fffd
fff4fff90001fffffff7fffd000600040006
fff5fffcfff2fff1fffc0008000200020000
fff1fffbfffefffc0002fffbffff0002fff5
0011fffefff500130002ffff0001fff9ffff
000400030004000ffffa0008fff4ffff0001
ffff00000007000a0002fff90002fff90000
fff80001fffffffa00070007000300000009
0001000ffffb00010000fff20000fff8fff5
fffbffff0007fff200010010000800000005
fffdfffb00050001fff5ffebfffdfff8fff2
00080001000500030003fff8fffe00000000
fffe000100000000fffa0000fff8fff90010
fffdfff90004fff7001600020000000f000b
00000010fffe000a00160000000100040004
fff6ffed000300060003fffefff40000fff9
fff9ffff0008fffa0000000dfffa00000005
fffc0006fff4000d000000030012ffff0001
fff9fffd000200040001fffd000f0000fff2
000300070007000e00010005000affff0000
fff70003fff90004fffafffb0000fffa0001
0004fffb000700000002fffcfff800000000
fffe0000ffff0008fff100070000000e0005
fff90005000dfffa00060003fff1fff4ffec
fffe0006fffd00000004001200010001ffff
00040003fffdfffa00070005000b0001ffff
00070002fffb0007000b000efff40000fffd
000d000100050002000afff5000b0008fff8
fffafffd00040003fff8fff8fff60004fffc
fffdfff5fffcfff70009fff3000500020001
00040007fff9fffcfffb0000ffffffecffff
fff6ffee000effeb0005000a00030005fff6
00000001000200090006fffcfffb0006fffe
fffbfff6000d00030001ffff000700000008
000300010001000f000e0004000000020001
000a0002000c0001fff90000fff80000ffff
0007fffc000300020007fff00006fffc0011
0002fff9fff3fffdfffcfff700010009fffc
000a0005fffb0006fff3000100020004fff6
fff3fffdfffd0000000000080018fff30002
000e00110007fff9fffcfffdfffcfffe0000
0009fffe0006fffe00050006fff800020000
fffefffefffd0000fff6fff6ffffffff000d
fffe0004fff0fff80000fffefffe00020003
0000fffefff9fffc0002fff2000400040007
00020009fffc0009fffefffd0001fff50006
fffb000bfff4fff4fffbffee0001fff60001
fffcfff2fff500020000fff4fff5fff2fff4
00040016fffffffe0008000300050005ffff
fff30002fffc000100080005fffa00010011
fffc00000006ffeffff80005ffffffff0003
ffff0004fff1fff40006fffd000100020002
fff4fff3fffdfff5fff1000700030005fffb
ffff0000000cfffc0003fffcfff7fffcfffc
fff9fff9000afff4fff60006fffa0005000a
fffdfff4000afff6fff900000002fff9000c
fffefff9fffbfff3000100020005fffdffff
ffff000e0007000e0004fffc0002000efffa
00040008fffe00090009000000070004fffa
ffff00080009000e000a0004000100060007
00080003fffd00020001ffff0000fff90001
fffd0004fffdfff9000200000007000dfff1
fff6fff0fffafff5fffcfff90003fffbfff8
00010016fffbfff900030008fffefff7fff5
000e0007fffd0002000affff000c000c0002
fffbfffdfff00000fffffffd000a00090006
fff300070004fff6fff80005ffec00060008
fffefffafff6fffe000000090005ffff0006
fff4000dfff8ffecfff6fffa0002000afffb
0005ffff0000fffb00010000fffcfff40004
ffff000d0009000800000006fff900050000
fffffffffffbfffa0002fffb0001fffdffff
fffd0007fff900000001fff300020003000c
000cfffefffa0009fffa0006fff000040003
000100130010000b0008fff4ffeefffcffff
fff8fff7fffd000dfffb000000050003fffb
000500000001000200090002000cfff9fffc
fffafff2fff50003fffe0004fffe00020003
000b0005fffffffbfffa000dfff2fff7000b
fffafffcfffcffffffebfffefffafffdfffd
0008fffffffffffafff700020001fff40000
fffdfffefff4fffe0001fff0fffcfffa0000
fff8fffdfffdfffbfff8000000000006fffe
000e0001fff900100004fffb000500060002
fff9000bfff8fff80004fff500000006fffd
fffd0007fff30004000b0004000d00060004
000bfffafffc00020008ffec00060000000e
fffc00000007fffa0000fff00006fffa0007
ffff00020004fffffff90005fff4fffd000c
fffffffafffafff3000bfffb0006fffbfff8
000a000dfffffffc000300070000fff70012
0003fff6fff8ffe5fff300010000ffff0000
0003fff7fff7fffbfffafffa000200040002
fff5000100010000fff0000ffffffffb0007
fffbfff3fffffffffffefffe000600010009
0011fffc0002fffffffdfffcfffffffafff3
fffd0003fffb0003ffeffffffffefffdfff8
fffd0007fffc00070008000afffcfffefffe
0006fffeffefffff00080000000c00000004
fff4fff10005000000060000ffef000a000e
000200000005fff40009000000000000fff4
fff3fff3000cfffb0003fff400020004000d
fffb0006ffff000bfffafffb000cfff4fffd
000f0000fffe0002fffe000dfffefff2fffe
fffd0002fffb0009001200020001fffb0001
000200070008fffe0000fff50006fff70003
0001fffcfff5fffafffdfffbfffefffdfffd
0004000c0006fff60014ffff0008000a0007
00070000fffbfffc0008fffefffd00100003
000100070011000cfffffff1fffe0002fffe
0001ffff00020000fff5fffb0007fff5000d
ffffffeffff90003fffb00050001ffee0000
000c0011fffc00020013fffd0004000a0007
fffcfff8fffefffb000500060000fff30007
000a0004fff0fffffffdfffa0003fff8fffa
00050002fffa00030000ffff0000fffcfff9
000e000e000e00000006000000110004fff9
fffd00020008000b0001fff5fff60007fff2
0003fffdfff0fffcfffefffc0000fffe000b
fff100030012fffcfffc000bfffbfffc0003
fffdffe3fff300020005fff800040004000e
fffbfff9ffff00080003000f000300060000
fff4ffe6fffafff5fffe0000000a000a0003
fffffff1fffffffd0002fffe0001fff9fff7
00050004fff8fffefff3fffefff100000001
00050002fffc0005fffd00000008fffefff7
ffffffff0004000000010003fffcfff50000
0000fffbffff000fffff0008000d00070004
fffafffffffafff6ffedfffbfff100050000
fff9ffeffff5fff7fff7fff30002fffe0000
0000fffcfff9fffbfff80009000800000008
fffdffff000affff0002000600000007ffff
fffb0002fffdfffcfff900060003fffbfffe
00000000000700000000ffff0006fffefffd
fff8000800000004000000000004fffe0009
0002ffff0000ffffffff000000090006fff0
0000000c0001fffdfffcfff2fffe0001000c
fffbffff0007000100000011fffcfff90005
000c00070008fff4fff7fffb0004000d0004
00070006fff0ffff0001000bfff9fff90007
fffefff6fffe0000fff400060000fffc0009
000600000002fffcfffa0002ffff00080004
0000fffcfff8fffcfffe0008000b00090000
fffc0002fffa0000000a00000000000efffa
0017fff9fffb0012fffdfffb000300040000
0009fffd000200010002fff70000fffb0005
fffcfffcfff4ffef0000fff7fffffffd0007
0006fffbfff1fffe00000007fff7fffc0008
00000006fff800070004fffd00010004fff5
00000000fff9fff9fff9fffdfffefff8fff6
0006fff3000e0015000800170006ffffffff
0013fff9000d0009ffff000bfffcfff50003
000bfffafffafffcfff10002fffcfff0fff5
fffbffff0001000bfff8000b000afff80005
0000fffa0007fff4fffb0003fff9fff8fff1
fff0fff8fffdfffb000dfffbfff500090003
000ffffd000100090000fff80006ffff0001
fffdfffbfff3ffff0004fff4fff90000ffff
00120006fffc000c000c000bfffa00020000
fffdfff200020009fff7fff7fffcfff2ffeb
000700160008fff9fffc00060003fffb0004
fffc000e0000fffefff9fffdfffafffdfff6
fffc0002ffff0006000bfffc000afffe000b
0001fff20008fff5fffa000f00000000fffe
fffd0005ffff000300060001fffe00180008
000ffff50000fff9fff1fff9000000000003
fffc00010004000cfff60009fffe0004ffef
0000fffd00000007fffd0000fff9fff00004
000000130003fff0fffdfffc000efffafff9
0008000100010007fffdfffe000700080017
00040001fffa000a000a000400050000fffd
000efffe000a000300020000fffa0007fff9
fff7000500000005000900050002fffdfffd
0002fff40007000700060009fffa0004fff9
00000004000afff40006fffdfff0fff3fffe
00020013fffeffffffff0004fffffff80007
fff3fffffffdfffafffd000f000d00020003
fff6fffe0006000600090002fff7fffb0003
ffff0007fffcfffc00000006fffcfffafff7
0000fff9000cfffbfffa0000000dfffcfff9
0000fff7000100010009fffa0009fffe0008
fff3ffef0013fff5fff2fff7000efff50010
ffee00000003fff700080001fff00005fff8
000100000006fff30002fff80002fffc0000
fffb0000fffb00020000000800150006fffd
fff1000e0005000200000003fffefff00006
000000030001fff600000003fff7fffdfff2
0013fff7fffc000900050005fffdfffc0000
0002fff7000c0004000e0003fff600030000
00080008fffefff5ffff000ffffa00060005
fffbffffffff0001fffcfff2fffcfff50000
fffbffebfffd0003fffdfffcfff7fff5fff8
0004fffd0000000300000000fffdfffc000d
fffdfff80005000c000bfff4000d0007fff2
fffdfffb0003fffd00050002ffff000c0004
000a00000001fff5fffbfff1000afffbffff
0003fffd0003fffffff7000300040000fffb
000e000000080006ffeefffcfffafffe0005
0007fffdfffa00090000ffeefffafffbfff2
00050007fff50000fff5fffb0000fff8ffe6
fffcfffffffa0003fff90000fffffff4fffe
fffefffdfff80008ffebffeefff8fff6fffc
0002fffc0000fff5fff8ffef0002fffe0008
0006fffcfff800080009000100010001fff8
fffc0003000f00020010fff9fff90000fffe
fffcfffafff50006fff700010000fff4fff6
0010000efff50000fffafff6fffcfff8fffa
fffbfffefff4000100040002fffc00000005
fffa000c00040011fffdfff7fffdfffcfffb
00020004fffe0004fffafffcfff5fffe0004
fff80009000ffff6fffd00020000fffdfff6
0007fff6000500050006fffa0004fffafffc
00000007fffa00000000fff6000a0008000e
fff6000d00010001000000170000000afffc
00100008000f00070007fffd0000ffff0008
00030004000100040002fff7000100030000
00100004ffff00000009fff7fffbffff000d
fff60000fff9fffe0002fff3ffff000afff7
ffedfffe000d0000fff3fffc0001ffee0011
000dfffefff0fffdfffbfff7fff4fff90003
00000001000600070011fffa0011fff5ffed
0008fff7ffff00020008fff6fff3fffc0001
fff6fffdfff90001000900070000fffa0009
0004fff300040000001d0002000900060005
000a00090005fff4fffe0003001200050000
00070009fffd000a0004000bfffb00030007
fffb00030003fff000070004fffd00120000
fff90007fff100000005fff8000800080002
00070000000000030008fff70002fffc0001
fff6fffe0008fffb0000fffc0008ffff0004
fff7fff5fffdfffb00030003fffb0007fffe
ffff000a0000fff40008fffdfff6fffefff7
fff2000d0008fffa000f000dfffafff9fffa
00080008000f00050000000afffe0003000e
0002ffeffffa0004fff800020000fff40005
000000090005000800090008001500130002
fffb0002fffe00030001fffafff8fffb0002
fff9ffff000000090008000300020002000c
00010011fffcfffcfffeffff000b0009fffd
fff60000fffbfffffff9fffdfff6fffe000a
0004fff8fff90010000400090000ffff0005
0007fff5fff500050001fff1fff8fffa0002
0005000bfff9fffa00030004000200010002
fff6fffa0009000bfffc000a0009fff90000
0008fff40002000000000003ffff00030004
0004000cffff000a0008fff8000e0003fff8
0000fffa000300060005ffff0004ffeffffb
fff4fffb0001fffcfffa0000ffea00080009
fffe000a0001000bfffb0009fffe000a0000
0007000700070005000e00000008fffefff4
fffc0004ffeffffefff7fffafff900080002
fffffffdfffd0000000cffeb00010007fff5
fff6fff6fff6fffcfffa00030000fffb0000
0006000ffffe00000008ffffffebfff8fff0
0003000100030000000b0000fffafffb0002
0008fffefff8000efff3fff40005fffd0000
0002fff7000300090000fff9ffff0008ffff
fffafff6000200000002ffff0008fffd000c
00040000fffb000f0000000000000007fffc
fffdfff5fff7fffefff6fffc000a0004fffa
ffeefff5fff90001000e00070005fffdfffa
000d00010000000b0005fff7fffffffcfffa
00040005000500040006fff9fff8000bfffe
0000fff2fff6000b0005fffdfffd00160000
000a00150005ffff00020003000800070001
0005ffeefffa000e0009fff90000000cfffd
fff500080014fffa00060017000600160006
fff60004fffc0008fffaffea0002fff9fff8
000100060006000900010011ffff00040007
fff6000800020003fffdfff7fffefff30000
000afffc000800000002000b000900030001
00000001fffcfffb0002fff2fffd00090001
0005fff3000c000b00070002fff7fffb0007
fff8fff10006fff60008000200030001fffe
fff20007000b0005000a00010005000dfffd
000c0000ffee000a0003fff3000dfffc0000
0006000200000006fffd0003000200080000
fff8fff3fffe00050010000dfff800010000
000000000001fff80003ffff0000000afff1
fffffff80005fff5fffd0007fffefff9fff0
fff7ffeffffffffdfffefffe0006ffeefffa
00000004000a000d000b0000000000000016
000400090003000a000e0000000bfffd0001
fffe000000070006fffefff7ffeafff80000
0015fff9fff90005ffff0005000100070004
fffe00010000000200000000000cfff1fffb
0016fffb0003fffcffff00030000fff3fffe
000ffff50006fffe0005fff6000b0000fff7
00080003fff1000c0006fffe001100070003
fffd000100090001fffbfffd0009fffeffff
00030013000700060006fffa0000fff60000
000d0006fffc00010003000200040014fffc
000300010007fff8fffdfffd00000008000c
fff7fffe00040005fffefff1ffff00070004
000a00000011fff50005000bfffa0000fffc
ffff001e000c000400030000fff8fffbfff7
0004fff5fff8fff700010000fff700010000
fff60000fffd0000fff7fff8fffefffd0000
000bfff1fff60005fffcfff2fff2000afff3
00030002ffff0004000400020000fff3fff0
0007fffe0000fffefff40007fffd000a0000
fffc00040002fffa0000000dfffc000afffe
000f000600010015fffdfffb0008000d0001
fff4000cfffb0009000c0007fffcfff30005
000d0006fff3fffffffdfff700060006fffa
fff000080009ffff000d000700000002fffe
00080000fffdfff9fffdfff9fff2000f0000
fffafffc0007000afff1fffb00060009000a
00060000fff9000bfffd000500010004000b
fffd000f000000050009fff400000002000e
00050000ffef000d0007fffe00110002fffb
fff3fffafffbfffd00120009fffcfffe0004
00010001fffdfff6fffdfffc000000170007
000c0000fffd0009fff60000fff8fffc0003
fffefff00005ffe70000fffffffafffa000b
fffa000000070001000affff000800000004
0007ffff0006000d00100008fffa00080002
fff7fff3fffbfffafffafffdfffe0000000e
fff8000b00090005000c0002fff7fffe0008
0007fffe000a00110005fff90003fff4fff5
00080001fffcfffe000e0002000600070002
fff9fffb000b000000110000fff900050010
fffafffafff60003fff6fff8000c00060006
0001fffe0008fffc0004000afff1fffcffff
fff80003fff8fff0fff3fffc0000fff70002
fff8fff6000d00020008000e0000000dfff9
000700080005fff1ffff0003ffe7fffaffff
0002fffb000c000ffffd00110006fff50001
fffefffffffffffcfff8fff8fffc0003fffe
0002fff7fffefffd00050004000500050003
00090010fff5fff50003fffd000dfffefff2
00000008000cfffe00070004fffd00020007
0002fff4fffefffefff4000b0007fffe0003
fffe0006000cfffffffa000000010000fffe
ffff0000fff9fffefff30003000300030001
0005000e00080004fffffffe000200000005
000bffff000000000002fff7fffb00040005
ffec0004fffc00050001fff4fff2fff50000
fffd0006fff3000e0000fff9000000010003
fff5000200060000fff20007fff100020002
0000fff7000a00000008fffc0007fffc0002
fff6ffff000dffecfff3fff9fff1fff4fffe
0009fffe000d0004fffb00080006fffe0001
fffdfff60002fff2000b0003fff4fff30006
0001fff60002fffcfffbfff9fffa0002fff6
00060007000200000005000cfff4fffffffa
ffff00010009000200020000ffff00130006
000b0004fffcfffd0015ffff0000fffd000a
00070003000d000100000007fff800070005
fffe0000fff5fff3000d000bfffb00000001
000bfffffff90009fff7fffefffbfff9000e
000d0008ffffffff0001fff8ffff0001fffa
fff4fff70004fffb00050000000c0006fff6
00080009000f0000fff50003fff500020000
fffafff9fff80001fff7fffffff600000008
fff6ffff0001ffeffffc000300030004000c
0009000ffff900000006000dffed00110003
fff9000e000100060008fffd00060008fff8
ffff0001000a0004000dfff4fff6000bfff8
0003000b000000000000fffbfff60006fff5
fffa0000000500100003ffe7fff80000fff9
fffefffb0006fffefff0fff1fff5fffdfffc
00000002000e0007fffcfffc0004fff9fffd
fff60001000cfffefffa0004fffafffbfffc
0008fff8000b0000000afffc000700020008
fffa000400010008fffa0000000cfffffff6
fffb0002000600040000fffdfff5fffbfffe
00020000fffc0001000c000efff90002fffa
fff8fff3fffa0003fffd0000fffefffefff3
fff00002fffb0003fff8fffd0002000b0002
000200000005fff5fff7fffcfffa0003fffc
fffc0002fff7fff9fff50004fff8fffafffd
00110011000500090008000efff6fffc0006
fffb0005000e00080005fff7fff4fff90005
0001fff200050001000cfff6fffefffd0000
00050003000bfffe000500080007fffa0000
fffb000100010000fff500070003fff50002
000000010001fffcfffffffa0000fffa0000
fffcfffc0000fffbffeeffec00060002fff6
0000fffdfffbfffb000d000ffffafffd0004
0004000b0008fffbfffe0012fffbfff40004
0000fff80001fffa000b000700050009fffb
fff70009fffa0002fffffff900070001000a
0004fff4fffe00040000fff9fffffff8fff9
fffa00000008000a00030001000600010002
fffffffbfffafff30000fffc0000fffa0002
0000000dfffb0009000dfffbfffc00060003
00060000000300000001000ffffa00010005
fffdfff8fffb000000040008fff90000fff6
fff5fff5fffc0006fffffffdfffefffd000a
fff50005fffcfffefffcfff40003fff90006
00050004fffd00010006000bfff9fffbfff5
fffe0002000b0000ffff0000fff900050004
fffc00000008fff00006fff8fff7fffcfffb
ffff00020003000d000000090000fffb0001
00050004fff2ffeb000e000600090007fff5
ffff0006fffa0005fffc0008fffcfff4fff8
fff9000000010002fff80009ffff0003fffc
0007fffafffd0003fff600070001fff8ffe7
0004000afff90000fff9000400050002fffe
0008000300050005fffefff0fff1ffff0000
0000000c0004fff90008fffffffe00020007
ffeefff5fffefff900000008000500140004
0001fffc00130008000500090006fff10001
ffff0010fffe001b0004fffb000000000000
fffafff30002fff5000300090005fffd0008
fffb0006fff1ffe90009ffec000a0004fffc
fffffff80000fffd0000fff9fff30000fffa
fffcfff2fffbfff70000fff4001500110006
fffffff4fff8000efff30000fffdfffafffc
0009000dfffc000dfff5fff30005fffd0003
fffafffe0009000bffff000d000700000014
0003ffff000100060008000e0005ffff0003
fff3fff200020001fff6fffd00100003fff8
000a000200060006000b00000013fffbfff3
0000fffefffe0005fffb0002fffaffff000c
fffdffff00080009fffdfff8000effe8fff9
fffefff300010003ffff00040005fff6ffff
000000000006000400050006000600020011
00000002fffefffefffc0000fff5fffffffa
0000fff9fff6fff90005fffefff800000009
fff7000bfff9000d0009ffff0016001d0000
fff8ffec0005ffff0000fff900030000000c
0003fff0000300000002000900100001ffff
0005fff500010005000c000c0004ffff000b
0005000a0008000000040007fffcfffffff8
000100050013ffff0001000cfff9ffff000a
fffe0004fff90004000100020009fffffff4
0011fffd000a000ffff8fff7fff9000e0000
0009fffbfff1ffee0009fff3fffdfffe0003
fff8fffd00030004000afff6fffb000dfffc
000afffcfff90000000900010000fff60000
fffc0000000dfff5ffff000300030004fffe
fffdfff2000a00050001fffcfff5fffa0005
fffdfffe0007ffef00000003fffbfff1fffa
fffefffc0002fff7fff9000500020005fff9
fffd0001000efffffffcffff00000002fff3
fffd0007fff5fff9ffff0001fffe000d0004
00040008000cffecfff70000fff400010009
fffbfff2fffefff0fff30008000600080003
0000fffbfffdfffdffff0005fffc0004fffa
fffbfff70007fff20006fff7fff2fff9ffff
000bfffcfffaffef0001fff70006ffeffffc
0003fffc0005ffff0006fff8fff20000fffd
fff8fffffff5fffa00040003fffe00050005
0000ffff000000040001fff8000dfffe0000
fffbfff1fff80005fffb0004fffefff4ffff
00000000000a000100080000fffb0001fff8
00000008fff8000b0000ffee00030007fff5
000f0002000700040004fffc000500030007
0004000400040001fff8fffd000f00020002
000a0000fff9fffffffffffdfffa0006000a
000afff9fffefff800020000000d000c000f
00080002000400060008000000060007fffc
0011000bfffb0007fff3fffdfffd0011fff6
0007000f0001000d0000fffdfffe00080000
0000fff7ffeffff6fffffffb000dfffe0004
0000fffe000a00050000fffffff60008fff1
000a0008000000060018fffe0000fff3fffa
fffb0000fffe00000005fffcfff10007ffff
00000006fffdfffd0007fff9000000050001
000a00010000fffc0006fff6ffff00080006
0015fffefffc0001000bfffefff9000b0009
0008fff900000005fffe0000000200000005
00040000fff3000b0007000b0000fffe0003
fff80000ffedfffe0005fff7fffffff40000
0003ffef0009fffafffc00010004fff5fffc
ffed0003fffe00070002ffffffff0014000a
0006ffff0000001200130007fff5fff50004
001300030008fffdfffafff9fff4fffa0000
fff400030008fffa000b0007fffa0007fffe
000a000bfffa000100010005000cfffb0007
0001000a000b0012000a0000000200000001
0009fff900050000000b0004000dfffdfff5
fff7000d0007fffafff5fffefffefffffff7
00080008000200020000fffa00040003fffb
fffdfff70007fffcfff3fffbfffa00000006
fff4fff90006000300060001fff400080007
000200000006fffcfffb000d0001000a0000
000a00030000fff900060001fff6fff2fffb
0002fffd00100005fff50003fffc00030002
0003fffbfffcfff300070004000100060000
fffcfffa00010008fff8fffc0007fff90001
000d0016ffef000900100002fffd00030007
fffd0000fffdffff00030003000400010000
fff9fff20000fffefff5ffe70004000bfff5
0000000cfffffffefff300030008fff9fff8
fffefff4fffb0007fffaffef0000fff1ffec
fff2000dfffafff800020004fff8000b0008
fff5ffeefff2fffafffcfffefff7000a0000
fffffff400000011000cffff001000010002
fff0fffdfffb0006001500040006000b0002
000400010009fffe000bfffdffff00010003
fff600020007fff60000000afff2fff30002
000cfffe0005fffd000000050000fff7fffe
fffe00000011fff70005000a000200030013
fff0000600070002fffa00050006fffafff9
0006000c000bffff0007fff900000006fffa
fff3ffff00080009fffdfffcfffffffffff9
0008fffb0000fffdfffffffc0005fff60000
fffe000800040005000c0000000e0008ffeb
fffc0002fffafffe0000000cfffd0001fff9
0004fffa0000fffa0005fff60003fffffffd
000400060002fffb00060005fff9fffcfffd
0005fff2ffe9fffdfff9fff2ffff00070001
0003fff80006ffff0000fffdfff900040001
0008fff6fffe00070011fffd000a0007fff9
fffe00080004000600010004fffd0006fff8
fffafffdfffd00020001000300090005000e
fffa0003000e0002fff50002ffffffff0000
fffffffcfff8fff6fff9fffc00000016fffd
fffffffafff7fffcfffa0000fffffff7fffe
000100080003fffafffc000bfffa00000008
fff200070000fff6000900010006000b0005
0001fffb00080007fff8fff500040005fff7
fffa000500000006fff9fffafff9fff5fff6
00000005000afff6000000020000fff6fffa
0007000a0000fffc00010002fffafff9000e
0002000cfffcfffc00050001fff600020001
0002000ffffffffc0008fffa00000001ffec
0008fffafff60000fffa0000000cfffd0004
000500120005fffbfffb0005000900050000
0006fff7fffafffd00060001fffa0002fffa
0009ffff00040001fff70001ffeffff70000
0005fffd0005fffcffff0001fff6fff4fff8
fff900080000fff100120006000dfffc0003
fffefffcfff3fffc000900060003fff60003
00040004fff0fff900050006000dfffd0004
0002fffcfffdfff4fff600000006fff8ffff
fffffffb0000fff5fffffffbfffa0007fffc
0011ffff000400050000000cfffd00050011
000e0007000b00080009fff8fffd0001000e
fffbffff0005fff0fff8000dfff2fff5fffb
000d0002000f0000000f0002fffffffc0004
ffe8fff50003fff7ffeb0000fff9fffa000a
00100002000bfff4000efffe000700030002
00070009000500020017000e0005000effe8
00060006fff70007fff4fff8000a00050001
fffafff60008000500050006fff6fff5ffef
fff00000fffd00050009fff600070001fff8
0004ffef000dfffafff7fff80003000efff7
00020006fff80003000c0000fffd00000008
000c0008fffd000900030005ffecffffffff
000000070005000800090005000b0000ffef
0009ffe8000500050008ffff00040000fff1
000200020003fffbfffefffc00010000fff8
fffffffefff1fff4ffe9fff4000a00040002
0002000e0000fffa000100040003ffff0001
000d0007fff5fff500010006fff0fff90011
fffaffffffef0008ffff000b000000030000
fff5fffefff700000004000c00010004fffb
fffe00080009fffe0000ffff00030002fff7
0003fffffffc00060000000dfffe00060001
00150002fffa0000000afffefffa00000003
0000fffcfff1fffb00050000000afff4fffe
0012000200110006000efff1fffa00060014
00030006ffffffff0005fffffff60003fffd
fffd0002000b0000fff9000bfffc00000004
fff7fff7ffefffedfff70001fffffffcfffe
000efffe000d00010003fff400010003fff1
00040014001200040008000600030000fff9
00100002fff8fffdffeffffefff4fffefff5
00040004fffefffa0003000800080007ffff
000bfff7fff8000b0009fff100060008fff9
fffbfff5fffcfffc0000fffc000200060003
000afffb00060000fff80001000d00040003
00070008fffe00120007fffb000300020007
000afffcfff8fff4fffd0009fffefffffff0
0007fffb0006000ffff8000b000100060002
0005000800080008fffe0007000000090007
00030007fff8fffeffe2fff0fff700000004
fffdfffefff9fffe0005fff600060001000b
0004fff3ffff00050008fff600070003fffc
fffcffe7fffefffafff3fff10001fffbffe9
fff7fffffff9fff3fffafffc0000fffefffa
ffebfff300010004fffb0001fffb00110005
0009fffe0004000800090002fffbfffafffe
fffffff5fffd0006ffeefffb00010001fffb
00090003fff80001fff7ffff00010003fffd
00090000fffbfff6ffef00000004fff90001
00030004000800000001fffd0002fff6fff4
000bfffe00000009000200040009fffb000b
fffbfff0fffbfffbfffcffffffef00000000
fff7000100000006fffefffbfff90007fffa
fff6fffdffff000c0004fff70008000e0010
fff800050000ffef00000005fffafffdfffa
0008000a00020005fffa001cfffbfff4fffd
00060001ffe9ffed00000007fffcfffa0006
00050000fffb0001fffefffd000f000b0005
0003000e0000ffff0005fffc00060009fff6
000b0000000c000900020003fffd00070000
fffb0006000efff900040015000600050004
fff4fffbfff8fffd00040002001b000b0000
0019ffff000700000009ffff00030017000d
000dfffbfffffff800020006ffff00000000
00000008fff7fffd00080001fffffff8fffc
0005fffa00000002fffffff5000b000ffff4
fffe000000040000000100060003fff5fffe
0004fff80003fffa0000fff9fffa00130002
fff900000001fff8fff60009ffef00090019
000efff9000cfffbfffbfffefff2000efff5
fff30000fffbfffd0002fff60000ffedffff
ffff0008000600040006000f00020000fffb
0009fff8fff70002ffff0003000efffefff8
0001fffa0007fffe0002ffee0000fffcfff6
0000fffcfffefff4fffa0004fffcfff0fffc
fff9fffafffa00040001ffff0000000a0004
00000000fff7fff20000000300080007000e
fff9fffa0003fff9000500090001fffc0006
000f0002fffd0009fffb000bfff6fffbfff8
0000fff600040002fff100020003fffb0017
00100000fff000090007fff1fff900080001
ffff00050015ffff0012ffff0005fffa0002
0009fffafff8000a000000070008fff8fff8
fff900000005fff40002000d0007fffc000d
0000fff8fff5000efff90007ffff0003ffff
fffefff90008fffc000a000f000100000005
fff70000fffcffefffec0006fff5fffa0000
fffffffdfffb000100030007000000090008
ffff000000030000fffbfffc0000fff1fff6
00110000000b00060001000efff3fff6fffd
00160016fff5fffa000c000b00020003fffd
ffeafff30004fff8fff80002fff9fffffffc
fff9fffaffff0009fff90006fff5fffffff4
fff7fff700000005fffb0004fffbfffafffa
fffefff8fff5fff10004fffc00030001001a
fffffffb00030008fffbfff40006fffe000b
fff9fff40005fffdfff70001000400010008
000b00010006fff8fffcfffb0003fffa0003
ffff0002fffcfff0fffd00050001fffd0004
fffafff7000ffffe00000001fff800000005
fff000030001ffffffebfffefffbffeefffe
0003fffb0004000600020001fff6000a0000
0005fffdfff900090003fffb00050003fffd
fffbfff40004fff500010000fffc00000004
ffff000600070000fffafffd0000fff9fff8
00000001fffbfffefffa0005fffd00150003
fffeffe90000fff40002fffcfffdfff20000
fff90012000500010003000100050000fff4
0000fff3fffa00100002fff80010fff40009
000000030013ffef000000070006fffefff9
0000000bffff00010001000300020004fff6
0004fff90014fffa00090004fff9000bfff5
0000000100010000000e000400000003fff6
0001fffa0008fffafffafffa0005000cfff3
fff6fff80009ffeefff6fffd000bfff4fffd
0000fff70003000dffff000e0002fffefffa
fff80009001100040000fffb0001fffd0000
fffbfff80000000b000cfffcfffdffff0001
fffa0001000dfffe000d000000070007ffff
fffefffa00000002ffff0003000dfffbfffe
fff2fff80007000500010001fffbfffdfffd
000a0000fffffffc0011000efff600000003
0000000200000010fffc0002fff6fffbfff7
fffe0004000200010007fffa000c0011fff1
fffffffe000b000d0008fffdfffcfffd0000
fffdfff8000a000e00060005000afffcfffe
00020002fff2fff8fff9fffdfffdfffd0000
fffefff2000a0012ffef000cfffb0009fffe
0005fffb0009000a0000000afffd0000fff1
fff70005fffefff30000fffd0008ffecfff2
ffeafffafff300040002fff400000008fff4
0009fffafffc0002fffafff6fffefff7fff9
000500000009001100080000fffe0007ffff
000a0004fff4fff9000500050011fff10000
fff9fffdfffd0007fff8fff9000effed0000
0002ffeefff900000000fff20004fffcfff6
fffe000c00040007000b0000000afffbfff3
fffdfffbffff0000fff90006fffc0001fffc
fffdfffa00010008000a0009fff700090001
0006fffb000500070009000000060018fffd
0007fffaffff00030005fff5000cfffa0004
fffffff8fffc0007fffb0000fff2fff5fff7
fffd0004fffe0002fffdffebfffdfffd0001
ffff000afffffff6000dfffe00010005000a
fffb000ffffcfffefffbfffefffafff9fff2
ffff0007fffd0004000bffff000efffcffff
fff7fffb0006fffafff5fff9fffbfffafffb
00090002000a0005000e0010ffeffff6fffb
000e0006fff9000a0005fff40008fffffffd
00010008fffbfffb00080008ffeefffc0006
00070002fffdfff5fffbfff80000ffebfffe
0005000b0003fff7000afffc000800010002
fff6ffeffffb000700010007000600080002
fffb00020000fffc0008000c0003fff80002
0008000afff7fff8fffc000dfffb0008fffa
0004000000010001fff70007fffefffd000a
fff0000bfff6fffefff8000400040004fffa
000bfff6fff4000a00060003ffffffff0010
fff20003fffe000a0002000ffffb0003fffb
fff30001fff0fff300000003fffefffe0000
0000fff8000000030000fffa0006fff6ffff
ffff0002fff5000cfff90002000300050004
000500070000ffff0000fff3000400070001
ffffffea0000ffff0000fffc0003fff4fff4
fff900010004fff50002fff9fff6fffafffa
00080006fffbfffefffb0000ffff00000006
0003fffc0014fffefffc001300000000000a
fffb0007ffed0007ffff00090013fffcfffe
ffff0000000d0000fffd000200070000fffa
fff700060001fffdffff0004fffc00100000
00000003fffafffefffefffcffee00050005
0009ffff0000000bfffdfffefffafffa0003
0001fffbfffcfff700030003000200030005
fff5fff4fffb00070005fffefff600000004
0000fff8000c0007000e0001000afffefffe
fff90001ffff00070001fff90009fffffff7
0003fffffffb000bffedfff700050003fff7
00050008fff5fffa0000fffffffc000d000b
000dfffefffa000dfff4000000000005000a
fffcfff9fffe000efffefffbfffbffff0007
fff8fff4ffff0004ffef000300000006001c
00040002fffefffd0001000e000900010005
0002fff7fff9fff8fff10007fffefffffff9
001000010006fff4fff70004fff5ffff0005
fff8fff30007000dffea0002000600010002
0003000afff50016000cffef0007fff40004
fffe0002fff8fffcfff500040013fff5fff5
000400030004fffdffff0005000c0009fff5
00010006fffd0006000bfffefff4fffcfff5
fffeffff000400030003fff20004fff7fffd
00130007fffe0007fff700000002fff50009
00020003fffb000500080015fff3ffff0009
fffc00010001ffff00060000fffafffffffa
00020002fffc00040007fffefffcfffdfffc
fffbfff9fffb0000fff3fff9fffe000afff0
000b0000fff70001fff5000b000a000b0003
fffffffe0006000000000007fff2000d0010
0003fff9000300010006fffbfffc00010005
00020004fff8000afff2fff1fff2fffbfffc
000b000100000000fff8fff9000400000001
fffd0007fffafff800090000fff8fffa0006
ffffffffffff00000003fff400040002fffd
0000fff90015fffa000400000003fffcfffe
0008fffcfffcffff0001fffdfff2ffeafff7
fffc000700050002000ffff4000400060005
0007fff6fffffff5fffc0011fff50007000f
fff40002000afffc0006000cfff700090000
fffdfff40005fffbfffa0001000200050008
000a0000fff800060006ffed0002fff8fff4
fff5fff7fffafffdfff9fffb00030000fffc
fff6000000000001fff6fffffffdfffafff7
ffff000ffffbfff5fffefffbfffe00000005
ffff0006000afffe000300030003fff20000
0000fffe0002fffa0001000cfffe0003fffa
fffe00000000fffc0003ffef0002ffe8fff5
0007fff9fffc000300010007fffffff5fffb
00040000000500040006fffa00010000fff5
fff7fffe0007000a00080000000e0000fff8
fff9fff50001fffeffff0000fff20006000b
ffecfffefff1ffebfff50005fff5fff50002
0001000a00080007fffefffcfffd0000ffff
000afffefff300050004000300050001fff6
0008fffcfffefff5fffa00050000fffe0004
000efff5000300140006fffc000b000ffff8
00020004fff90007fff9fff9000200050007
0004fffd0004fff90001fffc000600000008
ffecfff1000dfffd00090002fff6fffefffb
fff700060002fffefffbfff60008000ffff2
fff9000400070002fff700040004fffb0003
fffefffafff3fffffff7fff200000008fffa
fffffffdfff90004000700020003fff6000a
00010000fffefff8fffeffff00000004000f
0000fff50002fffa0007ffee00070008fffe
fffd000f0004fff6000700020011ffe9fff6
fffe00010003fffd0002000dffeffffe0003
00030009fff0fffb0004000200010002000c
0001fffbfffb0009000400070005fffe0010
00010006000700040004fffefff40008fff9
00050005000200040008fff5fffe00020000
0010fff3fff7000500060004000bfff60004
00070001000c00010001fffe00170002fffd
0009ffff0000fff6000a00050008fffcfffc
ffeefff60002fffb0007000500090009ffff
00040008000b0009fffd0004fff7fff7fff1
000f0008fffffff9000000070000fffafff7
00000005fffb000d0008000bfff6fff30001
fff6fff7ffffffe400020008000000010000
ffed0005000f000d00070011fffb0004fffc
0002000600080000fffffffd000100040000
00010002fff8ffff0002fff7fff80009fffb
fff1fffafff40002fffa0003fff600020001
000000010002ffef0014fffd000c00160003
00040003fffd000a000300000006fffd000e
fff30001fffcfff6fff2fffb0000fffa0004
000200030007fffb0009fffbfff600020008
fffc0000fff6001100130000000c00070000
fff9fffafff5fff7fff4fff5fffdfffa0001
0002fff90001fffe00090001000ffff8fff6
fff3fffb00040004fff70001000b0007fff7
fff3fff8fff9fffa0002fff0fff50000fffd
0005fff7fff8fffe0000ffe9fff20001fffd
fffe000afffffffa00060002000a00030005
00020007000cfff9ffff0003fff3fff70009
0007fff80004fff80001fffb0003fffd0000
0001fffc000a0002fff9000300040002fffe
00020001ffff0000fffffffc00020003fffe
000d000500020009ffee0006fffbfffafff5
0004fff90000fffc0004fffb0001000d0008
0004fffbfff1fff9fffaffeffffaffff0002
0008000cfffb0001000ffff50004fffbfffd
000d001500000003fffb0010ffffffdefffc
fffd0000fff5fff90005000afff40001fffd
000a0002fff90007fff3fff7fffffff2fffa
000a000100060001fff6fff4fff1fff4fffc
0008000500030000fffdfff8000afff7ffe7
0002fffafffe0000fff9fff400030000fff6
fffaffef000d00060002fff80008fffa0005
fffdfff60004fffbfffb000bfff6fffd000c
0009fff60003fffc0000fff5fff1fffa0001
000d000700020001000dfffb0011fffe0009
000b000100000004fff300050000fffafff6
0000fffd000b0007ffff0005000100000005
0004000400040004fff40000000e000c0001
0000fffc00010003ffef000000060005ffff
0003ffff0000fffe0004fffdfff9fffa0008
00020002000000010002fffd000bfff4fff4
fff900020000fffdfffbfff600050003fff5
fffafff6000500050000ffeefff5fffb0000
000afffafff90004fff7fffbfff7ffff0004
fff8000cfffe0002fffe000bfff300090003
fff2fff2fff8fffffff3fffc0008fffcfff2
00020000000200040007fffefff90002fff7
00020000fff5fffe000c0004fffb000a0002
fff8ffe40003fff7ffeefffb0004fffd0004
0005fff1fff900100000000d0004fffc0004
fffffff90004fff30004fffefff7fffdfff7
00010008000000090006fff4000bfffc0005
fff8fff80008fff40000fff9fffe00090006
0008fffcfffe000800000011000100030004
fffbfffb00030006fff600030001fff6fff3
fffa000afffd0006000afff4fff8fff60000
fff60006000a0010fffefffe0000fffb000d
fff10006fff4fff6fff0000600000002fffb
00030000fff5fffd0000ffef00000003fff4
fff2fffd00030000000400030000fff80000
00040005fff9000d0003000effff000affff
fffd0000fff8000a00050002fff700140003
0000fff70006ffeafffffff900000004000b
0006000600030001000c00000004ffeafff1
00070000ffff00010001fffbfff8fffefff9
000afff9fff3000800000001001000000006
ffff00020010fff70007fffb00040006fffa
000dfff500030010ffff0011000000010007
ffff0004001200050006000900020002fffe
0006fffdfff20000fff5fffbfff6fffbfffd
fff4ffeefffcffedfffb0006000300030009
fffc00180003fffefff700000006fffefff7
fff90000fff90002fff4fff00004fff90004
fffb0007fffd0008fffafff7fff30000000b
000000050006000700060005fff70000fff4
0003ffeb0004fffbfff90000fffdffedfff4
0008fff1fff8001300060004ffff00000010
ffed00080001fffa00020007fff9fffb0007
00020000fff3000f0006fff50006fff9fffa
0000fff6fffbfffcfffe000400050000fffe
fff8fff3fff10001fffffffe0007fffcfff8
0004000e000b00130009000d000000020008
0008fff4fff70002fff8fffe000400000010
fffa0000000700000009fff4fffafffdfff4
00010006fff9fff70008fff800050008fffa
ffff0005000dfffafff20002fff90005fff3
fff3fff90008fffa0000ffeefff70000fffb
00000002fff800000003fffefffa00010002
fffc00020008fff9ffe2fffffff9ffeffffc
fff2000c000000020005ffee000000080008
0002fff400070000000b0015000000020004
000f00070000000bffed0000001bfffffff9
fff30000000c0007000000040007000b0000
00050006fff8000b0003fff3000efffd0005
fffefffffffb00010001000b000b0007fff7
fff90000fff300020000fff9fff6fffcfff6
000900000003fff9fffc0000fffffff30002
0001fffc0000fff0fff1fff0fffffff8fffa
fff5fffffff50006fffafffe0004fffc0005
0005fffe00060000fffdfffcfff10000fff9
fffd0009fffefffb000f0009fffd0006000e
00030001fff9fffa000a0002fffe0006fff5
fffffff70005fffbfff60000000000060001
ffedfff400030007fff6000afffd00010000
0000fffffffffffcfffaffff0000fffd0000
0005000dffe6fff600060004fffcffeeffee
fff7fffefffdffff000700120006fff70000
0000fffb0001000000080008000b000a0000
fff60001000400000000fff40000fffc0003
0006fffa0013000200050000000800020000
fffc0007fff80003fffc000100000005ffff
fffa0000fffafff0000a000000000003fffd
fffdfff600070005fff9fffefffd00060003
fff9fffcfffefffb000c000500000007fff5
fffcfffefffdfff9fffcfff0fffafffc0002
fffe0003fffbfffafffcfff2fffa00000009
fffd000a000f0002000e0007fff1fff70006
fffc000000080010fffbfff3000800080006
fffe0006ffef0000fff8000500040002fff3
000bfff30002000800000002000200020009
fffffff9000600040001fff00005fffe0001
0003000efffefffbfffdfffafff8fff9fff8
000afffbfffb00140001fffb0001fffffff0
fffefffffff9fff2fff90002ffec0001fffe
0002fffdfffafffffffe00020004fff5fffa
000100020014fffb0006ffff00050004fff9
fffffffffffd0008fffffffb000bfff20000
000afff3fff80000fffffffd0005000dfff7
ffeafffa0000fffefff5fff5fffafff7fffa
fffd0008fff9fffffff5fff6fffb0004000d
fff900000002fff4000100000003fffafff7
00060006fffdfffffffffffc0002ffed0011
fffcfffdfff800050000fffe0000000c0005
fff40002ffff00030005000500030002fff8
fff5000b0008fff5000200080005fff70001
fffd000b0006fffa000900010006fffbfff0
000cfffffff9fff40007fff5fff40000fffd
fffbfff7fff9fffb000700050008000c0001
fffc000b000cfffb0009fffafffd0004fff7
fff4fffcfffd0000fffd000000040002fffd
000a000f000100020002000200010000fffc
000ffff90000fff3000b0006ffef000a0012
fffa000bfffc0004fff300030000fffb0001
00040007fff5fff7000b00010004ffff0005
00070000000d00080001fffdfff50007ffff
0012000600000007000bfff600010000fff8
0009fff800010002000000030000000efffb
0002fffa0003ffea00030002fff7fffdffe6
fff000020007fffaffff0008fffc0000fff9
0004000300040003fff80003fff7000dfffa
0004fff000020009ffe70009fff5fff60008
fffffff70008fffa000000010005fffcfff8
0009fff60000ffff0001fff8000700030004
fffe0003000dfffa0016fff90004fffcfff6
ffffffff00030008fffe0019fffdfff70000
000ffffc0005fff600000002000c00050001
fffd0000fffefffbfffafffbfff400030006
000f000a0000fffd000a0006fff90009fffa
0006fff9fff90006fffa000300010004fffb
000b000800040000000afff600020001ffff
000300040007fffafffafffefffd00050000
000dfffd0004fffffffc0002fffc000efff4
ffff00020000ffeafffd000dffee00030001
000000030003fffdfffe0007fffb0008fffa
fff300010006fff900020000000d0000fffc
fff50009fff900070002fffbfffe0000fffb
001100030000fff0fffd00000003fffd0008
ffef000d0004000000000007fff70000000b
fffefff5fff900060005fff3fffa00080001
fffffff20009fff20002000b000b00040002
fff10006fffcfff80006fffd000100030000
00020002fffafff8fff4fffc0006fffffff9
fffefffc0000fff2fffc0007fff7fff90002
000400040000fff90007fffc00000000ffef
0004fffe000000060002fff4fff9fffafff6
fffc000efff3fff400050007fffbfffa0004
000000000002000d000c0011fffb0005000c
fffeffff00020010ffff0009fffa0007fffb
fff8ffff0004000000010003000500010001
fffb00060007fffe000300070001fff60002
00030006fffefffbfffd0010fffbfffe0000
00030000000000000016fff700030011fffd
0003fff40003ffff0004000cfffffffe0003
0005fff60000000900040006fff9fffb0016
000effedfff8000afff6000a0003fff80009
fffefffbfffc0002fffefff4ffff00090007
000a0000fffbfffe0001fff90013fffefff5
fff70000000dfffffffd0004ffff00000012
fff5000400050000fffb0000fffa0007000d
fff900050013ffedffff00090004ffecfff9
000a0000fff5fffb000e0000fffc0003fff8
ffff000500060005fffbfffa000dfffb0000
fff7ffff0001fffefff0fffe000800080003
0015fffc00000005fff90000fffa0004fff5
fff6fff8fffd00030004000e0005fff7fff1
ffff000c0000fffb000600040000fff70007
00040000fffa0000fff10006fffa0000fff8
fff4fff6fff9fffc000600120006000c000b
0000fffffffefff5000a00000005fff9fffb
0012fff40009fffa00030003fff8fff3fffb
fffeffff000900010000fff6fffdfffa0000
0001fffffff2000afff0fff900050000fffd
000afff7000000050008ffee000ffffbfffd
00000000fff3fffffffb0000fffb00090008
fff2fffcfffefff6fff20006000000080000
fffd00070008000100040005ffff0001fffc
0002fffe00010000000100090008fff0fffe
0002fff4fff1fffe0000000000110006fffe
000b0003fff700100004fffe000200000005
0001fffafffbfff7fffa000b000dfffc0006
000b00090002fffffffa000cfff500000010
fffffffb00030005fff4fff700050003fff3
fffcfff800040008fffd00000004fff30004
ffff0012fff90003fff5fff70005fff9fffb
ffe8fffbfff10012fff3ffec00000007fff5
fff9fffc0003fff6fffffffa0005fff80019
fff3ffed00040009fff60004000affff0007
fff20001fff8fffffffb000c000000020001
000afffffff2fffd0001fff500060005fffa
ffff00080005fffaffff000e0000fffafff5
0002fffdfff50001fff50009000600020000
00070003fffffffdfff2fffa0005ffeefff4
00030007fff5fffc00070002fffe0014fffd
00040000fff9fffcfff7fffe000bfffe0009
fffc00050000000000020002fffdfffc0000
fffafffffffefff9ffff00090005fff50000
fff9fff80005000dfff90000fff100040000
000000030009fff9fffcfff9fff60002ffff
0003fff9000cffff00050005fff6fff80009
000a00060007fffa00020004fff500050005
fff7fffffffefffffffd000000010005fffa
000200060001fff9000afff4fff900010007
fff4fffe000e0001fff8000dfffb0011fffb
fffafff4fff9ffff0008000dfffdfffcfffe
fffcfffe00090002fff60008ffeefff70003
ffff0001fffb000f0006000f00090002000f
0005fff60017fff7fffa0000000400090011
fff9fff8fffe0001000c0000001400020000
000a0000ffff0007fffe00050003ffff0003
fffe0001000400050001fffbfff0fff9fffd
fff900060009fff900010004fffbfff3fffa
fff80004fffbfffefffdfff70006000cfffb
0012000ffffb000b00060005ffff0003fff9
fff1ffef0007fff2ffe400160000fffd000c
000200060005fff9000500020007fff50000
000a0004fff00006fffdfffb0006fff7fff0
0000fffffffa0000fff7fff8fffbfff30007
000f0005000e000b000bfffd000200010008
000f00040002fffcfffafff8fffbfff70001
0005fff8fffe0007fff300000008fffcfff9
000200000000fff50015fffc001300020004
0008000500080001fffffffefffb0004fffd
0007fffdfff8fff900090007fff600070009
fffd00050003fffd000a0000000000040009
fff2fff1fff7fffaffed0001fff7fff7fffb
0005fff9fffcfff6fff50001fffb0001000a
0004000c0006fff4fffb0000fff1fffd0000
fffb0005ffff00010000fffbffffffeffffb
fff5fffc000300070000fff60004000ffffa
00050008000bffef0001fffe0000fff0fffe
00020005fffb000bfff9fff9fffe00020003
00010008fff2fff70005fff8000800000000
fff8fff5000b0001fffefffefffbfff1000c
fff5fff60004fff8000700040000fff5fffe
ffecfffc000c0009fffefffdfffd0002fffb
00090002fffe0007ffff0003fff2fffafff5
fff9ffff0002000100080006fff7fffb0002
00080000fff7fff4fff9fffdfff60003fffc
fff7fffa00010006fffc00050009fffb0007
0000fff3fffefffc000e0007000000050000
000900080001000900050006fff1fff9000f
00010006fffe0004000c00000004fffefff8
fff4fffdffffffff0002fffefffbfff7fff8
fffdfffffffd0003000a0003000bfffb000a
fffa000efff5fffbffff0007fffe00010012
fffd00080001000600070000fffbfffc0001
0005fffcfff20002000300030001fffefffb
000a000dfff9001a000a0000000cfffffffd
000400020012fffd0004fff300000000fff4
000700110004fff8ffff0012000efffd0003
fff60008000500090004fffcffff0004000b
ffff0006000100030000000200060006fff2
ffff0000fffb00030008fff6ffff00000002
00080000000700030003000400080003fff7
fffb000f000700060000fff2fff80003fffb
0001000e00070006000b000500060003ffff
fff8000500010008fff20007ffff0005000b
0002000c000e000100000007000d00000008
00070004fffcfffffffdfff600080000fffe
0005ffedfffa0000fff00003fff80001fffb
00000001fff700000007fffe000400030000
fffffff8000afff80005000f00000009fff9
0015fff8fff7fff90005fff7fffbfffbfffe
0002000d000700000002fffd00090009fffd
fff70000fffd00090003fff3fff4fffefffc
fffa0001000a000d000ffffefffc000a0002
0006fff9fffd0003ffedfff600090000fff2
000afff6fff9fffffffd0003000300020000
00150002fffc0003000200000008000a0002
000000030000fff300010001000700000000
fff600050009fffcfffc0000ffff0005000c
0000000dfff6fff9fffe000100050006ffff
00010013fffefffe00020000fff700020007
00100006fff6ffff0007fffefff4fffe0000
fffa000600000007fffcfffa0006fff7ffe8
00060005fff800000008000a00020005000b
00150004fffefffdfffffffefffdfffa0003
000bfff90004000d000000000002fff50001
0018fff40007fffd0013ffff000600010005
000d0009fff00007fffb0006fffbfff20005
fffe00020009fff60003000cfff500070008
fffd00020006fff9fffc000700020002fffc
0005fffdffff0013000c00070004000c0000
0004fffb00000000fff60009fffcfff6ffff
00010000fff8fffffffe00010002fffdfffb
fff30007fffd0002000affee000a000afff8
fffdfffe0005fffbfffcfffd0009fffffffc
0003fff1fff8fff4fffbfffd0005fffe0002
fff4fffb0004000bfffbfffe0006ffffffff
0003fffe000000010005fffffff900080008
fffd0005fffbffeefffefffb0010fffd0004
0002fff9000a00030009fffd000200000006
fff1fffd000b000100010005fffe000a0000
0000fff0fffefff9fff400030004fffb0016
0001fffdfff600000011fffdfffe00060001
fffafff40003fffffffefff9fffe0001ffff
fffc000efff80000fffffffa0007fff2fff5
0003000cfffffff8fff2fffffffefff70001
00030000000efffbfff000000001fff2fff4
0000fff200070002fffb000e00060005fff0
00010000fff700030007000f0001fffb0005
fff60004000100040005fffffffbfff30008
000cffeefff700030006fffd000cfffafffd
000600030008000afffdfff90005fff0000b
0000fff5fff7fffcfffffffe0004fff7ffff
0000fffc000d0001ffff0007fff8000ffff8
fffa000b0003fff9fff7000d0000fff40001
0006000a0002fffc00030012000500020003
0009000b0008fffb0000ffef0000ffff0005
00050000fff900070006000700010007ffff
000600020007000dfff0fff3000300020007
000efffb000affeefff40009fff5fffd0000
fffc00000000fffe0005ffff000000020000
00000000fffd00090003fffffffd00080005
fffa00080001fff50004fffefffb0001000b
0007fffe0011ffff000afff2000afffc0005
0004fffe0000fff3fffcfff80009ffedfffa
ffeafff8ffeefff50004fffa0006000bfffe
fff8fff8ffee000500010000001300070000
fff7fffe00110006fffc0006fffb00000005
fffffff5000efff6000100090006000efff6
fff40008fffe000e000200060000ffeffffb
0008fffa00100008000e000500090013fff4
fffe00060007000f0008000a000a0011000c
fff900040004000cfff2000500010002000e
00000008fffe00060000fff300070001000a
00000000000e00060009fffc000bffee0009
fffffff1fff90001fffafffa000400000003
000700000000fffdfffafffd0008000a000b
00030012fffe000c0003000afffefff9fffc
fff70007000afff50006fffbfffc00000002
fffa00030008fff70002000dfffd0005ffff
000cfff9fff90005fff6000bfff50010fffe
ffff000c0011fff7fff8fff5000b0000fff7
0001fff60004000afffcfffafff7fffffffd
00080008000700000002000b0003000e000a
0003000effebfff8ffeffffb000a000c0013
0000fffd0001ffff000afffafff9fff3fff7
fffffffbfffeffedfffffff2fffe0000fff7
fff9fff40003000f000c000a000400070000
fffd000efffffff8fff6ffff000000040006
001300100004000200030008fff70000000e
000600000010fffb0000000dfff2fffb0008
0009fffc000b000200090007fff40004000a
000c000c0012fff4fffa0002fffb00110008
0013ffff000c000efffe000dfffffffb0002
fffbfffafffcfffb00040001000cfff7ffef
0003fffa0004000400040006fffb0000fff5
0000fffafff0000300010000fffffffafff2
00030000000c000300050000fffb00040004
00000002fff7fffdfffcfffb00000003fff6
000700000007fffd00090002000b0007ffff
000afffcfffafff7fff8fffc0005ffe90007
fff5fff90006fff80004000cfffcfffe000c
00070011fff30003fffcfff9000700060006
fffcfffd000100020006fff4fff400050012
00090013000200020012fffe000c000b000c
fff8000000040002000100030003fffbfffe
fff7000400030003fffeffeb000f0001fffe
fffa0006fffc00000010fff7fffdfffc0000
0001000400110007fff5fffafff2fff30008
fffffffa0007fffd00000002fff90000fff7
fffb00010004fff500000004fff40006fffe
0004000a0009000300090006000900020007
0007000000080000fffbfffb00030006fffd
00030007fff7000b00020000fffe00020003
0001fffefffc0007ffeefff90008fffb0000
fffd000000050000000b0003fffb00020004
fff30004000afffd0009fff300100007000c
00100007ffff000900060008fffe00020005
fffafff7fff8fff8fffffffffffe0002fff8
ffe9ffecfffa000c0006fffbfff5fffdfff7
fffbfff8fffefff4fffbfff0000400010000
0007fff3000b00000003000900000004000b
000afffd0005fff900100006fff900030000
00060006fff6000a0000fff2000900000005
0006fffa0004fffd0008fffdfff80008ffff
fff200020007fffaffff000bfff500000000
fff700020000fff6fffc0005fffd00080009
fffffff7000a0003fff6fff3fffafff40000
0003fffc000900010000fffd000afffcfff4
000a000700050003fff90000fff200070005
ffecfff3000dffeefff6fff1000bfff9fffc
fff5fff9fff6fffbfff2001200030004000d
000e000f0002000d00040000fff6000c0000
00050003fff0fff90000ffedffe5fffafffa
0004fffb000cfffc00050008fffc00010007
fffe00020007000cfffd00000001fffd0000
fffcfff8fffe0005ffee000a0005fff8fffe
000bfffc0000fffd00080008fffc00060006
fffafffe0000fff8fff2ffffffff00050000
fffefff7fffbfffc0000fffa0008fff10002
000400030000fffefff70011fffefff6ffef
ffed00090009ffe700040001fffefff7fff8
0003fffafffd000b000afffbfffb00050000
ffedfff70006fffafffc00000002fffefffb
00060010fffcfffe00090001ffff00040006
ffff00080006fff4fff9fff2fff2fffd0005
0000fffefff3fffa000200050009fffe0003
0000fff300070005fffb000efffd000b0015
0004fff8001d0008000a00070000fffffffc
fff7000d000cfffcfffd0017fffefff5fffe
0000fff1fffefffefffd0000fff7fffe0000
000400050003fffe0007fffd000afffcffff
fff6ffff0006fffc000400070003000c0004
0001fffdffed0001fff1fffdfffbfffcfffe
fff7fff6fff60000fffe00050000ffff0001
fffbfffc00090005fff4fffe0005fffe0000
fffa000900040002000c000100090005fffe
0000000600070005fffefffefffa0005ffff
fffe000afffcfffa00070006fff9fff80012
00000002000000000003fffffffe0006fffd
0008fffa000b0000fff70004fffeffef000b
fff30000ffe8fff60000fffcfff900070003
fffd0003fffcfffd00000013fffc0006000d
fffb00040002fffcfff4fff70006fffcffff
000bfffeffff000bfffaffef0002ffffffee
0002fffc0001fffefff60002fffffff0fffa
0003fffb000500020002fff8fffefff8fffc
fffe000000070008000f0003000c00150007
fff100030000ffecfffffffa000000030004
00090008000efffc0000fffafffdfff50006
fff80000fffe0000fffffff5fff90000fff3
0005fffb000800030004fff70004fff60000
0001fffe000affeb0000ffff000100080000
fffbfff5fff60006fff9fff70003000d0001
ffe800070008000a000bfff4000100090007
fffe000afff8fff7000afffdfffefff9fffa
000ffffafff90009fffffffdfff6fffdfff0
000b0006fffdfff50009000bfffb00020002
fff5fffb000cfff70006000afff400080004
000c000f0001000400020004fffffff0000b
000a000b000f0017fffd000300000006fff5
fffa000bfffcfffb0005fffcfff8fff60005
ffff0003ffeb0002fffefffb000cfffefffb
00040000fff9fff1ffffffff0006fffc0008
0000fffcfff9fffeffff00000001fff7fff9
fffafff5fffc0012fffc00050008ffff0000
ffe5fffffffb0000fffbfff0fffefffafff6
000b000100030005fffe0008ffff0004fff9
000b0015000a00090003fff80002ffff000e
fffcfff8000b000700000000000500030002
000afffffffbfffdfffcfff900090001fff7
0009fff7000afff3000efffdffeb000a0001
0003fff7fffffff40006fff5000400090002
