10fffa2fffd4fffd4ffff
fffdfffc0714fffe60
fffb4fffd2fffbfffd330
430fffc1ffff0fffd2
1fffb3054fffe40
1500fffa210ffff
fffe600fffd2fffdfffffffb
10ffff532fffcfffefffc
0fffdffff801215
43fffefffffffbfffe944
fffe6001ffff00fffe
1fffcffffffff01423
02fff8ffff2fffdffff15
03fffffffbfffafffdfffafffb1
2fffc2fffefffefffefffe10
fffe1fff94fffdfffc0ffff0
fffe0fff9040fff7fffdffff
120ffff000fffbfff9
fffffffbfffd83ffff455
6333fffdfffd6fffe4
fff9fffe5531fffffffd0
ffff01fffb70fffa0fffe
1fffcfffe150241
00fffefffcfffd5fffd10
0fffcfffe224fffffffffffb
2fffefff70ffff1435
1fffefffb20ffff17ffff
fffffffa000fffd41ffff
ffff2600fffe023
60ffff121fffffffc0
011fff940213
3fffd02fffd0113
3ffff3fffbffffffffffff02
2fffd5710fffdfffdffff
fffd00021041
fffd001fffffffe20ffff
2fffd23471fff6fffc
2ffff42fffafffb0fffd0
23fffdfffd2fffdfffdfffefffe
2fffcfffe5fffd1fffe20
0421fffdfffd00fffd
02fffe20fff91fffd4
ffff321fffc3207
ffff10fff81ffff223
5fffffffe123ffff01
13200fffb00fffb
641102fffffffc0
2fffd0722323
0ffff0250000
00ffff6010fffefffc
03111fffc301
fffe31fffefffd04fffafffe
2fffcfffc301fffcffff6
6fff703214fffb0
fffeffff674401fffc
0520fffa0fffeffffffff
fffa0fffc617fffbfffcfffd
fffefffb024fffa000
fffd1fffa138fffb00
501fffcfffffffbfffc74
0030ffff0fffffffe1
0fffffffe1fffe0142
fffe1fffefffe4fffb053
4563fffffffffffefffe2
fffefffdffff103fffe0fff9
012ffff0314fffe
fffe40fffffffd02fffb4
fffefffdfffe34fffc044
213fffcfffe15fffbfffa
fffe0ffffffff20fff8fffd0
0fffe150fff754ffff
3600ffff10fffefffe
ffff2fffd0fffffffc01fffe
3fffcfffffffc0fffd3fffe2
ffff0fffe0fffc1260
20fffefffdfffbffff347
ffff2ffff3fffe2001
4fffefffd2fffcffff0fffefffe
510fffb54fffbfffc0
0001040fffe0
304040fffa01
73fffe53fffefffb03
062fffbffff0fffefffffff8
210fffd0500ffff
fffd0fffd705fffe00
fff8fffafffc200200
126002fffffffafffc
fffcfffd0fffcfffd1020
211ffff4fffd11fffe
fffe30510fffe00
5fffe6fffefffb100fffd
fffb0004ffff1fffffffd
fffe41fffe0104ffff
1fffaffff5fffffffdfff831
0fffffffc41fffe121
fffd1fffcfffffffd0fffb1ffff
32fffe10122fffd
ffff08fffbfff80fffdfffeffff
fffb0fffdfffb01000
002ffff7520fffa
3360fffcfffefffcfffe0
0fffc19fffe3fffffff6fffa
fffffffe00fffffffefffd03
4130fffdfffffffd01
ffff02ffff001fffcffff
32500fffe312
024fffbfffd3200
061fffffffb3fffafff9fffe
fffcfffffff9afffe2fffe41
ffff005ffff1610
001ffff260fffd3
0fffe4fffffffb6fffffffe4
fffdfffd0ffff0fffcfffc2ffff
0209000ffff4
45fffd340fffefffcfffe
0fffe1fffc2fffb187
10ffff4000fffcfffa
fffe25fff8fffd02ffff5
4fffdfffffffdfffbffff0fffeffff
fffefffd0220031
ffff02fffbfffbfffc000
00000a50fffd
4fffffffb01fffe511
68161fffdffff52
1fffeffffffff2fffeffff5ffff
13ffff05ffff4fffafffa
5fffd5fffe060fffefffe
212fffe1211fffc
fffd0ffffffff03fffffffd5
5ffff2ffff1fffb124
fffffffa5807fffafffefffc
23fffb8fffd13fffdfffe
0ffff10540fffa2
fffe0fff7ffff9fffbfffdfffe0
ffff4212fffa010
0021fffeffff17fffb
fffffffdffff0fffc1ffffffff0
0fffcfffdffff572fffd1
fffe12fffbfffd260ffff
fffd20ffff10002
2fffdfffb05670fff9
6205fffd13ffff3
fffe2fffc30ffff203
ffff2fffffffffffbffff1fffe4
fffb46fffefffd20fffcfffc
fffe02fffb0fffefffe02
086200fffe0fffe
4fffdfffd1fffefffe453
1fffe4fffefffdfffe0fffdffff
fffe3fff9303fffb0fffa
50fffd46fffe3fffcffff
2203ffffffff110
14fffd0ffff24fffc1
0fffc0fffe2fffd115
05fffd44640ffff
fffffffe2fffbfff92fffffff60
20ffff04fffffffb3ffff
fffe401fffc4fffafffffffb
001034fffbfffc2
55fffffff8fffb2670
0100fffe20fffc0
1fffa5051ffff61
0fffe32fffe3fffefffffff8
fffe2fffe0020fff9fffd
6ffff0fffcfffcffff386
7161ffff0fff9fffd2
3fffd0fff600333
fffe0fffc8253fffdfffb
fffcfffafffa1fffffffb35fffc
265200100
20fffe30000fff9
401fffe3fffc3fffc1
fffdffff1fffd3fffefffa00
ffff025b1ffff0fffe
3410fffd0000
1fffcffff040ffff02
4fffe20fffe0fffe4ffff
4fff9fffffffd40026
0fffcffff25fffd0ffff4
212442312
1051fffbfffffffd05
fffc0110fffd033
10ffff140fff924
ffff30fffffffc2002
fffffffe0303102
010156fffcfffffffd
20ffff42fffdfffc30
fffdfffffffe1fffb6240
005fffc4ffff41fffe
fffbfffcfffe441010
3fffc0fffd01625
fffdffff4042fff82ffff
0031ffff2fffefffb1
fffe006545fff9fffb
254ffffffff044fffd
afffa44fffffffe0fffeffff
6a7ffff1fff9fffffffc0
fffcfffdfffd41fffbfffafffafffe
4ffff414ffff325
00fffb023102
410006fffe2fffd
3101ffff54fffafffe
0fffe41fffdfffbfffe1fff8
fffefffbfffe43fffb014
110500fff9fffe1
fffcfff9fffc11ffff657
fffeffff00ffff5fffdfffefffe
fffd7fff95fff7202fff8
fffdffff0fffeffff0fffb00
02401fffe131
01ffff200030
1ffff2001fffc3fffd
02fffd3fffafffd031
406fffa7fffe3fff94
4fff70fff9267fffa1
ffff0610fffcfffd0ffff
0fff8345afffc1fffd
ffff046301fffd0
fffb6fffd1fffe12fffbfffe
3ffff0fffffffa0831
fffcfffd4fffefffd1263
ffff61fffdfffbfffc011
fffe6fffbfffefffdfffefffb23
24213fffe0fffdfffd
fffffffefff7413fffe10
115401032
000000fffe12
fffdfffafff824fffcffff51
042fffffffc0fffdfffcfffb
fffffffffffe0fffd1fffd11
fffc31fffe0fffd022
fffe14fffb211fffc3
1fffe3ffffffff5ffff0fffe
fffc123fffe1000
1401fffb0fffa40
100fffe0ffff230
001fffffff7fffffffb0fffc
220060fffffffbfffa
fffbfffa0257ffff0fffc
fffdfffcfffc66fffefffcfffafffd
2fffd027ffff501
fffd15ffff0fffcfffcfff90
6fffd5fffffffd4fffffffe0
05fffffffbfffe3fffd00
2fffffffa11ffff4fffdffff
fffbfffeffff4fffe4102
125fffffffd6fffafffe2
11fffe4fffe2ffff11
05fffe5fffeffff2ffff1
fffefffdfffc0fffd1502
100601fffd00
03fffafffdffff0056
03ffff260fffffffafff7
fffffffe2fffffffbfffdfffffffcfffe
fffcfffefffdfffeffff3ffffffff2
0fffe200ffff04fffa
fffb4600fffffffc13
13042ffff002
fffe0fffbfffe4fffe6fffb3
fffe0fff804fffe1fffd0
43612ffff34fffe
011fffffffe0fffc0ffff
fffd5fffffffdffff0fffe31
fffd00fff831fffaffff4
430fffcfffcfffc61ffff
2400200fffefffe
fffd0fffafffe1fffafffc4ffff
7fffe19ffff3057
0fffefffd0fffbfffd0ffff3
0fffcfffffff914fffe0ffff
101ffff40ffff12
0100000fffffffb
001027500
2fffdfff9230fffd37
fffd23fffc41ffff10
ffff4fffcfffefffc22fffc0
fffffffffffd3404fffb1
03fffc1522ffff2
fffb29fffefffd7fff9fffbfffb
060fffd6fffffffafffe3
ffff10fffd3fffffffe50
fffd00ffff2fffcfffd0fffd
22ffff2fffdfffefffa8fffd
40029301fffe
35fffe341fffdfffd0
fff9fffe8fffefffffffb525
fffdfffa0fffefffd1fffdffff0
fffe65fffd5fffcfffe4fffc
4fffdfffc0ffff01fffffffd
0fffd44fffd031fffd
0300303fffd7
2140fffffffffffdfffbfffe
fffcffff0fffe172fffcfffe
62ffff141fffffffcfff8
0fffafffb553003
0fffa3fffb00fff70fffe
fffe10fffdfffdffff1fffe2
fffb0fffe1fffa2fffa2ffff
fff9fffc00ffffffff103
ffffffff1603802
025001fffdfffb1
04fffefffdfffefffdfffffffdfffe
fffefffdfffdfffffffefff9410
ffff102fffc3fffa0fffd
0fff8ffff3ffffffffffff44
fffffffcfffefffcffff0fffe1fffe
ffff1032fffdfffa0fffe
132fffdffff4fffd2fffd
ffff23fffffffd0fffcfffd2
220fffb160fffa0
14ffffffff2fffefffe50
03fff903fffe3fffa0
043656ffff21
ffff0fffcfffffffc0fffc20
50fffffffb1fffefffffffd7
20fffcfffc004fffefffe
fffb9510fffdfffe0fffc
07900fffffffdffff0
0fff95412fffafffdffff
fffaffff4fffffffefffb001
0fffb00fffffffdfffe53
2012131fffe0
0fffb5fffb30360
14fffffffd2fffe124
fffc0140fffcfff7ffff4
0ffff0fff90fffcfffc03
475052fffd1ffff
02fffdfffbfffba0fffc3
0fffcfffffffdfffd0fffcfffffffd
fffd6fffd044fffefffdfffe
0124fffefffefffc60
110fffe40448
fffe0002fffe162
fffd5fffcfffc0fffffffe00
1050032fff81
001fffe00001
ffffffff20fffc0117
2ffff0fffd04fffc02
02fffffffd7fffdfffe00
fffc240001ffff0
23700ffff2fffffffd
ffff0fffe01ffff020
3fffefffeffff0fff7fff7fffdfffd
040fffd32721
3624fffe12fffc1
2fffc4300ffff10
fffbfff9fffa14fffcfff5ffff3
0ffff3fffd0fffffffdfffeffff
61fffd23fffe4fffeffff
0fffefffc415610
300005004
035036ffff24
ffff00fffcfffe0fffffffcfffe
61fff9fffe23fffc0fffc
4fffffffffffffffafffe2fff90
0670410fffffffb
06fffefffdfffd1fffefffeffff
2fffbfffefffe0663ffff
223fffc03fffe10
fffffffbfffa054fffbfff9ffff
652fffb46fffd30
0fffefffd2fffffffc7fffdffff
1320fffd060fffe
fffd000fffdfffc152
2ffff23fffe0fff930
1fffc3fffb04fff941
14447fffd20fffb
4fffe011fffc50fffb
fffe2fffe0fffefffcfffe5fffd
fffe0fffefffefffc04fffe7
01fffffffffffefffdfffdfffd1
81fffefffffffdffff210
ffff21fffd2032fffd
fffffffd0101fffdfffbffff
fffefffe03fffdfffffffc62
fffefffb17ffff5043
3fffefffe032229
06216fffd11ffff
ffff537fffb001fffd
11fffc3ffff040fffc
fffdfffcffff10fffc50fffe
ffff1fffffffc0fffcfffa2fffe
70ffff011fffcffff0
061442ffffffffffff
fffe021fffd0020
fffe0fffbfffffffd07fffc2
fffd241fffeffff0fffb0
fffb40030fffc0fffe
fff92550fffffffd4fffe
fffd10fffdfffafffe010
fffe00fffffffe1b4ffff
75122fffa5ffff0
fffcfffffffb300023
ffff2713ffff030
fffc056fffffffd4fffefffd
302ffff2fffd031
05311fffe01fffe
0ffff00fffe3fffb0fffe
ffff20140fffffffefffd
fffeffff5015fffcffffffff
fffffff92fffe5fffbfffd33
0c6ffff23ffff0fffe
060fffa0fffdfff8fff73
174ffff220fffefffc
0215fffffffd060
132fffc85ffff28
fffffffc40fffc3300
fffffffd5fffcfffab212
23ffff321fffdfffdfffc
fffbfffe0432325
fff9ffff5fffffffd6400
0fffffffb30fffe244
fffc0001fffd5fffd2
21fffe323050
ffff6fffafffbfffd0315
141fffefffeffff131
fffdfff6300fffd132
3000fffaffff05ffff
6fff6fffcfffb60fffefffe0
0000fffeffff052
ffff02215ffffffff0
fffe01fffc4fffefffe1fffe
603fffffffd010fffe
b0ffff0fffefffd0fffc0
fffe0fffbfffeffff0206
1fffefffd0fffa3300
3030fffe4fffd5ffff
6fffdfffefff803fffffffffffe
fffe02ffff01fffb02
ffff7fffdfffd0fffc400
3fffe3fffc34001
1ffff2fffd0ffff0ffff0
552fffdfff90fffffffdffff
fffb4503354fffc
01410fffcfffe5fffa
20ffff20ffff02ffff
fffc4402fffdffff0fffe
40fffa0301ffff3
3fffeffff003220
00ffff1fffe5086
fffc240032fffa4
fffd67fff961fffb10
fffffffd00fffb1fffb02
066fffffffbffff201
1500181fffb1
ffff26423fffe0fffc
0364fffe0502
0fffe03fffdffff140
ffff1fffbfffefffd0040
21173013ffff
fffdfffc061fff6fffc15
3ffff41fff74fffd0ffff
3fffefff92fffffffe01fffd
1fffffffefffaffffffffffff0fffd
fffbffff1fffa6050fffb
0ffff20fffefffe4ffff6
fffefff7ffff415fff8fffb2
050fffe3fffdfffdfffdffff
2fff70332fffcfffefffe
1050622fffbfffd
07fffb10001ffff
404fffcfffffffb291
00fffefffd40004
3231001fffe0
30fffc8528fffe0
006fffb20fffffffafff9
13fffdfffefffd0fffffffbffff
320fffdffff41ffff1
200fffe0ffff33fffd
0140fffdfffb430
fffe4fffe040fffc10
2fffd03fffd7ffff1ffff
00fffc1000ffff0
053ffffffff002fffb
2fffeffff4033ffff0
0254154fffefffd
11400ffff0fffe0
fffffffafffe53fffefffcfffe2
fffdfffb2fffc31100
206fffa8fffd2fffdfffe
0fffbfffe360221
13fffffffb01312
38021050ffff
34fffefffe14fff845
01fffefffd4fffe301
357052fffe20
fffc2ffff000201
2012010fffbffff
42fffafffdfffb0ffff00
fffdfffcfffbfffbfffefffd502
54fffffffd03fffe45
fffd0fffdfffa00241
1fffafff9fffbfffefffcfffd47
0ffffffff113fffbfff9fffc
3fffa0ffff302fffd1
112118fffd12
142fffc10fffefff92
fffe0fffcfffd6fffe0fffefffe
022fffdfffffffe7fffc3
0320ffff2fffd0fff8
0fffe01fffffffd2fffbfffc
300fffe0fffffffeffff0
5fffffffd4ffff1042
fffbfffb840fffafffcfffd0
fff50015fffffff9fffffffd
ffff10032063
01fffcffff3fffdfffe0ffff
fffa117ffff0ffff3ffff
ffff0fffefffc00011
41ffff322fffe22
20ffff656fffefffb8
022fff700ffff2fffa
3fffe414fffd103
020ffffffff142fffb
fffe26552424
fff8fffffffc10ffff130
0fffdfffa36ffff01fffe
30fffe6fffc1030
fffffffafffeffffffff0fffaaffff
2000fffe0fffb0fffe
0fffafffa220002
0fffc45fffb2733
fffa3511fffe3fff8fffd
3fffeffff03ffffffffffff0
0fffb0ffff02fffcfffe2
4481fffa10fff90
30fffb2fffffffdfffffffe3
fffffffffffafffd420fffd1
1204252fffa0
fffa12454ffffffffffff
03ffff372283
fffb000ffff1152
0fffe01010fffefffc
6022fffe7fffa10
fff1fffefffbc64fffffffeffff
02202fffd4fffe0
20ffff0fffe5ffffffff0
fffefffcffff32fffe1ffff8
2fffe32fffc1fffe36
fffbfffefffefffffffffff8622
3fffd0fffdfffb0330
fffefffbfffd58200ffff
fffdffff002ffff303
0fffa4fffe01135
10fff8031fff8fffe0
fffc1fffbfffe321fffd0
ffffffff34fffe424fffc
fffe10fffcfffe3fffd10
fffd201fffbfffa2fffc0
0fffc20fff80045
fffe96fffb18fffffffed
fffd1fffefffd00fffc00
342fffdffff5fffc43
1403fffd1fffb0fffd
0fffffffc002661
10fffe4610fffe4
2fff9ffff30fffefffc4fffd
2072fffa4220
0fffeffff06fff743fffe
1fffdfffbfffc01ffff1fffd
93ffff07fffffff932
2fffffffa53fffffffd5fffe
fffe75fffffffe100fffe
420fffefffa10fffa1
fffffffe0080fffe47
fffcfffc04fffe0410
0ffffffff1510fffefffb
013fffefffe00fffdfffd
fffffffbfffb903fffe13
fff934220ffff04
42ffff1203fffeffff
fffefffe0fffe71fffbfffdffff
ffff42200ffff01
41fffefffcffff3530
0fffffff624003fffa
1fffbfffe1ffff0066
fff70fffefffe20fffb1fffb
201fffcfffe1170
fffeffff02001fffe4
4fffc0fffd103ffff0
4fffd1610ffff2fffa
ffff0fffe10fffefffcfffefffc
fffb20fffffff74011
fffe00fffefffaffff3fffb1
012fffd20910
ffff4fffd12fffb311
6fff9511fffe001
fffe1fffffffb70fffffffe0
45ffff4ffff103fffd
0fffc010fffe0fffcfffe
fffefffd0fffd0fffdffff0fff8
0fffc2233037
10fffefffd0ffff400
ffff0005fffc00ffff
fffd21fffcfffb0fffbfffe0
636fffe3fffffffe50
fff9fffbfffe1ffff2fff612
6fff4fff8fffffffcfffd64fffe
28300500fffd
fffefffd5fffd37fffdffff1
31fffc011fffd0fffc
2fffe5fffcffff10fffa2
322033fffd0ffff
1fffe0014445
041fffb4fffe2fffcffff
0fffc304fffdfffc6fffe
fff944fffb21fffd21
2fffdfffd40fffe11ffff
0fffe011fffbffff0fff8
3140fffa0156
37330ffff1fffafffe
fffd4106211fffe
fffd4fffe0fffc2fffefffafffd
04fffc0000fff93
ffff303fff80187
130fffffffafffd203
1200254ffff3
ffff4fffcfffb130fffbfffe
43502fffdfffbfffdfffc
162fffbffff3fff8fffe0
10fffb21fffcfffd90
0203fffcfffeffffffff0
fffb00fffe330fffc1
1fffffffc0fffcfffc3fffe1
0fffe0ffff00fffe13
3fffdffff017fffafffcfffe
0ffff30011fffd0
fffd2fffefff6fffffffe020
0fffe31fffe1024
1302fffdfffc4fffe0
02fffd03223ffff
4fffdfff904040fffe
001fff81fffd30fffb
00fffffffc111ffff3
fffffffc001fffffff92ffff
fffbffff12fffbfffbfff605
32fffc0fffa002fff9
fffc13122ffff23
0150fffdfffdfffdfffffffd
fffa04fffa20a40
fffcfff9ffff0323fff91
fffffffeffff3fffe8fffc22
400fffefffbfffdfff9fffdffff
5ffffffff3ffff6030
fffefffcfffe53ffff200
2fff9ffff403fffcfffefffe
fffdfffd0fffffffb20ffff5
fffe0fffcffffffff14fffffffc
10fffd0504fffffffe
2ffffffff020fffe00
31fffffffd221fffc1
fffffffe2fff915fffe04
fffcfffe3ffff31200
fffb3fffdfffefffffffdfffc01
23fffe0fffc0507
1014fffc33fffdfffe
bfffcfffffffe008fffb0
1fffe155fffe000
21ffff0020fffe0
fff9fffdfffffffc02744
000300fffffffbfffc
303fffe40fffafffe2
0fffafffb04ffff21ffff
0000fffc6144
335fffafffefffc3ffffffff
10fffc34fffffffdfffd0
017fffc12ffff44
4586022fffdfffe
fffa40fff65fffe0fffe0
301fffefffe7fffc04
ffff0412fffefffcfffa1
4fffb4ffff03247
230fff9fffbfffdfffe1fffd
fffd106fffffffcffff0ffff
7032fffc02fffc1
2010130ffff1
ffff100fffeffff310
3fffefffe1fffe204ffff
ffffffff6ffff10ffff00
fffc040fffdfffbfffffffe1
ffffffff05fffd331fffe
fffb004fffe1065
3fffc316fffefff70fffe
fffbfffe0fffdfffffffe000
02fffffffdfffe0600
02fffc205fffbfffc5
fffd6fffc0ffffffff0ffff4
fffdfffe01fffefffb808
fffd20221fffe01
fffffff7031fffa443
fffe1fffefffc20022
1fffd23fffe004ffff
0fffdfffffffdfffd4fffd54
afffe0fff8fffffffcffff7fffe
fffafffffffe3fffd1fffe40
4fffd0fffc02fffa06
fffffffdfffe0fffe1230
fffffffffffc0fffe4104
fffdfffeffff260fffd0ffff
2fffffffffffc0fffe4fffefffe
fffa11fffe22010
0fffefffc65fffc13fffd
fffefff8fffdfffd6fffc424
132fffca11fffbfffd
0200fffffffefffbfffffffc
0211302fffe5
001ffff1fffdfffdfffeffff
fff853fffc2fff9fff940
53fffd10fffafffefffdffff
fffb22403020
fffcfffdffff0fffffffb030
fffefffffffdfffdffff0022
24fffefff7fffffffb732
3042ffff00ffff2
ffff00ffff0fffe0fffcfff8
fff900fffdfffe0152
3fffc66fffe0fffefffffffc
fffefffbfffd80004ffff
210420fffc00
fffdfffe10ffff3fffe2fffe
1ffff20fffefffd23fffc
2ffff2fffffffc0032
0063fffdfff510ffff
fffc00ffff0fff9fffefffffffa
102fffcfffe240a
10fffdfffb200fffefffa
01fffb20fff901fff9
ffff13fffefffffffcffff2fffa
4fffb1ffff0fffdfffefffcffff
fffffffe0fffcfffc10fffb6
fffffffe61fffefffcfffe00
1fffd2fffd104fffe4
0fffffffd2ffff3770
0300fff9fffc30fffd
7fffc3004412
fffe1ffff0ffff37fff74
fffafffb0010ffff42
fffdffff3fffe53100
011fffe10fffc0fffd
00151fffdfffd20
0fffeffff60210fffb
fffafff905ffffffff0fffd3
61fffffff9fff902ffff3
fffe1000fffd9fffffffd
0fff9fffc14fffdfffefffefffd
fffcffff302a0fff91
50fffe002fffe0fffe
fffe41ffffffff0252
15331fffa1fffafffc
29211fffcfffffff9fffb
01fffe11fffcfffefffefffc
ffff131ffff3fffc02
ffffffffffffffff0ffff370
05ffff6fffc000fffe
4fffbc001fffefffb4
6040fffa11fffb5
2ffff00000fffcfffd
104ffff4fffb1fffffff7
20010ffff0fffafffc
fffd1fffefffd30fffe31
0110fffe12ffff3
fffdfffda0fffe15ffff0
1fffefffefffd8fffe36fffe
fffdfffe2fffe02fffb20
01fffc1fffffffd7fff90
0fffd3fffe00302
0fffc34fffd4301
fffb443ffff2fffffffd0
0411fffdfffe09fffd
3fffaffff3fffefffdffff2fffc
ffff2243fffd250
fffe14fffefffffff8105
ffff30fffffffe000ffff
42300fffbfffffffe6
fffe3ffff30fffcfffffffeffff
000210020
03fffd0fffb002ffff
0fffd100fff930fff9
ffff0fffe0fffdfffd274
0212fffd3fffc00
0102fffffffe1fffe0
fffcfffe0fffd116fffd5
fffcfffefffcfffe26fffefffd4
020fffc1000ffff
fffd20fffc00fffefffd2
ffff10fffd02133
01fffdfffefffbfffe000
3fffcfffe406fffd0fffa
1250ffff0ffff12
fffefffb0ffffffff0044
01ffff002fffe50
3fffeffff20fffcfffffffe1
0fffdfffb0ffff00fffeffff
13202fffa005
610020100
40ffffffff01ffff0fffe
03032fffffffd12
ffff610fffa0fffc0ffff
2fffc4310110
22ffff025fffffffe1
10fffe0503fffe3
04fffe0fffc1401
fffd702fffdfff8fffd14
fffeffffffff25010fffe
0fffc9fffe4fffb0fffd0
ffff2fffc458fffe00
2fffefffe380fffffffe1
002fffe0fffcffffffff0
1fffd50241ffff1
01ffff00ffff1fffe2
fffe00310ffff23
41722fffd00fffb
3101fffffffc141
20fffe0200fffefffe
121fffdfff9fffc0ffff1
2fffc0ffffffffffff00ffff
fff80fffd50159fffb
ffff0fffb06fffcfffd31
130fffb1fffefffe03
020124ffff10
000113fffe0ffff
6fff23ffff6fffbfffafffb0
022022043
201000003
fffd6fffffffe00416
4000fffd0fffc20
fffefffb0ffff00fffffffb8
fffefffdffff50141fff9
fffffffe2100ffff0fffd
fffc03fffffffefffffffeffff0
fffeffff2023fffdffffffff
fff9fffd710110fff9
fffb0241fffb330
fffc4fffe0102fffa3
fffdffff5632420
0400fffe10fffffffe
ffff0ffff000001
201240111
0fffafffe13fffe2fffd0
2fffeffff13fffe450
000102fffd0ffff
010113fffffffeffff
ffff530fff66fffe6fffa
63ffff2ffff0fff934
2fffc0fffb2ffff10ffff
fffffffffffe00fffa21ffff
1fffd30fffe12fffeffff
2ffff00fffffffc220
2fffb00fffcffff000
3fffcffff4fffb0031
3fffdffff34fffd102
0120fffcfffa30ffff
516300fffc01
503021fffc21
0fffffffc001fffbfffffffd
50fffdfffe33001
1fffcfffefffe3fffdfffc00
fffc4fff94fffa5ffff1fff7
0ffff0012300
1fffd3102fffefffcffff
fffd70141ffff00
0fffdfffb0fffcfffd0fffc3
30fffefffe3fffe0fffffffd
fffa220fffefffd00ffff
ffff30304fffdffff1
00fffe0d6fffc2fffc
fffcffff02400fffcfffe
001fffd11fffdffff0
2fffffffffffe11010
ffffffff1ffff1ffff0fffffffd
1ffff3fffe0813fffe
fffe2fffb409fffe3fffe
fffffffefffefffd26ffffffff1
1fffcffff13fffffffe1fffb
0011001fffc0
0fffc1fffa602ffff7
02fffefffdfffefffa0fffffffd
3ffff0fffbfffe1fffd1fffe
122fffbfffc0ffff30
30002fffeffff15
fffd301ffffffff010
0ffff0fffefffc0202
11fffc123fffe00
fffd44ffffffff040fffe
0fffe3fffdffff2fffe0fffd
1fffc308fffdfffeffff1
002fffffffdfffd00fffd
fffb00ffff05ffff00
ffff25ffffffff5ffff42
200022fffdffff4
0cfff7fffcfff744afffa
01304ffff004
0ffff0fffd0fffdfffcfffd8
0fffb21ffff0303
1fffbfffc006fff95fffe
1ffff31fffeffff1fffe0
32060ffff0fffd0
45ffffffff3fffdfffefffaa
200fffdfffdfffbffff23
22000fffffffe05
0fff830fffeffff033
2fffe0ffff1fffc00fffe
413fffbfffbfffe04fffd
040fffe000fffffffd
ffff2ffff40fffe2fffb1
fffd00fffffffcfffefffb05
0fffc00ffff1fffffffe0
ffff1fffffffefffc2fffffffe0
100001ffff01
00100250fffc
fffb0052fffe0fffcfffd
2044ffff3200
fff9fffb130ffff140fffb
4ffff22fff9330fffe
042100fffe01
03fffe21020fffa
20000322ffff
fffc4fffdfffd03ffff04
3fff9fffa2fffbfffffffcfffd3
204210ffff10
fffd1ffff3ffff5fffe10
3322fffffffb411
fffd1fffefffafffafffe2fffe0
fffb00ffff00325
0400fffdfffa002
fffe232fffe0fffe30
4fffffffe0fffeffff610
5fffffffdfff8fffd24fffffffe
4fffc7113fffe0fffc
5011fffffffe102
3ffe85668fffd1ffff
11ffff13ffff0fffbfffe
ffff05fffffffe2fffe34
2203ffff0002
0fffa43ffff0fffcfffffffd
00ffff010ffff00
1fffd0fffbfffffff9fffdfffb0
0fffafffffffe0fffe040
fffcfffbfffcffffffff1fffe21
2050ffff2fffe40
14ffff1fffbfffe1fffe0
010fffe0ffff1fffefffe
52fffd0fffa4ffff21
fffd81103fffe6fff8
ffff20203ffff0fffc
1822ffff2fffffffcfffc
40330012fffc
200ffff3fffd1fffd2
fffd320601fffb0
0fffd0fffd301fffe1
fffdffff50ffffffff01fffe
fffe5fff801300fffd
1fff90fffc528fff85
4300fffdfffefffe50
ffff26fffffffe041ffff
0fffe11fffffffe1fffdfffc
1ffff311fffc120
001fffeffff3fffdfffc0
57fffeffff301fffcfffc
fffd1fffc2fffe504ffff
ffff01ffff0fffd001
22100fffffffeffffffff
fffe07fffefffffff9016fffe
1502ffff30ffffffff
fffffffe0ffff00030
1fffffffe0ffff0000
0fffe3020fffffffb2
3ffff221ffff02fffd
211fffefffc00fffd0
01fffe41ffff401
fff9fff6360fffffffe1fffd
fffbfffcffff000fffdfffe0
00fffe00ffff304
ffff220fffbfffdfffffffdfffe
243fff8fff92fffd11
fffffffe030fffd2fffc1
fffdffff31ffff2010
fffd3014fffe001
611001ffffffffffff
fffc3fffcfffefffa0fffbfffc3
fffe6fffa261012
01fffffffffffb3410
fffbfffc1fffefffc1103
2fffa10000fffe1
10ffff001235
1302fffffffd34ffff
01fffb043000
10ffff040fffeffff0
1130fffb5fffe0fffe
fffe10501050
fffb2ffff301027
9fffc7fffb1fffd4fffbc
010fffffffcfffc015
0fffe10fffc6fffc04
02fffe001ffffffff3
10fff7fffdfffc0fff3ffff3
fffffffe502fffd110
011fffefffd0fffdfffe0
fffdfffafffe1140fffdfffe
fffeffff72fffb3fffc31
7fffe004fffc6fffc0
020fffb20002
23fff9fff93fffe013
3223fffefffe13ffff
ffffffff11ffff3fffc10
40ffff01fffcffff13
24afffcffffffff001
0ffff2fffffffe0fffffffdfffb
0fffdfffc052fffdffff0
fffefffe0fffb20ffffffff0
241fffdffff1510
fffe4ffff1618fff60fffa
04403ffffffff00
fffc00fffffffffffe5fffcffff
5fffdfffb4fffefffe0fffe4
2320fffdfffb21ffff
0301ffffffff153
00fffc4fffb010ffff
fffffffd0fffe040fff91
0ffffcfffafffe0fffc67
215fffc2fff9451
fffdffff5fffe04fffcfffbfffa
1fffffff9fffe10021
fffeffff0052fffd5fffc
ffff1fffffffd00fffb00
05020fffdfffc30
4301040fffd1
fffe5fffe14fffeffff00
1fffafffffffc20fff87fffa
3ffff5fffc2fffcfffcfffffffc
fffc0fffdfffa1fffffffbfffd0
4fffdfffefffe23fffe63
4fffffffffffd0042fffa
fffefffdfffa123011
ffff1fffd4900fffe4
301fffdfffd00fffa2
fffb3fffe0fffdfff8102
67fffe805700
fffdfffb3fffa12fffa0ffff
51240ffff023
30022ffff375
2250ffff1fffdfffe0
fffe04513fffe00
fffa5001fffffff970
03123fffc0fffc0
ffff27fffe54025
fffb5fffe103fffffffd0
fffe0fffcfffe0fffe300
4fffdfff70ffff031ffff
00fffffffc3fffd502
2fffe2100017
012fffdfffdfffdfffe0fffa
1fffaffff532001
00012000ffff
fffd0ffff3fffe36fff9b
fffeffff2fffc4ffff320
05fffbfffc3fffb00ffff
000031060
12fffe062400
fffb3fffefffe1fffb3fffe2
ffff43fffd0fffafff9fffaffff
4fffbfff862fffe919
12b3fff96484
10fff7ffff5fff609ffff
fffbfffe50714ffff0
fffffffdffff00fffd005
0fffe0fffe54022
00fffb5ffff7314
0fffe32fffe0311
fffeffff0242525
ffff7fffb06fffd3fffdfffe
fffffff9fffbfffbfffafffefffd4fffd
ffff10fff81fffeffff4fffe
fffe7fffefff911fffc6fffc
0fffe3fffc8fffcfffc03
fffe00fffcfffffff9fffc50
012fff8fffe0fff8ffffffff
0fffd20fffe0ffff6fffb
00fffdffff5fffffffffffffffb
12fffd5fffd0ffff1fffc
fffdffff1fffa70ffff11
3fffc1ffff0fffbfffe32
22ffff1112ffffffff
7140fffcfffe851
ffff00000fffefffefff9
fffd2fffd235fffb11
2fffe1100fffe0fffc
fffcfffa000fffefffdffff2
ffff11fffd02030
fffe50fffffffb044fffd
35300ffff4fffe0
01fffefffffffffffcfffffffafffe
fffc511202ffff2
0fffd3fffbffff1fff8fffe5
0fffdfffd3fffe0563
5605fffbfffb4fffa0
ffff22623ffff6fffc
ffff4fffc15fffe110
10fffd302006
fff92fffbfffe6ffff0fffd0
0fffc625fffbfff7fffe6
431ffff06fffffffcfffb
fffd0fffb51fffa300
7fffe6260fffefffb1
fffefffe0fffe28fffafffc0
3fffdffff100ffff30
01fffdfffd1fffd015
043ffff7fffdfffdfffdfffc
fffdffff1fffefff86fffb31
032fffe2200fffb
2fffffffc12ffff21ffff
fffc18241fffcffff0
ffff00fffe0014fffe
ffff0fffe0ffff0040
3fffe202716fffd
0040fffefffe1fffe3
fffdfffcfffa7150fff90
00fffffffe12fffcfffa4
560fffc2fffcfff910
fff82ffff02fffe102
13fffa013000
212fffffff9ffff540
fffc00313302
043fffbfffefffffffefffefff9
ffff3ffff2fffe0ffff02
fffefffffffdfffd2fffe000
101fffa00fff9fff80
400fffe0fffffffe10
0fffffffffffe0003fffd
210450ffff4fffc
301fffefff92fffffffcfffd
0fffb3fffe00fffcfff84
ffff1fffafffa1fffd050
3fffdffff1fffb2fffa3fffc
ffffffff0fffd50fffd02
401654500
fffe0fffe3fffd072fffe
00ffff4105ffff0
2ffff6237126
fffe0fffe101fffefffdffff
ffff13010fffd20
fffffffdfffffffeffff0fffcffff1
34852000fffd
1333fff92fffb52
2fffb30001fffffffc
fffb5fffe2fffdfffdfffffffbfffd
0fffffffefffd310ffff0
ffff11fffcfffefffdfffe00
fffc0fffe02301ffff
ffff5fffcffffa3030
2000fffcfffc1fffefffc
1fffefffc3000fffe1
3fffc82fff963ffff0
fffefffffffc1fffb3300
020fffb5fffb0fffffffa
3ffff0702fffffffc3
fffd02fffd300fffaffff
12fffd45fffa44fffd
053fffd0fffd0fffdffff
50fffdfffc2fffe05fffa
24fffd5fffdfffd0fffe3
ffff1fffffffefffc0fff9fffe4
5fff81fffe00021
1fff82fffffffa3fffafffefffc
fffefffe0fffdfffdfffeffffffff0
fffbfffdfffffffe4ffff05fffb
fffeffff01fffc1fffd25
114ffffffff0ffffffff0
110124010
fffd0fffa1014fff77
5fffd010fffdfffefffc7
fffdfffffffe5fffdfffb41ffff
fffe9ffff42fffefff97fffd
fffefffb000fffdfffe12
fffefffa10fffb0044
fff9fff9ffff1fffffffe04ffff
0ffff062fffa640
fffd0fffeffffffff71fffe2
fffc4fffd01020fffd
404400034
fffffffd1ffff31fffefffc4
8fffe038fffe050
fffc213fffe13fff65
0fffd10fffeffff050
013fffffffa3fffdfffffffc
2fffe3fffbfffb50fffcfffd
1fffe33fffd110fffc
1122fffd0fffcfffcfffb
fffbfffefffdfffdfffbfffd4fffd0
01fffefffc001fffe1
00fffdfffcfffe011ffff
20fffefffffffbfffd1fff7fffb
140fffc02200
1ffffffff121090
6fffffffea23131
14fffdffff4fffc4fffb0
fffcfffafff633ffff0fffe5
fffd2ffff10ffff7fffb0
fffb40fffdfffa1fff703
120fffa3fffdfffe21
30fffd0fffdfffe040
002fff3fffdfffcfffefffe0
221fffa20fffd4fff9
5fffb7fffb9fffbffff0ffff
0fffb041fffdfffefffe2
2fffd0fffb3fffffffffffafffe
101fffd41fffbffff5
fffcfffe2221539
fffe0230fffffffcfffd2
fffffffe0fffe01fffbfffe4
0ffffffff0fffcfff921fff8
03fffb1ffff0fff9fffcffff
fff8fffdfffd0ffff0004
fffd2ffff464023
fffffffd010fffe125
fffffffffffe6fffc63fffe2
304fffaffff0222
30ffff4fff8fffd33fffc
20fffbffff14fffeffff0
02fffcfffd8fffcfffc3fffc
ffff400fffffffefffdfffe0
fffdfffafffa1231fffdfffc
fffd1fffffffffffe12fffefffc
5513005fffd4
ffff2fffdfffefffafffbfffe0ffff
1024fffd03fffbffff
5001fffd2fffa0fffd
ffff0fffffffe1fffb1fffe3
ffff6fff914ffff2fff23
fffe10fffc23fffe0fff7
2340fffe20fffc1
fffdffff12ffff2211
fffe132fffb1004
3fff9bfffdafffc320
ffff230fffffffffffb00
20fffbfffefffefffefffafff9fff4
13ffff203ffff32
1fffffffbfff720fffffff60
fffefffa00fffbfffefffe12
2304422fffcfffd
1331fffbbfffefffbfffe
10fffdfffefffefffafffe20
11ffff0fff8fffe310
2fffdfffb01fffa001
ffff4ffff7ffff4260
ffffffff4320012
0fffe1fffc150fffe0
2fff845fff62000
fffe0fffcfffd00002
fff9fffbfffd043004
3fffc0fffdfffe4000
ffffffff20fffe111fffd
fffeb0fffafffe03fffc1
fffd05fffd0fffcfffafffffffd
0fffdfffe2263ffff3
02fffc0fffb320ffff
2fffd3fff853fffdfffd2
3300fffcfffffffdfffd0
20310fffffffd21
ffff20fffc4040fffd
64114fffd0fffcfffd
3fffefffb4fffdfffc000
001fffb47fff9fffc0
0fffffffcfffdfffdfffe10ffff
ffff02fff703ffff03
2fffefffd130101
0fffc40fffe0410
2fffc20fffcffff411
fffcfffe00fffefffcfffd5fffc
ffff0fffc2fffffffc2fffe4
01fffc6fffa61fffe1
fffe0105fffeffff03
05fffe2fffefffdfffe0fffe
2fffdfffc3fffbfffdfffffffd0
1fffefffa9123fffdffff
ffff1010fffd307
ffff001fffd7fffc40
331402100
20350ffff001
0fffe00fffe2fffdafffc
ffff6fffe704fffc1ffff
ffff0ffff035fffffffd4
fff6ffff62fffd7ffff47
fffc05fffeffffffff6fffd0
6fffb34ffff30fffffffc
0fffe30fffe0fffb00
1a022fffffff8fffeffff
21ffff0fff9013fffd
10ffff041412
1fffffff8061fffffffc1
fffe014fffcfffc123
04fffdffff1fffdfffbfffd2
0fffc261fffb2ffff1
fffafffd002fff722fffa
1201ffff0000
5ffff02fffe0fffd1fffb
fffeffff111fffffffa30
1001230fffeffff
ffff10fffffffbfffefff90fff9
ffff0ffff606fffcfffffffe
fffdfffd0400fffdfffdfffd
fffc1fffdfffe2fffe01ffff
1331fffffffe0fffe0
001fffe3fffa1fffd4
00fffb0ffff0fffb60
fffe035fffe0fffcfffafffd
2132fffe204fffe
fffefffb341fffc360
12fffe15040fffe
fffe301fffeffff41fffb
05fffdffff4fffb324
01fffe03ffff0fffdfffb
b1ffff0a24fffd7
00010fffb022
fffd432fffffffbfffd03
1fffcfff82fffefffb0ffff0
23ffff010fffd44
46fffd0040fffe2
ffffffff20ffff0fffefffdfffb
1ffff0030fffc5ffff
10fffffffcfffb3fffc00
06ffff34000fffd
fffd21113fffe31
fffffffefffffffe1fffcffff2ffff
80fffafffe2524fffc
01fffdfffcffff0fffc00
001ffff5245ffff
52fffe2fffe80b0
9232fffe2817
6616006fffc7
11ffff0fffd0fffd40
42fffc0fffe4fffa10
fffffffe2250230
2fffb4fffc210fffafffe
054326410
fffd0ffff3fffe2302
10fffe400fff720
241fffffffbfffefffffffdfffe
4ffff0fffd0fffa1fffefffd
fffcfffd1fffe00fff952
2140112fffb4
fffeffff33514fffe0
0fffdfffc0425fffeffff
30fffe242fffefffd2
0fffb80fffd1fffc55
42ffff1fffffffcfffdfffc0
fffe01fffd5fffdfffc11
243fffffffcffff0fffcfffa
031000fffcffff0
414ffff02301
500fffe00fffefffdfffc
360520fffa04
ffff002fffd500fffb
124200fffefffb5
02fffc4fff92fffc3fffe
fffb20102fffefffb0
004fffe0fffdfffd20
30013fffdfffc0fffe
ffff32fffd2fffd630
005036fff93a
fffffffdffff540fffd0fffd
00fff718fffefffd21
fffd1fffd34000ffff
237fffbfffffffe152
4fffffffe1fffa430ffff
fffefffefffc440fffc0fffd
fffefffefffefffffffcfffb310
260fffaffff40fffcfffb
1fffbfffe420fffbfffafffa
fffd102ffff2fffb30
1fffe4ffff21ffff00
ffff400fffeffff131
fffbfff60fffd24306
00005fffcfffdfffdffff
1fffd4000fffe0fffc
1ffff08fffefffcfffe1fffe
fffc0ffff5fffe0031
100045210
0fffd5fffd0fffe02fffd
03fffdfffe313fffe0
287fffffffcfffd06ffff
233ffff220fffe1
001021320
121ffff0854fffe
20ffff0fffb020fffe
0100320ffff0
176fff8fffefffcfffd02
ffff440fffe4fff803
40fffefffefffc3fffb10
025afff9fffcffff0fffd
412fffcfffa0fffbfffc0
222001fffdfffe3
000321fffbfffdfffe
0311fff8fffafffc00
fffdffff1fffefffefffb0fffdfff9
201fff9ffffffff5fffffffe
fffa3fffb0fffe0fffa1fffb
fffcfffe0140030
ffff00fffe33fffcfffcfff9
fffd0fffffffcffff26fffbfffd
122fffb0010fffd
0410110fffd8
04fffb4fff94fffd3fff9
0000fffffffd082
fffffffcfffdffff31033
0afffbfffe50fffe3fffc
1fffeffff303020
3ffff402333fffa
05fffbfffe8fffbfff7fffb0
fffe324301fffdffff
005ffffffff1fffe10
0131fffc3002
170610fffa0fffd
fffafffc4ffff2fffc36fffb
fffe20fffdfffdffff540
402fffaffff621fffa
ffff0190fffc300
1fffcfffd000fffa02
fffe0fffafffd101fffd0
2fffc34fffbfffeffff34
0201fffc5340
5fffc05fffdfffa1fffffffd
0fffeffff2fffefffe3fffffffe
fffffffbfffe01124fffe
ffff07ffff6fffc2fffe0
3fffffffb071fffc00
7121ffff2630
2fffb100fffe23fff9
14fffdfffa2fffdfffd00
61014300ffff
fffe2fffffffb8fffb0fffffffe
07040fffd001
0fffafffe2fffdfffd110
fffdfffd5fffd11fffb05
fffd00fffb80210
314fffdfff931fffffffe
fffd300fffdfffe0fffa3
fffc11010fffcfffb1
01302fffffff9ffff0
53fffaffff053fffefffa
128104ffff01
ffff30fff900fffefffeffff
1fffb1fff95ffff211
031fffe005fffd2
fffb0040fffe3fffffffb
14203ffff123
3fffcfffaffff8fffefffcfff80
0fff90023010
0fffe0fffdfff633fffeffff
fffffffffffe0fffdfffefffc0ffff
2ffff0fffdfffffffefffe0ffff
fffffffdfffe0fffd102a
00fffdfffcfffb2fffffffd0
001fffd40fffefffbfffd
5003fffe50fffbfffc
0fffdfffe231ffffffff0
720fffe2fffafffc40
73115fffe20fffe
ffffffff0fffe41070
fffa300ffff1000
3fffc2fffe12fffefffda
300110fffd5fffd
03ffff015fffdfffaffff
fffe1fffb4fffd5fffb00
fffffffd4fffda001fffd
ffff510fffefff8ffff0fffe
503130ffff10
ffff0ffff03fffc001
370fffe4fffb400
3500fff60401
72fff9ffff2ffff60ffff
fff9ffff50fffa2310
fffc10041fffd4ffff
2fffffffd400405
011001020
310fffe061fffdfffd
4ffff0043545
50fffeffff13232
8fff90040208
7111fffe2fffa10
2fffefffdfffb0fffe830
5fffafffcfffe6fff8fffa36
fffefffb3fffe00000
1fffdfffb42fffc33fffd
fffdfffdfffd15ffff232
fffc000340fffdfffb
0362fffd031fffd
20231fffe21fffc
fffe4020fffffffe6fffd
204ffff7fffc020
33fffc1ffffffff1a5
232042ffff00
0fffbfffe52730fffe
2ffffffffffff32fffffffbfffd
4128ffff0262
2ffff4fffe11fffffffd2
ffffffff7fffafffffffffffb0fff8
282100fffdfffdfffe
0ffffffff0fffe65fffc7
0fffffffdfffcfffd0fffd4ffff
fffe100ffff407ffff
3017fffd1132
0fffffffe07fffd011
060fffd7fff83fffa1
fffc6fffb0ffff6fffe0ffff
4fffb12ffff6fffefffa2
53010fffffffe4fffe
3fffcfffc6fffcfffb000
fffcfffcfffefffdfffcffff287
fffefffc013fffe0ffff0
fffbfffcfffc00010fffc
04fffbfffd0fffc121
fffefffc2013039
0283fffe0306
035fffffffa2fffefffdfffc
fffe16fffefffb8fffa1fffd
fffe031504fffd0
00fff800fff91fffb1
4ffff434fffffffafffe5
42fffe50fffd322
0fffffffa06050ffff
0fffa54fffd5fffd4fffd
00fffd2021fffc6
00fffe0ffff204fffb
1fffd0a80040
ffff3fffa3fffefffe6fffd4
002fffbfffffff9067
fffd311fffdfffffffe41
3016fffc0034
fffefffd03fffffffc000
0fff7fffc4fffc0211
ffff3fff97fffa0fffa20
fffb3fffe40fffafffbfffb1
fffbfffefffd043fffc10
107034fffc0fffe
ffff10fffd2614fffe
fffffff8202ffff0fffd1
fffe0fffc3fffefffe2fffe1
fffefffd1fffb30060
3100fff63001
1fffffffe3fffdfffd002
2fffbfffd2fffc00fffe7
fffefffd6222305
04fffbffff16fffeffff0
fffe2fff7520fffefffcfffd
305031fffc04
ffff51fffdfffcfff8fffbfffc0
fffefffd2ffff45fffb0fffc
3fff830ffff371fff8
41ffff5fffe4012
00fffe0ffff0fffb0fffe
2442fffffffc02fffb
fffb0b1fffafff9304
2c2fffb0fffefffdfffefffc
13fffc04fffe120
1fff7fffd102916
4001fffdfffe463
92ffff24ffff32fffe
0fffcffffffff30ffff70
1fffcfffd40ffff000
0fffc3fffe5fffe2fffb1
3fffc3327fffffffcffff
fffb10ffff20fffc3ffff
2fff6fffa04fffc413
32fffd506325
20fffffffe0210fffa
fffd20fffe2003fffb
0fffeffff5fffa5202
fffd001fffd101fffe
fffe5fffffffe2fffe1fffc2
fffc4fffdfffd1fffefffffffffffd
fffc3fffdfffe61020
fffefffefffc15fffb4ffff2
100ffff03fffe4fffe
11132fffe866
fff9ffff2fffdfffab4fff87
fffa53fff83100fffe
12fffffffe11fff9fffb3
fffffffd3fff80fffe10ffff
43223fffbfffdfffcfff8
0fffd102fffd20fffd
0040fffd3fffdfff85
30fffd2fffdffff103
1ffff5fffefffeffff1fff8fffc
0411fffefffd60fffb
fffffffdfffdfffcfffe40fffd2
fffd234fffefffc1fffb2
40fffefffeffff41ffff3
02041fffefffbfffffffe
fffffffbfffe10fffe103
0fffefffc144fffcfff90
212000262
ffff415fffeffff601
fff9fffe5134fffdfffefffe
41300fffeffff02
ffff3fffffffcfffefffe100
03fffc1fffdfff9355
fffcfffdfffcffff1fffd73fffa
370fff9fffcffff160
063fffefffe3fffc00
fffcfff90ffffffff5cfff96
ffff1fffffffb0500fffd
45fffc2fffa2fffdfffe0
3fffffffc05332fffd
800ffff13fffd0fffd
fffb1fffc010fffffffaffff
fffc2fffe505334
fffdfff84fff643ffff31
ffffffff22fffa0fffffffd0
fffcfffbfffc305735
0fffe120001fffd
100fffb02ffff40
401fffe2ffff62fffe
fffcfffa00ffff03ffff0
1321ffff0040
00fff9fffd1ffff333
20fffa00fffafffb10
fffe62fffdfffa0fffbfffffffe
fffdfffbffffffff62fffe22
0fff9fffe042651
30fffc19ffff4fff9fff8
fff9fffcffff05000fffe
02fffb5630fffc0
1fffc2301057
002fffe21350
1fffb034fffe220
524fffc02ffff31
fffe00ffff3701fffe
54fffe0fffffffe2fffeffff
fffe33fffbfffefffefffcfffdfffd
fffafffdfffd10fff910ffff
1fffc005fffe860
fffffffc205fffc003
12fffc051001
fffffffe2fffb4fffefffe1fffc
fffdfff9fff8810345
0fffcfffc2fffc0fffbfffb0
0fffbfffe21ffff624
fffe1fffefffffffc2fffffffd3
fffc2ffff3fffb0fffa31
440252ffff50
fffdfffb3fffefffd0fffcfffffffd
002fffe02fffdfffd0
004fffcfffe1ffffffff0
034ffffffff1410
fffd0fff9fffcfffc2fff977
ffff101fffffffd41fffc
1fffb00fffcfffb205
ffff05fffbffff0fffefffe1
0ffff0fffd06ffff1fffb
fffb4fffbfffd4fff8fffe4fff6
3fffdfff87fffd0610
25fffffffc4fff9020
03ffff00fffb203
fffe4fffd2fffeffff013
fffa02fff904b2fffd
fffafffd600fffdfffd00
25fffb0ffff97ffff3
00fffd104fffd0fffd
01fffe412fffffffafffd
3510fffffffffffe0fffd
20fffc053202
0fffb0fffffffefffdfffc20
32131fff8005
fffaffff3ffff27402
20fffe1ffff300fff8
2fffdfffffffc0fffefffffffffffb
113235fffaffff3
1100ffff1fffc0ffff
50fffffffefffd2ffff30
11211ffff4ffff2
3fffdffff02ffff0ffff2
203fffe00fffc11
3ffff08c4fffe56
2fffdfffd2fffcfffefffe4fffa
0004fffb000ffff
ffff3fffaffff4fffefffefffe6
1fffa20fffb5100
01fffc25fffe44ffff
10fffdfffefffffffc031
030ffff20031
11fffefffb10452
004ffff4fffc200
0ffff32fffffffe0fffcfffc
fffe04fffcfffafffafff9fffd3
6004afffcfffa12
02000000fff6
4310fffe5001
300531362
031fffdfffbffff0fffbfff9
fffcfffdfffe0fffcfffd4fffa1
3ffff0fffe33fffdffff5
3fffd3fffe1200fffa
301fffc3fffe033
152fff8000fffefffe
0000fffffffefffeffff2
10fffffffd00302
fff55fffbfffcfffe1fffcfffd6
ffff02fffe0fffd000
4fffcfffc540fffd88
fffffffffffd4020fff71
fffb01fffd122fffffffc
fffdfffd2fffd1023ffff
fffdfff9ffff3ffff1015
0fffbfffe0fffc43fffe1
04410fffdfffd0fffd
0031ffff0fffc2fffd
fffd00fffd1200fff9
282fffd26fffafffeffff
2203fffb303fffd
106fffbfffb2020
fffb431fffd1ffff3ffff
ffff2000fffd021
fffdfffaffff40060fffe
01fffa0200fffc2
ffff0fffa18fff7371
2fffc2ffff2320fffc
6fffcffff03ffff220
fffa0ffff100311
ffff0000103fffc
0fffffffe2fffefffc3ffff5
4fffeffff360ffff1ffff
fff751fffcfffe0220
320fffe0fffdffff3fffe
fffd5134701fffc
0fffe1140130
0ffffffff211fffb0fffb
1006fffffff825fffd
ffff650fff741fffc4
20fffefffffffefffdfffd03
12fffe13130fffb
fff53fffdfffa4fffa006
fffefffcfffd12fffb00fffe
357fffefffafffbfffefffe0
00fffc1fffd07fff91
011fff745fffffffbfffe
fffcfffcfffc13fffffffffffdffff
fffa0fffcfffe53fffd13
fffd0fffdfffefffdfffe23ffff
42fffcfffb002fffdfffd
101fffcfffffff9520
30fffa0fffb7430
06fffeffff23ffff63
5fff80061211
7fffa0fffe10112
fffefffdfffb1fffcfffefffdffff4
fffffffd33fffefffcfffe0fffe
0fffcfffffffdfffdfffefffd20
afffe1afffbfffc3fff9fffe
3fffdfffb1401fffffffd
60214002fffe
fffcfffffff8fffeffff04fffa6
fffffffd2fffe30110
fffffffa0fffd43240
0141fffe0100
fffe131fff80fffd6fffe
2fffbfffe10048fffd
4051014fff9fffb
120fffffffc00fffefffc
11fffdffff2fffd01ffff
fffc07fffdfffbfffc5fffd2
2ffff4fff94000fffc
fffffffbfff9fffdfff7ffff115
110ffff0000fff7
30fff8fff824fffe01
4081fffffff50ffff1
42fff84150fffafffe
23fffd4fffe20fffe0
240fffd30fffdfffcfffe
005fffc0fffffffc0fffa
3fffe4fffeffff2fff80ffff
fffafffe0ffff3ffff0ffff3
5fff9ffff6fffcfffffffb03
fffe306fffefffffffe00
fffc22fffdfffffffb100
fffe332132fffe0
14fffe0fff7fffcfffefffc1
4002fffe233fffe
5ffff3100fffe5fffb
41212510ffff
2600fffefffbfffefffefffd
fffc02fff61fffffffc0ffff
2fffefffe01fffbfffc30
1ffff0fffe102fffcfffd
2fff910011fffb0
5ffff6440ffff30
063fffc5fffffffefffffff9
00211320fffc
fffd50031ffff0fffc
fffcfffffffffffe01040
ffff210ffff0fffd50
fffcfffffffc21fffb0fffb4
01560fffcfffc1ffff
0ffff1fffcfffc0fffe4fffd
5ffff2414fffc1fffd
fffc0fffb04fff8ffff12
02003fffe51fffb
33ffff21fffd222
003fffd502fffe1
1ffff0fff7040fffffff8
fffb3fff9fffc2040ffff
00200011fffd
fffe10fffffffffffdffff01
70fffc4fffd000fffb
fffe20fffe0fffefffffffdfffe
fffd5fffe01ffff2fffffffe
430fffd21fffc0fffd
0ffffffff63fff730ffff
ffff6b3fffdfffcfffc1fffd
0fffefffcfffffffe2fffffffd9
200fffffffd3031
25fffb100fffb5fffe
fffe4fffe0fffc4b1fffe
fffe00ffff1fffffffd01
72fffe3fffb4fffefffe0
fffa20fffe5fffa4fffefffd
fffffffd2fffd82074
fffa6fffefffe5fff67ffff0
2180ffff001fffe
3fffffffd40fff9fffc01
0fffafffc3fffcfffd3fffefff8
005fffa0fffe623
fffd3fffd0fffffffe1fffe1
fffb0fffafffdfff900fffd1
5fffffff506fffbfff82ffff
03004fffdfffb4ffff
00fffdfffd0fffe0fffd4
2fffd40fffe2ffff90
fffffffdfffffffbfffd3020
04fffa3fffc0fffefffefffe
152212ffff17
3fffc0fffe07fffffffe3
102fffa01fffd96
ffff4ffff11120ffff
5ffff118fffbfff8fffefffb
fffefffd3410400
0032fffc0500
fffd26fffefffd7020
fff9fffefffcfffffffffffe1fffe3
fffefffc0fffc25131
60370fffdfffd02
20fffdfffe00040
fffe40ffff50111
0004052ffff1
ffff04fffefffe038fffd
fffefffe7fffffffdfffe0fffefffe
31010fffe323
fffa4fffa40fffd10fffb
01fffd40fffcfffffff91
0fffffffffffd10101
02ffff32fffefffe0fff8
0fffb2ffff800fffdfffe
13fffb02fff8fff702
03fffdfffc3ffff32fff8
30fffe1fffefffcfffefffffffc
26ffff2fffefff950fffb
0fffc0fffb0fffdfffe03
0fffffffd45fffe30fffb
026001304
fffd6fffc100fffffffafffd
34232fffcfffc04
512130500
fffe2fffbfff8fffc2404
0fff915ffff4000
ffff15fffb1250ffff
ffff1230ffff00fffd
0fffd04fffbfffe12fffe
fffa0fffffffc2305ffff
0fffc10fffc310fffc
30ffff2375fffe2
fffcfffafffffffe30ffff62
4042fffd0ffffffff0
fffcfffc0fffefffc2fffdfffd7
fffbffff0fffdffff0061
fffe21fffd0ffffffff15
fffa02331ffffffff1
0fffefffefffe701fffbfffb
4fffc13fff9fffe01ffff
05630fffc1ffff2
041fffaffff6fffb11
fffe0fffd1fff80fffe02
fffefffb000001fffe
8ffff433fffbfffd22
751fffeffff0006
4fffe2ffff0fffb40fffc
fffe00fffe60ffff73
00308fffefffa32
fffbfffd51fffc0fffe0fff9
fffc1fffbfffffff9750fffb
050fffeffff1fffefffc0
216fffbfffd0042
28fffc0fffdffff1fffb0
349ffff01fffe03
20300fffe50fffd
ffff50fffc546fffd0
3003404fffcfffb
04fffcfffeffff50fffefffc
16103fffe820
0fffc0140335
506122fffb04
5fffdfffd01fffefff9fffefffb
fffbfffdfffefffdffff043fffd
fffbfffbfffcffff021fffffffe
01ffff0fffefffc0fffffffe
604171fffffff9fffd
0fff83ffffffff40affff
fffefffdfffe0217b4
031fffd5fffdfffbffff1
1fffd0fffffffcfffa0fffd3
10fffffffe2fffe2fffbfffe
0fffe2fffffffbfffafffd12
200fff9065afff9
fffc6fffcfffdfffffffdfffdfffcfffe
3fff9fffd080fff9fffefffd
00fffc100203
13fffb0fffdfffffffeffff0
1003fffafffb91fffa
15fffcfffd5ffff010
0fffd4fffa01ffff4fffe
12fffd0fffb4fffd17
fffb3080fffe1fffa3
ffff200fffc75ffff3
1fffc10fff9000fffd
202afffefffb110
fffefffdfffdfffafffd1fffd0fffe
fffefff9fffffffdfffffffd00fffe
fffd31fffc1ffff7ffff0
00fffcfffe0008fffe
61fffb9fffdfffb1fffe2
10fffb10fffa002
ffff0003fffcfffd41
0000fffe1ffff33
070fffbfffffffffff6fffe4
fff8fffe2fffdfffb36fffb3
202300ffff65
2fffefffeffff1fffffffb7fffa
0301ffff021ffff
fff93fffffffbfffffffb0fffc0
33fffe12ffffffff2ffff
fffc050230fffe3
fffdfffffff91fffcffff103
312202fffe0fffb
fffffffcfffffffffffb2ffff50
fffb0fffffffcffff36fffffffb
fffdfffcfffc30fff6030
ffff14fffd23fffdfffefffe
fff83404fffffffe24
022fffefffe11ffffffff
fffc5fff9fffb3fffcfffd50
12105fffefffafffd5
123104024
fffe21fffdfffefffdfffe31
300fffe24ffff4fffb
00fffffffd04102
0fffd600000fffb
8205fffc2fffffffd0
fffb0fffd02fffd00fffe
fffb50fffe30302
ffff1fffdfff700fffffff80
ffffffff20fffd02ffff6
ffff6fffd5fffd04fffffffd
fffffffffffafffffffe3460
4fffa21fffeffffffff0fffe
01310ffff43fffc
202222fffa00
fffeffff3103fffe20
5fffdfffffffd05fffc0fffa
64fffefffb1ffff1fffc3
2fff9fffefffefffffffffffe4fffa
020fffc54fffeffffffff
200fff94200ffff
701fffa21fffe0fffc
4fffdffff6fffdfffefffffffffffd
0fffeffff2fff95fffe0fffe
452fffd500fffe0
fffa3200030fffc
007114fffe05
ffff0502fff92fffd6
515fffe06ffffffff0
fff8fffffffaffff0fffffffb3ffff
ffff3fffcfffbfffefffc402
002fffefffcfffaffff7fffb
fffd0fffe3fffefffd4fffe1
fffe21ffff002fffffffd
403012313
fffa0060fffe2fffcfffe
fffdfff9fffb13ffff45fffe
503fffd3fffffffa4ffff
1fff7fffbfffd0003fffc
8fffd2010045
25fffcffff2fffeffffffff2
82346ffff033
010fffdfffe0ffff01
0fffd46008ffff4
2102fffe201fffb
fffcfffcfff7fffc4fffefffc02
01fffe3fffd1004
6fffefffaffffffff0fffefffe2
3fffdfffb4fffcfffffffd0fffd
fffa020fffc7fffe10
fffd244fffb70fff83
ffff0505fffd7fff91
0305fffd035fffd
00fffcfff940fff901
4fffe33fffa15fffdfffe
fffe00fffe09fffefffe5
0fffc117021fffe
fffbfffdfffffffafffd6fffeffff8
7fff864fffffffe220
240113fffb03
0103fffdc30ffff
2fffd02fffd0006
0fffb00fffdffff11fff9
006465330
4432363fffe0
fffd3fffeffff04fffafffc1
fffa2fff8fffb77fff92ffff
fffe0ffff00001fff8
ffff00fffd3ffff410
fffefffc410fffefffd04
16fffefffe15fffe04
fffd0fffefffa0fffefffcfffb1
fffb20fffc0ffff3fffeffff
12fff7fffc000fffe0
43fff9ffff0fffd02fffd
1fff8ffff0ffff25ffff2
1fffb40fffa4fffe30
ffff14fffbfffe6ffff26
4fffe1fffe2100fffe
fffa8ffff0fffe5fffefffd7
10310fffefffe06
045fffdfffc0fff7fffd5
3fffffffd0ffff0530
0ffff2fffffffefffffffefffffffe
002fffffffb4103
004fffdfffe05fffefffe
0ffff2fffffffd33fffffffd
fffd10642ffff10
ffff2fffc1fffc0ffff0fff9
fffd3fffe1fffd2fff701
1ffff6600031
ffff008fffd2710
2fffc0ffff0ffff12ffff
0fffffffefffd00103
ffff4ffff010360
ffffffff5120fffe34
43fffc01fffcfffefffefffd
442fffeffff1fffdfffe6
fffffffd304fffafffffffb3
3003fffe0fffe3fffe
61fffafffe13fffbfffefffb
fffd1fffd063040
fffffffe0fffd61fffe24
11fffb0072ffff1
fffafffe1ffff2fffc1fffb2
6ffff3014fffefffcfffb
1fffefffd6322fffffffd
fffe0024fffefffb3fffe
fffd03fffcfff923fffe2
2fff8fffcfffe4fffe34fffd
00fffc0444fffd2
03fffd41fffcfffefffffffe
fffffffc01fffffffafffcffff2
05fffe10fffb004
050fffdfffe0fffefffd3
fffffffefffd52fffe134
3fffefffd713fffe00
020fffdffff0191
7fffefffa0fffd3fffd2fffc
60156fffbfffb2ffff
fffa20001111
4500000fffe2
fffe04322fffaffff2
fffffffd205110fffd
10fffd04fffb226
fffc0ffff203570
3fffbfffc010253
ffff0100fffffffe16
fffffffffffc0fffd11ffff4
1113fffd2124
fffdffff01001fffe0
0fffffffffffffffe0000
02fffffffd72fffdfff60
0fffa4150240
213ffff03ffff00
ffff0fffffffe00fffd1fffd
fffc0fffc002015
4fffc0ffff3fffcffff0ffff
026000fffffffe2
6fffd2fffefffffffd2ffff3
3ffff020ffff5fffd1
fffd0fffdfffffffcfffd111
1fffc5fffd4fffcfffeffff4
fffb0301fffe0fffe1
0fffdfffd5fffc02ffff0
fffdfff711ffff2fffb30
fffdfffbfffb27fffffffefffd1
ffff01130511
13fffe0ffff1fffdfffcfffc
2321fffe6fffdfffffffb
2fffbfffa0fffffffdfffafffb1
232fffcfffd34fffa6
fffffffdfffe422fffffff8fffe
030fffd81410
44ffff21fffbfffdfffe1
3fff8fffcffff01fffe3fffa
fffefffcfffc01fff8ffff04
50ffffffff545fffa3
01fffe4ffff4fffefffdfffa
06fff7013fffefffcffff
512fffdfffcfff86ffff2
ffff35fffb1fffa12fff9
2fffffffefffd0ffff5fffa5
0420fffe4300
7fffc40fff80ffffffff5
15254011ffff
00ffff1fffafffd024
fffa130fffea1fffb1
0121fffd1ffff4fffd
125ffff003fffefffe
fffd231fff926fffcb
452532fffe0fffc
fffefffe420fffefffc31
115ffff20035
0fffe0021300
152fffdfffe9025
fffe33fffe35ffff34
20fffa6542fffa3
fffafffdffff3fffbffff20fffb
ffff2100260fffd
0fffafffffffb0fffd2fffc1
840fffc233ffff0
fffffffa2610110
2250fffcffff3fffffffe
2fffdfffd3ffff0000
032fff9fffffffafffc0fffc
03fffffffe10543
7fffe7fffb3fffffffe63
fffffffafffd0fffe3420
00ffff0fff91fffffffe0
43ffff3fffdfffcfffbfffcfffa
11fffefffbffff4ffff05
010fffd4ffff2fffda
ffff31fffb714fffc6
fffe32fffefffa47ffff0
fffefffbfffb0ffff2042
01ffff0fffe0fffdfffdfffd
054302054
fffc030fffe6411
57125fffffffa3fffd
2fffe40040fffa4
ffff513fffbfffd3fffbffff
6ffff0ffffffff112fffa
3fffe1130fffe5fffa
13fffbfffcfffd1fffefffdfffe
ffff20fffefffb7fffffffe0
1220fffe010fffe
110fffdfffd8fffb2ffff
314321fffe1fffd
202fffa0fffafffffffe2
fffc1fffe80fffdfffd02
106120fffe3ffff
2fffa33012fffe4
07fffb213fffe00
11360fff9003
04fffbfffbfffcfffd50fffe
fffa2ffff0fffe1105
50fff9fff8214fffd2
2ffff1fffcfffffffffffe1fffe
7fffbfffe2ffff2fffc50
fffc210fffeffff02fffd
ffffffff0fffe0fffafffe19
3fffd1fffefffefff92ffff2
fffa222fffe104fff8
145fffd110fffffffc
fffffffcfffd0ffff5fffd10
fffdfff921fff74203
fffd204054fffaffff
fffcfffb1ffff410fffdffff
02ffff01fffdfffcfffb3
03fffbfffcfffa0fffb4fffd
14fffffffffffffffb0fffc2
fffffff900fffffffb244
fffc02080ffff70
0fffbfffafffeffff0410
2b70fff96fffa2fffe
0fffffffe20fffb00fffc
00ffff2fffd7ffff0fffd
001fffefffefffafff607
0041105fff94
41fffbfffdfffd6211
03003fffd423
0fffe401fffefffa11
1700fffffffeffffffff0
0fff90fffe8fffbfffdfffdffff
fffdfffd1011007
40fffd200fffd31
fffd33fffdfffc0fffcfffa2
0fffc00fffd850fffd
10fffffffefffcfffefffd3fffc
74022fffe1ffff0
fffbfffa2fffbffff00fffe7
fff7fffd04210ffff1
6fffbfff92400fffc4
ffff41fffe41fffe0fffe
00012fffdfffcfffd3
fffb1fffc4fffe0ffffffff3
fffd0880fffefff966
0fffafffa001fffffffffffc
fffa01fffd04030
4fffcffff00fffffffefffc7
ffff33fffdfffe3532
054023fffcfffc0
fff9fffb2fff9fffc23fffcffff
050fffbfffc2aafffe
ffff23002236
14000fffb5ffff0
2fffd03ffff0140
2fffc0fffdfffa0fffc04
01140fffb5fffe3
fffffffdfffa0fff92000
fffc3fffdffff32102
013fffbffff0fffefffcfffc
10100113ffff
00fffdfffe0ffff212
00fffffffd11160
fffffff7fff9fffd3400fffb
13fffdfffe6fffe034
1004336fffafffe
516fffefffd1fffcfffc0
412fffe322fffa3
fffcfffb35fffefffe121
0104fffc2fffffffc2
10007fffcfffcfffcffff
204ffff22fffe16
371001fffa90
fffd02ffff0fffffffc0fffd
fffc1fffcfffe3ffff530
fffa2ffff5fff7fffe02fffe
23060ffffffff0fffc
fffdfffefffe2fffc05ffff0
0fffc34fff80400
543ffff21fffc2fffe
fffd202fffb0265
fffffffd0fffd5fffbfffc7fff9
0ffff0002252
22fffdfffbfff9fffe020
fffcfffcfffcfffd1fffcfffb40
755fffbfffc231ffff
fffdfffffffe2010fffb1
520fffa0fffd111
10fff9fff820231
fffe4fffafffb0fff9fffc12
2053002fffe2
2fffdfffc100fffbfffa0
fffc03ffff3fffa0ffff8
052fff801125
fff811ffff32fffffffd0
fffffffcfffffffe047fffe3
267ffff62fffe2fffc
4fffeffff3fff805ffff5
015100fffe3fffc
10fffbfffffffb2fffffffefffe
7221fffe46fffaffff
46fffefffa00ffff01
ffff01fffb45031
2fffe11fffa224fffd
00fffefffe00020
ffffffff333fffa003
fffefff432fffc12ffff4
0fff85fffe0fffd20fffb
0fffb5fffd02fffe00
fffd1fffb01ffff0fffc0
215fffe10523
fffdfffd00fffb4ffff20
240fffd27ffffffff0
51fffc050fffe3fffc
fffd0fffbfffffffefffcffff05
ffffa02fffa10fffc2
11fffb012ffff60
30fffd33fffd4fffcfffb
3fff901fffa32fffe1
fffc20fffdffff12ffff1
fffafffc2230ffff26
20fffcfffefffffffd010
3231ffff5fffdfffefffb
00703fffe3fffffffd
fff9fff9000fffdffff52
4ffff13fffdfffa040
fffa600fffefffe1fffa2
fff92fffe03fffc01fffc
ffffffff12ffff0fffc01
4fffd22fffd02fffdfffa
004fffe240fffefff8
fffe41fffe2fffbfffd0fffe
ffff0fffcffff50120
fffffffa45fffeffff2fffd1
21ffff1fffe6fffd80
0fffe31fff83814
fffd6fffe2024fffbfffd
ffff03fffefffe3fffe1fffd
ffff0800fffe331
3fffffff922fffbfffc02
fffc0fffd4fffbfffffff941
2580fffbfffdffff0fffd
02fffffffc636fffd0
00010fffe440
8851fffffff9fffefffc0
52ffff930360
5ffff20fffefffffff811
ffff12ffff10fffdfffe2
82fffcfffe0035fffc
ffff3fffffffffff9584fffb
fffd2fffd50fffc540
fffafffefffefffd21fffefffeffff
07fffffffafffdfffe00fffc
0fffd1fffe02fffb31
0fffb3fffafffefffffffd30
fffeffffffff0fffafffd211
fffefffbfff90fffa0fffa1fffe
51ffff20fffefffc12
fffcffff00fffffffe302
2501ffff0fffefffd7
5fffc100fffefffc0ffff
202fffffffefffe110
fffbffff001ffff100
1fffc0fffdfffa0533
4ffff0fffefffe10fffefffc
ffff40ffff745fffffffd
8ffff5fffefffbfffe3fffd1
0500112fffd0
04ffff1fffdfffffffafffefffc
02fffbfffc53fffffffefffb
516fffd0000fffc
01ffff02fffe0fffd5
16003fffd000
96fffffffd00ffffffff7
4ffff0fff83fffdfffbfff9fffa
3040fffefffc266
fffa5fffd01fffd226
fffbfffffffd1fffc0fffd04
fffd05fff9fffffffefffbfffefffc
20101fffd00fffd
fffc01250ffff0ffff
03ffff103fffffffdffff
fffefffc0fffe01fffe2ffff
70fffdfffc3fff90fff8fffa
4210ffffffff101
fffdfffe250020fffd
fffe1002fffa1fffdfff7
302fff90ffff20fffd
241ffff0312fffe
fffdffff05ffff1fffbfffe0
03ffff4fffe0ffff02
5010ffff3030
fffeffffffff629fffa3ffff
12fffe3fffdfffd43fffe
1fffffffffffe300fff91
020fffbffff38fffe0
fffe13fffffffffffffffe45
00ffff4fffbffff052
44fffe2fff7fffe03ffff
fffffffefffd0fffc060fffe
13fffdfffa10fffffffc0
2ffff2fffd31ffffffff3
33100fffe160
0fffc0117fffc04
fffffff902fffdfffdfff94fffd
5041fffffffffffd0fffc
fffd14010ffff3ffff
3ffff030fffa125
0ffff3ffff50143
fff7fffe1fffdfffcfffefffffffe1
3fffc31fffc10fffc1
012004111
fffa00748600
fffe5fffc1fffc30fffbfffb
fffb20fffe30fffcffff4
00fffe0fffefffe02fffc
5ffff1fffc4fffd5ffff2
fffe324fffa0fffd30
6fffc31fffd8022
fff9fffd103fffe633
515ffff00fffcfffefffc
9711fffafffd420
fffd02ffffffff3380
1fffefffe410106
22790fffefffc5fffd
812fffa4fffe23fffd
fffefffa40ffffffff000
ffff43fffd01fffb01
0fffe30ffffffff302
3fffd201fffeb55
ffff00066130
fffcfff7740fffbfffc2fffc
fffc2ffff40fffafffefffb0
ffff0fffe701210
fffcfffdfffb000fffe2fffe
26ffff000fffeffff3
fffdfff903fffa0fffc21
fffdfffefffe00203ffff
fffcfffe20fffdfffefffefff9fffa
fffb0fffd300fff9ffff3
101fffa353fffffff8
fffefffd0038fff80ffff
fffdffff42ffff1002
2030fffd020fffd
fffefffffffffffd421fffe1
20015010ffff
02fffd0fffc24fff93
ffff00210ffff0fffe
0fffb4ffff4204fffd
fffdfffdfffefffffffffffb17fffd
320fffe53ffff50
3300fffdfffe003
0fffdfffffffcfff7ffff021
ffff5fffc0ffff040fffd
0fffd0ffff4402ffff
3fffffffb20fff954fffc
52223fffe00fffe
fffffffbfffe14ffff411
02fffd011fffc20
332fffbfffb0fffdfff9ffff
01fffffffefff64ffff1fffb
fffa7ffff0fffbfffb51fffd
fffefffffffbffff5fffe403
2fffe0fffdffff0251
5010fffd0fffbffff3
0fffc03fffb02fffafff6
fffe42fff800fffdfffd2
fffd02fffd945fffd5
0ffff2fffd2fffefffffffa0
1314fffefffe1fffafffe
443023fffd5fffe
2fffd0fff911fffcfffcfffc
4fff904ffff07fffefffe
fffd001fffb0fffe36
fffd3fffcfffe0fffefffe14
ffff1fffe1440ffffffff
11ffff21ffff02ffff
30fffefffffffefffdfffafffe2
1fffc3fffbfffe0fffb23
28fffafffa522ffff1
fffc0fffefffe5ffff112
03fffefffe4ffff112
fffe00647fffe13
fffd2ffff84405fffd
4206fffbfffeffff21
02fffd00fffc0fffe6
fffcffff1fff9bfffd017
fffd400fffd1020
fffe1fffe301fffe00
1fffefffffffd00541
ffff020fffe011ffff
12fffdfffa0121ffff
fffe1fffffffb25ffff62
fffe2fffefffa2fffbfffaffff1
0fffdfffffffefffefffc254
fffa20024fffeffff1
fffffffffffc0fffd1ffff30
140fffc43fffdffff1
fffbffff3fffc12ffff05
ffff0ffff17ffff6fffb8
0fffffff9ffff2fffe072
fffffffdfffcfffb3fffd020
6fffefffffffcfffc3fffefffe4
fffb03460fffefff90
2fffafffefffd31fffc00
50fffdfffffffdfffc305
fffe35fff77fffcfffffff90
100fffc200fffffffe
002311fffdfffd5
fffb00fffb20fffe22
1fffd0fffe4fffefffe20
fffbfffffffe70fffffffdfffcfffc
0fffe100fffb100
fffdfffd3003023
ffff11010303
1ffffffff3fffeffff006
0fffdfff8fffdfffe000fff7
02fffa111fffc0fffe
300fffe00fff900
afffe0fffefffe6fff7fffe1
420ffffffff00fffefffe
1fff51ffff4fffafffcfffb5
fffb0fffe20200fffe
0fffffffe3fffb110ffff
21ffffffff004fffffff7
fffe203ffff0fffefffffffd
fffe4410042fffe
001fffcffff4fffefff90
fffc2fffa335fff721
142fff9fffa0307
fffffffe0fffffffdfff9002
70fffd0002fffb0
0fffffffc31ffff02fffd
05fffb20fffffffc21
0fffcfffeffffffff21fffffffe
0011ffff0343
17fffe02ffff00ffff
fffe2fffe2fffc34fffe0
fffbfffb1122fff8fffdfff9
5fffb03ffff001fffc
fffffffcfffdfffdffff0fffe03
053ffff120fffdfffa
0fffe00fffefffa1fff92
fffb02401fffd00
12ffff26fffaffff00
fffe00fffa430fffeffff
3fffc1fffc00070
fffd22fffefffefffdfffd10
fffc24302ffff0fffe
fffdfffc54fff7031fff9
4fffdfffffffdffff3fffefffd0
fffdfffcfffc3fffd1ffffffff4
ffff00fff905fffa20
0006fffc50fffafff7
052fff9065ffff4
10010031fffe
fffa4337117fffe
0fffffffd4811fffb3
174130fffdfffe0
fffb2fffa304ffff0fffd
fffa5fffc003635
50fff8fffa0120fffe
fffcfffeffff0fffd0fffffffefffe
2ffff2fff9fffffffcfffefffd1
0ffff30003ffff8
ffff700123fffd0
fffc2436fff8250
fffefffbffff1ffff1432
0fffdfffd1fffffffefffd40
1fffb51fffffff6056
fffb0fffbfffcfffc3131
fffe00fffe10fff92fffb
fffd2fffdfffa4fffdfffb34
0230fffa1fffe1ffff
fffffffb10fffa501fffa
3fffd41fffe114fffe
230103fffe00
ffff00ffff03ffffffff0
fff8ffffffffffff69fffffffd0
fffcfffe0ffff6fffd4fffafffe
fffc0fffffffc10fffffffe4
3fffefffbffff0fffc310
fffcfff92fffefffb1fffa21
004fffc503ffff2
fffcfffbffff23201fffc
fffffffbfffb420fffeffffffff
fffc0fffe20fffe4ffff0
0fffffffd2020ffff3
ffff167fff10002
0fffe35fffb0fffc5fffe
1ffff044fffb642
fffbfffafffd0340fffd4
520fffefffbfffefffe63
ffff20fffb0ffff703
ffff1fffefffb010fffeffff
fffdfffdfffdfffcfffffffeffff0fffc
3ffff4fffffffe0fffd35
11fffffffffffefffd91fffc
fffd0150fff9102
fffb4fffefffafffbffff701
0fffd1fffefffdfffcfffdfffe3
fffafffd333ffff202
fffeffff5685ffffffff0
fffffffe5003ffff28
1ffff030ffff10fffe
6fffe400fffffffdfff9fffd
fffffffd14fff7fffe514
2fffdfffdfffe147fffefffc
0fffe45fffd05fffdffff
11fff9fffa05fffe6fffd
108000fffbfffe2
1fffd2243fffd06
200345128
002100030
fffefffd0fffffff93510
20fffd1fffe14ffff1
fffdffff4fffdffff4416
fffbfffb117ffff1fff8fffb
fffd31fffdfffa4fffefffe0
fff8fffdfffa0fffcffff800
061fffd00ffff20
2fffdfffc0fffcfffa1fffffffa
fffcfffd35300fffefffd
3fffd3303100
fffcfffefffa0fffffffe4ffff0
00fffcfffdfffeffff00fffa
fffa3580fff8ffffffffffff
02fffffff60270fffe
fffefffd21fffa3ffffffff3
2fff9152fffafffa64
100fffffffdfffe01fffb
033fffbffff4120
2105ffff20fffd0
0fffc03004fffefffd
1fffefffb8602fffb0
fff6fffa3fffcfff623ffff2
2ffff0010fff8fffe7
ffff40fffafffbfffdfffe15
0500020fffdfffc
142fffffffeffff32fffe
ffff52fffafffa6fffffff70
fffafffe4713fffdffff2
0fffb02fffefffe600
3200fffeffff03fffc
ffff412ffff0002
41fffe01100fffd
500540ffff41
a31fffa2235fffd
fffd3fffefffc51ffff00
1ffff1120fffffffd5
00fffa60032fffe
0fffffffc130101
7fffc102fffe1fffefffe
fffd032ffffffff4fff93
10fff5fffafffb430fffc
141fffb02fffe00
00fffe0fffdfffbfffffffcfffb
6fffefff601ffff20fffe
3114fffd0fff82fffe
23ffff001220
2fffc1fffd04132
fffeffff0fffefff74fffe11
003240001
0fffe009fffb9fffa2
15fffb124fffdfffc0
fffc301fffafffffffdfffc1
414061fffd06
12ffff010010
20fffd00fffcfffe11
3fffffffcfffb0fffc0fffd3
fffd0fffdfffe2fffc112
001fff82fffd201
2020fffdfffe3fffffffd
310ffff51ffff14
0fffffffefffe02fffd22
0ffff32fffafffe00fffd
fffcfffdfffe33ffff264
12fffd0fff9ffff4fffcffff
8fffe001fffefffefffe0
0fffd0533ffff0ffff
fffffffc10fffa0232
fff5fffaffff5700fff9fffc
31fffb350023
04232fffefffefff9fff9
fff9fffda203fffc72
0fffbfff6fffb1073fffc
fffc5fffa0034fffc0
fffc407fffc1fff920
1fffd05001fffd0
28fffefffdfffcfffc534
fffbffff9fffdfffd28fffe2
fffbfffefffbffff0fffffffe0fffe
0ffff100fffe004
60fffffffffffd2ffffffff1
0fffbfff6010fffefffcfffa
647003fffa17
fffcffff006fffe61ffff
0fffbfffbfffd0fffd1fffb0
fffb04ffff74fffcfffe3
03fffc00ffff019
33fffa42ffff001
fffc20020ffffffff0
040012fffe00
0ffff6fffcfff5fffd353
0120fffffffefff8fffefffa
3fffd3ffff00fffb42
14fffeffff114fffffffe
0442fffd131fffe
ffffffff5fffefffb3012
30fffc3fffe001fffe
284fffffffc4ffff02
8fffffffd40fffe03ffff
fffd35fff53fffffff9fffc5
3ffff052fff83fffafffa
201210fffea0
fffdfffc2ffff0fffe0fffe1
fffcfffe0ffff03fffe45
01fffdfffcffff0fffa2fffb
11fffc40fffb10fffb
404fffd040ffff0
0ffff504fffcfffefff90
142fffc65fffc37
fffe101140ffff0
0fffd0ffff01fffeffff0
fffa213fffcffff50fffe
0fffcfffffffffffffffffffe5fffa
120fffdfffefffe0ffff0
fffcfffe674000fffc
2fffb00fffa60fffe3
7fffd1fffa0fffe24fffd
0ffff00fffefffefffffffe0
ffff0fffdfffefffc0320
fffb24601fffc10
120ffff01fffd30
20021ffff554
fffd00fffe4fffffffdfffd4
0fffcfffe01fffdffff1fffd
3fffefffcfffc40334
0fffb4fffd030fffd4
1fffb0fffc0fffb034
3150ffff8003
0315fffdfffefffffffe1
1fffe4ffff1fffe10ffff
47fffe10ffff031
04fff90fff6fffc312
fffc2fffffffa0413fffc
0415121ffff0
1fffefffd16fffd50fffc
03fff9fff4fffffffe010
381fffeffff0ffff3ffff
0ffff1fffc64fff9fffc5
fffefffaffff1fffefffe010
fffa0fffffffefffdfffc4fffdfffa
6ffff60fffe023fffe
24fffd11fffdfffafffc1
2fffc0fffbfff8311fffd
1fffffffffffc0ffff160
ffff3fffe320400
6fffdfffd4fffd140fff9
fffc0fffd10fffc3fffcffff
10fffefffd1fffd0fffffffd
8850fff7ffff2fffe6
20ffff3fffd0fffcfffffffc
fffbfffe1ffff0fffefffc3fffb
fffe3fffe4002fffa0
ffff2fffffffe1006ffff
ffffffff0010013
fffefffafffdfffcfffffffd00fffc
0fffe0ffff101fffd0
fffd30fffafffc0200
fffcfffffffa434fffffff82
fffc60ffff414ffff4
0fffd21fffd33fffe4
fffffffefffefffd0fffefffffffd0
fffefffcfffa0fffe1120
003424ffff0fffd
0fffffffcfffe1fffcfffe3fffc
ffff0212fffe2fff9fffe
0205fffe850fffe
3fffcffff00fffa14ffff
01fffefffcfffd47fffe0
ffff0fffd0fffd0420
001135fffb01
0fffbffff5fffdfffc20fff9
fffdfffc1fffb0430fffe
017ffff02242
ffff030703fffc1
4ffff15604fffd0
0fffefffcfffe302ffff2
112ffff1fffffffcffff8
fffdfffefffb0200fffbffff
774000503
0ffff00fffefffffffd12
1fffc74fffe041fffc
ffff37310fffc06
fffefffe3300fffa21
040013021
fffd003fffdfffcfffa2ffff
2fffb50630fffd0
fffc5fffd2fffdfff9ffff00
010510110
0fffaa4fffd005fffe
3fffffffd0020fffd0
4502301fffbfffe
003fffe20fffb14
fffd110fff422fff82
fffc041fffd2020
fffcfffa00320ffff2
15011fffffffe0fffe
20fffffffdfffe0fffffffdfffe
020fffe44fffffffd1
fffdffffffff8fffe043fff9
00fff90222fffdfffe
fffe030fffc1004
fffdffffffff5240fffffffd
2fffdfffcfffd8fffd4fffe0
ffff14fffa056fff84
fffa101ffff130fffd
ffff1fffcfffe020ffff1
00314ffff10ffff
06fffc3ffffffff00fffb
fffe00fffc2fffa625
fffd0fffc30fffcfff72ffff
fffdfffd0fffd4fffe102
fffe0fffffffd51fffe31
fffeffff2005fffffffe1
1fffd0fffd0fffe5fffc0
0111fffe1027
fffd406fffffffe4fffcffff
5fffc3fffe04045
26fffcfffe10fffffffdfffe
2fffa21fffefffc025
ffff0fffcfffa0fffd254
30fffb31fffafffffffcfffc
00fffefffe0ffff03ffff
25322130ffff
fff9fff7fffd42fffffffafffdfff8
0ffffffff01556ffff
fffd3fffaffff03fffafffd2
3fffe40fff911fffdfffc
01ffffffff11fffdfffcfffc
80034140fffe
4fffd030fffffff933
fffd14fffe12ffff41
0125fffb08ffff5
ffff02ffff013fffc6
fffbfffdfffffffb01231
21fffcfff96fffd07fffd
715fffdfffc5101
2ffff31fffe05fffc0
3fffbfffa03fffd2fffb3
fffb43fffbfffe2200
1fffefffd20fffe2fffbfff9
6fffbfffefffd5fff801fffe
14ffff0018fffffffd
7fffa5530fffe42
fff8fffefffc0fffd4436
fffd2fffbfffb10ffff1fffb
11fffd1052fffe3
81020fffefffdfff8fffc
fffcfffcfffd0ffff0fff9fffd2
1fffffffc4fffcffff66fffd
fffbfffafffe3fffffffe11fffd
0ffff0fffe62fffb20
0fffdfffdffff4304ffff
ffff2fffe030fffc3ffff
002fffe020ffff7
5fffcfffe12fffc001
207fffb0fffefffe12
0fffffffffffb002fffd0
fffdfffe5fffe103fffefffb
fffd05fffe5fffd25fffe
fffe0401120fffd
fffc1fffd541fffefffeffff
ffff0fffdfffafffb42fffc2
fff92ffff0cffff63fffe
3fffdffff232ffff13
3fffc05fff610ffff1
fffe1ffff202ffff5fffe
0fffd6fffdfffffffbfffd32
0fffa5186400
fffdfffb000fffe1fffc0
2fffdfffe01fffd2fffe1
fffffffd720fffdfffe11
fffe7fffcfffffffe1412
ffff0fffcb34033
07fffdfffd0fffe4fffe1
ffff5fffffffffffc1300
fffc1fff720120fffe
20fffd500ffff1ffff
40fffe51fffc0fffe4
fff7fffa2ffffffff1fffc3ffff
fffc30410300
4fffd0203170
0ffff1fffd5ffff5fffc5
fffffffd00ffff0fffd42
ffff30fffeffff114fffb
5fffa0ffff7fff9ffff02
33ffff001010
3fffc404021fffe
3fffe0203fffefffc0
0fffb04fffefffc251
23fffb9fffbfffbfffffffffffd
ffff3fffe0ffff20ffff4
4100ffff0fffffffc3
4fffc0ffff22fffc0fffc
0100fffd105fffc
40ffff120120
2fff90ffff0fffe014
fffdfffe044fffd1fffe0
fffd0502fffe0ffff2
0ffff0fffb7fff8fffcfffc0
1fffffffd24000ffff
ffff3fffefffe0ffff008
00fffefffffffe0113
fffd11fffefffffffa055
16fffffffe60204
0ffffffff02fffffffc1fffe
1ffff23fffd0fffcfffcffff
ffff04fffffffd1300
010fffffffcfffe702
3fffe1fffe41605
fffc0ffffffff13fffc03
0120fffbfffffffe00
01ffff404361
2fffbbfffcfffa5fffe3fffe
fffeffff0010323
4fff45fff99fffc0fffd4
0004fffa1330
fffeffff2fffd4fffffffdfffcfffd
fff804fffafffd1fffbfffd0
0fffd067fffe021
01ffff00ffff030
2fffb0341fffdfffafffc
6fffffffffffc11fffbfffa2
0800fffd4ffff02
fffcfffd0fffe60fff902
005fffafffc205fffe
0fffdffff1fffc1403
130fffffffafffffffb06
4fffe0fffd130fffffffd
0201fffefffafffefffe1
7fffb501fffc03fffe
fffd4fffdfffe20ffff0fffe
353fffdfffcffff1fffb2
1fffe4000fffc2fffb
32fffdfffefffb6fffe12
0ffff20fffffffd03fffa
3ffff01fffb23fffe3
3fffd422fffc032
fffdffff6200323
5022fffbfffc123
ffff3ffff46fffb0fffe0
33ffff0015fffffff9
01fffe53010fffc
0200fffdfffffffb2ffff
ffff1ffff12fffffffffffeffff
fffd601fffa4fffa02
fffe60fffdfffefffe1fffe0
2000fffd0002
ffff2fffcfffffffe51ffff1
12fffc0fffe5fffcfffe0
fffb05fffdfffdffff120
01573ffff0fffefffd
1fffbfffc9fffa237ffff
fffd0fffd3001fffe0
fffd401ffff2411
fffcfffefff9fffdfffe00ffffffff
fffffffc1fffd34fffb02
6fffffffd0fffbffff02ffff
04fffc1fffe2fffffffaffff
ffffffff0fffb10301
100fffcfffc20fffe0
3fff6fffeffff11ffff00
3fff9fffd1ffff130fffd
0fffc204ffff0fffe5
00fffdffff0ffff72fffe
455fffbfffe3fffefffd0
fffd30fffffffd21fffb1
401fffc001ffff0
0fffe322fffc5fff9fffb
00fffd0fffffffe3fffeffff
fffd2fffd7fff8d1ffffffff
10fffb7110fffefffc
8fffdfffdfffc10fffeffff4
06fffa52ffff0fffc3
043fffeffff0003
fffefffbfffc1fff9131fffc
ffff1120123fffa
fffefffe0fff904fffd0fffe
00fffc1ffff201ffff
25fffb3fffd1fffc6fffd
2fffe43fffffffcffff1fffc
1fff774fffe0fffc21
fffc5ffff010fffc4ffff
041030fffffffb1
1fffdfffe0fffefffdfffe04
0000ffff2320
fffc511fffb06fff90
4fffdfffe309ffff3fffd
fffefffd022fffd400
0fffd210fffd11fffe
bfffd502fff8fffe00
fffd40fffeffff1202
ffff00fffffffd52ffff0
1fffc336fffffffcffff0
fffd21fffaffff40fffdfffd
2fffb25ffff31fffbffff
ffff21fffa00fffeffff1
ffff3fff703ffff300
8fffefffdfffffffe1041
017fffcfffefffe10fffd
fffffffa8fffd0fffffffb02
50041106ffff
fff7afffa05fffc00fffb
2102fff70fffc3ffff
00fffcfffd10fffdfffefffa
fffdffff0322ffff0fffe
ffff9fffd2fffefffd33ffff
fffa012fffc6ffff2fff9
2fff752fffeffff020
fffd4fffe2fffd2022
fffe640fffdffff0fffdfffa
6fffc1fffcfffe01fff60
fff9353ffff1051
05ffff23fffffffe03
fffe0244fffc41fffb
fffe023fffffffeffff30
0fffffffe001ffff2fffc
ffff7fffe0fffd125fffc
04fffe0ffff0000
fff26fffcfff84234fffe
12fffd3fffe010ffff
1fffe4132fffd1ffff
3fff91100fffb0fffe
fffffffefffffffefffefffcfffe4fffc
9fff56fffcfffffffd70ffff
2fffd000fff90fffe1
fffd5fffcfffefffc1300
ffff010fffcffff201
0ffff1fffc5ffff1fffb3
fffcffff465ffffffff6fffd
00fff920fffe002
fff9143fffe06ffff5
6ffff31000fffeffff
02ffff4fffa3fffd0fff8
1ffff21ffff0ffff2fffa
00fffe074fffd00
fffd4fffdfffe10680
3fffbffff28fffe26fffb
fffd2ffff00300fffe
11fffc8ffff311fffd
fffa3fffcfffbfffe300fffc
0fffdfffb134fffffffcfffe
fffc0713ffff0fffffffe
260fffdfffe003ffff
340fffcfffb73fffffffd
fffd50fffffffe0ffffffff0
ffff01fffe3fffeffff0ffff
ffff02ffff0fffd052
2fffd4fff86fffdfffdfffdffff
fffd60fffc112fffa0
fffc21000190
0fffd713ffff0fffe0
ffff3fffe310201
3fff46fffffffc1fffd72
ffff1fffe00fffffffe02
532051fffc33
fffe4fffe3fffb6fffd1ffff
54fffdffff130fffeffff
fffffffaffff03fffe321
8fff6d2fffbfffbfffd10
3021fffcfffdffff2fff7
3fffd20fffe0442
1fffb300ffff23ffff
0fffcfffe0022fffe5
00ffff4410ffff2
3fffc26ffff0014
84fffd0fffa1fffffffffffd
fffd01fffefffefffafffffff9fffc
fffd15fff924fffd22
fffe2fffdffff06036
4fffd0ffff4fff70fffcfffc
20ffff0ffff0fffe0ffff
02070630ffff
10010ffff412
11141ffffffff0fffb
2fffefffdfffe50fffb0fffe
fffeffff4fffe5fffa13fffd
0ffff301111fffc
0226030ffff2
041600fffd0fffe
012fffcfffbfffa300
fffe01fffcfffbffff035
002141ffff12
3fffe00fffc030fffe
6040fffe0001
ffff80fffc1fffd002
221fffc221fffe4
fffffffe3ffffffffffff034
30309fffd506
7fffb9fff97ffff004
fffffffc7fffefffc3fffc0fffe
2ffff30fffe5fffd01
fffafffd11020ffff5
fffcfffffffffffe065ffff3
2fffd3fffdfffe000fffd
ffff2fffffffefffe3fffefffeffff
036fff87fff7278
ffff12040011
ffff0ffffffff1ffff65fffe
fffdfffffffc1232fff93
0fffcfffdfffe0320fff8
5fffe17fffe6fffe23
0fffafffdfffc00ffff20
030fffd10fffaa0
fffcffffffff7fffcffff405
ffffffff04fffe400fffd
81fffe256203
33ffff00401fffb
3fffbffff101fffe0ffff
2fffd41ffff222ffff
fffe0fffa02fffa8fffffff7
fffdfffb0250fffb3ffff
fffefffdfffffffefffefffd02fffe
4fffcfffe2fffefffdfffd2fffd
fffb4fffa200ffff30
0fffa0102ffff04
0fffe1010241
fffe0fffd0fffffffe2fffffffe
fffdfffdfff4fffc0fffbfffc26
ffff1ffff6ffff2101
0505fffcfffe020
fffcfffeffff2fff9fffafffb02
30fffcfffbfffe3fffb5fffd
0fffe4fffeffff50fffc4
fffcffff00fffc0215
fffe1fffdfffffffdfffdfff80fffd
000fffe200ffff1
fffcafffb2fffa3fffffff6a
ffff11fff84fffbfffb5fffd
0020ffff12ffff1
100fff91fffcfffffffffffc
fffa3fff94ffff0fffbfffe5
fffd0fffc02fffe0ffff1
ffff1fffffffd01000
0fffe0330fffe01
ffff0fffffffffff804fffafffe
105ffff30fffefffeffff
1fffe02fffb0fffd00
fffd3fffc026ffff70
fffa10fff8fffd0030
fffdfffc60fffe7ffff3ffff
0fffd3fffdffff0040
45fffe2fffefffe022
510fffe0fffc3ffffffff
0336fffe0fffc2fffe
ffff420fffb1012
545ffff1ffff0fffe4
2fffd4040fffbffff0
fffffffd5fffd31001
fffdfffefffe2fffe1112
5fffe02fffbfffa03ffff
fffd0060fffbfffd10
fffd7fffe04fffaffff0fff7
fffcfffdfffe10fffe007
fffbfffe060fffefffffffefffe
502fffc3020fffe
000fffcfffb2220
4026fffdfffffffe22
20fff60fffd23fffeffff
543100fffffffb2
941020fffb01
0fffe20fffa6bfff93
1401fffdfffffffcfffdfffd
ffff0fffafffbfffd5024
37fffa1fffd04fffe0
1111fffeffff24ffff
ffff52024fffeffff0
ffff2fffe1410fffd0
42ffff20fffd151
5103fff620fff9ffff
4fffefff80ffff464ffff
fffbffff03fffc10ffffffff
0fffd02fffc7fffdfffefffe
1fffc3fffc25206
0fffeffff0fffb30fffc2
fffe00500fffefffafffc
2ffff5fffdfff9fffdfffc10
23fffdfffefffbfffd012
0fffb163fffb10fff5
0ffffffff1ffff05ffffffff
6ffff50ffff11fff61
616fffffffc8307
ffff00fffb52fffffffc0
2610fff8fffcfffe0fffc
fffbfffffffe305726
10010ffff203
3fffefffffffe00ffff16
ffff00fffd0fffdfffffff7fffc
00524fff9fffdfffd0
0304230fffc1
0ffff51fffefffffffffffdffff
fffffffd6fffd2ffff204
fffa1ffffffff0ffff0fffd0
ffff13ffffffff1fffffffffffb
fff80fffdfff70fffbfffe2fffd
fffe1036fffd20ffff
fffefffefff9fffffffd1724
ffff11010fffd0fffd
fffefffb00ffff1fffdfffc1
001025fffefffe6
2140fffe00ffff0
fffefffe4ffff11002
43100fffffffffffe3
fffdfffb41fffd54fffcfffa
21731202fffe
0ffff1ffff2fffafffe20
5027fffc02fffffffe
fffffffffffc004100
fffefffe7fffdfffe00fffd2
33ffff14fffe000
206fffe3fffefffa0fff9
2fffd2fffcfff81fff9fffe0
fffbfffefffe04ffff20fffb
030fffe0fffdffff30
fffd13fffffffd12fffe0
fffeffff1fffcfff9fffb62fffa
fff9222fffdfffc1ffff6
2fffc0fffefffcfffa532
040050442
fffa3fffc412ffff02
fffaffff0fffc75021
520ffff21fffd24
00ffff34fff9fffe4fffe
fffe06ffff1fffb320
fffb00110030
1fffc52fffd30fffdffff
fffefffcfffe030010
ffff0fffefff82fffcffff1ffff
5fffa60fffb115fffc
003011fff7fffffffb
004fffefffd17fffe0
1200fffb5fffd33
fffbfffdfffd34fffb110
fffffffc0fffaffff233fffe
000232032
1fffc11fffbfffffffeffff6
1fffd64fffffffe2fffe0
fffe2fffcfffa64345
0130fffe7fffd0fff9
012fffffffb2fffafffffffc
2ffffffff1fffe22fffc3
01fffefffd034fffd4
ffff1fffc133fffa80
0234fffd0ffff03
0430ffff0002
0fffc0fffcfffd0fffeffffffff
fffefff8ffff230460
34052fffc215
fffe4fffdfffcfffd4003
0fffffffd33fffcfffc0fffd
fffd23fffeffff3fffe00
fffe30030070
02fffa0fffd20fffbfffd
2fffe0060ffff1fff9
fffdffff0021ffff8ffff
01fffc009fffe0fffb
11ffff1fffb051fffa
504fffbfffd04fffb6
ffff411ffff0fffdfffc0
3fffc3fffffff802ffff0
ffff05fffa03542
2ffff0303714
fffc4fffdfffbfffefffb0ffff2
02fffe01fffe5fffb3
2fffe46106fffd0
1001fffdffff502
223fffefffe331fffc
2fff742fffcfffe11ffff
b0fff80fffc91fffefffc
5212ffff3fffefffeffff
fffeffff2363235
fffffffe30201fffa6
0012005fffc4
fffc0fff9fffe3fffd451
312fffb0fffa022
1a011fffdfffd06
fffcfffafffffffb4fffe373
5126fffe10fffbfffb
0fffbfffeffff10013
fffe0000ffff00ffff
fffbffff4fffffffe3ffff12
0fffcfffafffffffefffeffff76
fffb0013fffdfff73d
fffe05fffefffcffff0fff9fffc
0fffbfffb07fff905fff7
fff81fffc4fffc3fffffffe1
7fffc41fffb22fffe2
08fffe06fffbfffc2fffb
0ffff0fffffffc0fffd30
ffff2fffefffd3fffe023
2fffd52fffc5630
100422ffff0fffd
ffff13fffc10fff912
3051ffff03ffff2
384fffd0fffffffbfffcfffd
4fffb3fffcfffb9324
300fffe2fffcfffb20
000fffe3fffe541
02fffdfffc0fffffffcffff0
fffdfffc30ffff05fffb1
040fffb03fffe01
202313010
ffff20302403
fffc00001fffffffbfffd
0fffd1fffdfffe401ffff
0fffdfffdffff20ffffffff0
200fffdfffd0fffefffb6
20ffff5fffefffb0fffefffa
fffcffff008fffdfffcfffffffb
fffe034fff735fff62
ffff10ffff76fffdfffc8
fffc03462ffff70
00fffe501403
00400fffe03fffa
ffff72ffff40020
0fffd4305410
fffcfffd523408fffc
fffd3fffb1fffc1602
3ffffffff1fffd1fffd02
306fffffffe53fffeffff
1fffc3fffeffff72fffe3
fffe0fffb0301ffff1
6fffefffe109fffbffff1
fffeffffffff100012
1fffd11fffc1111
0fffefffa52fffc215
1fffd0ffff02fffd0fffe
0801ffff3fff900
fffa4ffff092338
343fffc140fff61
fffb54ffff127ffff0
5fffa84fffd040fff5
ffff101fffe0003
5fffffffa21fffe05fff8
fffe5054ffff2fffbfffd
1fffd4fffd821fffb0
0400fffcfffd174
ffff4fffe210003
fffffffe0230fffffffbffff
ffff2fffa703150
fffd7ffff011fff9fffe9
c115ffff000ffff
43500fffffffe0fffd
fffcfffe2000412
00fffe17fffdfffd30
5fffe56fffcfffdffff6fffe
2fffb040ffff45ffff
460fffe0fffffffc22
fffe0fffe07fffffffc0ffff
21fffe0003fffa0
fffffffc1fffefffeffffffff50
fffdfffbffff4fffcfff6fffc20
fffe1250ffff500
45fffafffffffa1fffe0fffd
212fffa2ffff0fffc2
fffb4fffafffffffbfffb0fffe2
fffdfffe7fffffffefffa1ffff0
012fffd03fffcfff70
200110fffcfffbfffb
53ffff450ffff4fffe
34fffd303fffbfffb3
470fffc7ffff233
fffc400fffc0034
ffff0fffd142003
4108fffefffcfffc02
02330fffdafffe0
ffff4fffefffa3fffe10fff9
fffe0032ffff000
ffff20fffdffff02fffb4
12fffeffff7420ffff
fffc32fffdfffe2fffc05
fffefffefffffffefffeffff2ffff0
10fffcffff0fff93fffe2
310013fffcffff2
1fffeffffffff0fffefffe2fffc
402fffb4fffb715
06041fffdfffe10
010030fffe76
fffe2fff720fffdfffb13
8fffffffc62ffff00fff9
02fffa4fff8fffd110
fffefffb0411240
fffc445fffc025ffff
1107ffff105fffe
0fffe50011fffcfffb
fffcfffc44ffff13ffff0
1ffff151fffcfffffffbfffe
fffbfffdfffe002fffcfffbfffd
ffff01fffd10060
30fffe33ffff401
fffe05fffb07ffff02
40fffaffff1fffa220
1420210ffff2
200fff900fff900
fffc015fffbfffffffc6ffff
43fffcfffffffe014fffe
fffdfffb00622ffff0
fffd0374111fff9
2fffe02fff9fffcffff2fffe
4534fffe0fffa2ffff
0ffff1fffefffe147ffff
0fffc06fffc04fffe1
fffd023108fffcfffd
fffd57fffefffc0000
ffff06fffcfffdfffbffff1fffd
fffdfffc1000fffe0ffff
ffff31100ffff03
fffcfffffffd14fffc0fffdfffc
fff701026330
fffd5fffc411fffefffdfff6
014ffffffff01ffff5
33fffffffefffe4021
664fffefff9fffc021
ffff04201fffffffb1
02fffffffbfffdfffbfffffffdfffc
ffff00210430
fffbfffd01fffd0fffefffd1
0008104fffeffff
1224fffefffffffdfffffffa
fffb4fffe01fffb06fffe
fff85300fffbfffc0ffff
5fffcfffe03006fffc
010fffe531fffdffff
ffff5fffe0fffe4210
032fffe51fffeffff2
33fffafffd0fffd965
0fffe0fffbfff65044
40fffeffff0204fffe
0fffd4fffc6ffffffff4fffd
fffd9fffe2fffa2000
20122fffe601
ffff13fffb20fffe47
52ffff0001fffcfffc
ffffafffcffff510fff8ffff
fffefffc2ffff00fffefffe4
1104fffffffe4fffffffe
033fffdfffffffe10fffa
1fffdfff9700fffafff7fffe
44ffff046fffa21
2fffffffd03fffe203
fffcfffb120fffbffff0fffd
ffff0fffdfffe5fffe053
21fffd001fffb2fffd
ffff00251700
ffff1fffafffe3001fffe
fffdfffdfffb00fffe503
fffbffff055fffe120
60fffd1050fffffffd
4404fffffffcffff0fffb
fffcffff06fffdfffcffff03
0fffcfffffffffffbfffffffefffc0
fff830fffdfffd3fffbfffcfffc
ffff0fffc0fffc010fffb
50ffff2ffff32fffe2
fffffffefffffffc1fffdffff0fffc
fffd1ffff2fffdffff8ffff2
001fffafffd1330
00ffff0fffafff9002
fffb123fffe1206
fff90fffeffff15fffcfffdfffe
fffe010fff95fffe00
2fffd0fffefffffffefffe00
fffffffb0ffff20fffdffff7
fffe3fffd331fffe1fffd
20fffcfffd9fffcfffffffefffc
fffeffff4fffe10315
7fffd4260000
130fff952fff802
fffe3fffffffa0001fffe
fffd10fffafffd1fffa22
0530fffbfffe003
23fffefffc11021
00ffff590fffe10
40fffe0fffa41ffff2
fffd20ffff7fffd2fffefffe
1fffe260fffefffc1fffe
0303fffcffff0fffbfffa
2120fffd116fffe
fffffffe64fffc20fffcffff
33fffe01fffffffefffefffa
54fffcfffb05fff901
3fffd00fffe0000
fffdffff01fffefff9ffff44
fffffffdfffe808fff8fffc0
fffffffe01fffe0fffffffe1
0fffe2ffff21fffdfffe0
0fffb2305220
ffffffff5fffffffafffb4ffff0
fffd214102fffbfffd
04323fff9ffff10
fffcfffcfffffffdfffefff90ffff0
ffff00fffd000fffdfffe
2fffffffdffff8fffdfffdfffdfffd
02ffff1fffcffff0fffbfff9
ffff30fffe2ffff102
11fffefffb1fffa603
fffc65fff943fffc0fffc
fffe00fff81fffd301
fffe42fffdfffdfffcfffe00
fffd121fffe21ffff0
5fffe200041fffe
0156fffe021fffd
fffafffdfffefffb1fffe1fffffffd
400522fffa10
0fffe52fffffffa21ffff
ffff1fffd103fffffffffffd
0fffffffe5161fffffffd
60fffffffd2023fff9
fffa4702fffe1ffff5
fff6310fffbffff1fffc2
0fffdfffdfff70fffbfffe0fffe
250fffffffa15fffdffff
1011ffff2fffb00
0fffffffc23ffff340
4fffb32013fffc1
02fffefff90fffc202
110050fffc00
50ffff2033fffe3
fffe2ffff6120fffdfffb
0fffd20fffc1052
5fffefff4fff92affff40
fffd35fffb23fffe04
300fffe2220fffe
540050fffc25
0fffcfffefffa11120
fffc10ffff02ffff25
fffe100201fffcfffd
fffe1060fffc4ffff1
301fff8513fffd1
1fffe4fffe0fffc50b
1107fffbffff00fff9
fffbfffb1fffffffe02fffeffff
fffb130fffe2fffdfffffffc
fffa1fffffffd01060
fffd20fffe0fffffffa0fffc
ffff000fffdfffdfffefffafffc
a2fffd02fffffffd0ffff
fffc13001ffff0fff8
08443fffefffffffdfffb
fffbfffc03ffffffff005
4220ffff0033
fffe0ffff4fffd24fffdfff9
fffefffdfffb60ffff012
00fffc304fffe2ffff
15ffff26fffcfffc0fffd
0fffdfffa08fffd54fffd
54fffffffd23fffc1fffe
0ffffffff0101fffe0
100fffefffcfffefffffffe0
fffffffb0014fffeffff1
4ffffffff005fffffffe3
1104fffbffff2fffe0
012741305
510321fffcfffefffd
fffd1ffff221102
423fffb0fffb942
fffe40400831
3150fffe400fffe
fffdfffe90fffd2fffbfffb1
fffaffff5042fffffffbfff9
ffff1fffc7fffeffff53fffe
0fffcfffefffefffdfff90fffdfff7
61fffd1ffff5fffdfffc0
03ffff0fffcfffafffc00
fffdfffd2ffffffff40fffbffff
24fff810fffa710
0113fff9fffefffe0fffa
fffe1fffe2fffe342fffd
2ffff200fffd2fffd0
fffffffe1fffbfffbfffc0fffd0
10fffffffffffb0fffffffe2
0ffff20fffc224ffff
20fffefffc3fffc440
ffff223fffffffd00fffd
54fffe2fffe002fffe
fffffffe0ffff1025fffc
fffd200fffe00fffd1
fffdfffeffff2fffb3fffe60
fffa631fffcfffdfffe32
0fffdffff40fffe1fffb0
8fffffffb06fffbfff811
fffbfffb0fffc150fffdfffe
30fffbfffa11050
160100fffa79
fffaffff1fff9443fffdfffe
fffa330fffbfffe010
fff70fffeffff2fffdfffe12
3200020fffd7
332fffe021fffeffff
fffcfffdfffefffa13fffbffff6
2fffe0fffb03064
1fffffffc1fffe110fffa
fffbfffcffff0130fffeffff
343300640
fff55fffefffc440ffff5
2ffff14fffefffaffffffffffff
0ffff0fffffffffffc032
00fffbffff02104
23fffc95fffb40fffe
8471fffc5fffbfff6fffe
10fffd5fffe2fffe4fffd
06fffa1000ffff0
fffc7fffefffb3fffdffff51
2fffdfff8542324
1005ffff202fffe
24fffcfffbfffffffb512
fffd4fffbfffffffe4fffb66
76fffe252fffdfff91
fffefffefffffffc01005
60fffe0ffffffff63ffff
0230fffe2041
fffe2fffa0004ffff1
fffefffefffefffc0fffdfffc03
0fffe517fff901fffb
0fffafff8104fff9fffd2
150fffb2003ffff
14fff80fffd52fffdfffc
2fffe0fffdfffd0fffefffefffe
8fffefffc70fffcfffc7fff3
232fffafff7fffdfff9fffbfffc
100503fffe1fffd
23fffffffc03fffffffd0
ffff1fffefffdffff2fffdfffcfffd
227150fffb39
fff9fffefffdfffa102fffc3
24022fffd3fffefffe
fffd0ffff0fffbfffa432
42fffc0fffe0211
fffdfffffffe20ffff5ffff2
fffd0fffe367fffefffbfffe
1fffa60ffff1ffff02
2ffff030fffd1fffd0
640fffafffba004
50ffff00fffb53ffff
0fffffffe428fffe00
4fffefffbfffd00fffffffdfffd
01fffffffdfffb4211
fffffffd40fffcfffbfffdfffc0
fffefff9303fffe302
01fffcfffc1fffefffffffbffff
fffc1fffa0fffefffeffff30
20fff9011fffcfffffffc
fffefffefffa0ffff4544
0fffe230fffdfffbfffffffe
204fffe0fffefffd3fffe
0fffd35fffe6fffe2ffff
fffeffffffff0005fffefffe
fffffffafff91fffcffff330
ffff0321000fffe
fffd001fffdfffd220
fffc3fffefffdffff4002
124fffe020fffb0
fffd3fffe035205
5fff80fffc20100
3fffd120032ffff
fffe5231ffff002
0300fffffffe0fffdfffc
1fffdfffb2c4fffe34
4fffe0ffff72fffd3fffe
ffff0ffff1fffc5160
fffc0fffe6fffa3060
702008fffcfff91
105ffff0fffc122
fffcfffe4011142
fffc0fffefffb04ffff0fffd
fffefffffffc045fffdfffafffc
48fffcfffffff81011
00fffcfffb1ffff0fffefffd
2020fff7ffff61ffff
02fffd038fffbfffd2
3fffd4fffe12fff9fffbfffd
25103fffcfffcffff0
0fffa250301fffe
20050fffe6ffffffff
fffdfffe815fffeffff6ffff
fffefffffffa5ffff32ffff4
01073fffefffffffc2
0011fffefffeffffffff0
10ffff4530fffbffff
1fffd42fffd100ffff
0fffd4fffcfffc2fffe40
ffff1fffdfffbfffefff50fffc0
ffff0fffd001010
fffc0fff63fffa43fffbffff
fffd00422fffc06
07fffc0fffafffc20fffc
2fffefffb0fffa1005
0fffa3fffdffffffff0fffe2
0fffefffbfffc533fffc5
0610fff800fffc0
12210fffffffb20
fffefffe2100fff84fff8
21ffff0fffffffffffe22
ffff2320fffd21ffff
fffdfffd2fffffffa3011
fffd0ffff0fffb0fffcfffa0
fffe04833081
37fffdfff9fffe20fffdfffd
0ffff0fffffffafffc8fffb5
fffefffc173fffcfffdfffdffff
fffc10a3fffbfffe33
ffff01fffc1fff8006
2fffe50fffd4020
2ffff410fffc0ffff0
ffffffff3fffa3fffeffff10
fffeffff0fffcfffe34fffe2
1fffcfffe0fffe0113
fffe15fffe02201
410ffff1ffff011
3130fffffffafffd03
fffc1ffff012352
41fffe2fffd0fffefffd5
fffb3ffff3160fffc0
051fffd02fffc10
1ffff00fffaffff4fffe0
fffeffff0ffff1fffc375
14020435fffb
ffff14fffc34fffd2fffe
fffe412fffb5fffffffe4
fffe013fffb9801
fffcfff9200ffff0ffff5
21ffffffff100ffffffff
153fffefffdfffefffefffe3
ffff0fffbfffefffafff8fffffffffffd
0fffe108fffcfffe10
fffefffb20723fffbfffd
5fffd2000fffd30
fffefffcffff1471fff9fffc
373fffffffdfffc1fffc4
ffff301600ffff0
20fffbffff12fffdfffaffff
02fffffffc04100
20fffdfffe0fffc55fffe
fff9fffc43fffbffff2fff91
01ffffffff7fffa024
3ffff0fffefffc0414
fffa87a2ffff8fffd6
fffc0fffdfffdfffffffd422
5fff90fffe2fffdffff20
3ffff3fffe57ffff2fffe
340ffff04fffdfffdfff9
66fffefffffff60fffd4fffa
42fffc00fffdfffffffd0
025fffeffffffffffff41
fff9fffcb13fffe03ffff
ffff7003fff8fffd1fffc
21fffeffff43002
fffa0ffff1fffc03fffeffff
4162000fffd0
4201004fffd1
fffd0fffcfffefffb00fffdffff
0313fffefff7fffe00
fffc41fffc03fffcfffe4
0ffff38fffcfffffffffffffffc
1071fffefffe2fffeffff
ffff27010ffff0ffff
0fffe000fffd320
3fffafffcfffe0ffff4fffefffb
02205fffe411
02fffcfffcfffefff9100
ffff3ffff0fffb0fffe30
fff903fffffffb00fffc1
0013900fffffffe
2fffe010051ffff
0fffdfffffffffffd1ffff6fffc
fffe3fffffffd70060
615fffefffe0810
0fffefffd4fffefffd001
fffdfffe0220fffd21
fffd3fffbfffcffff3203
4111fffcffff03fffa
1fffefffd4fffbffff314
964fffefffdfffd00fff8
430ffffffff0ffff3fffd
3fffc33210ffff1
fffffffc7fffe1fffb65ffff
ffff3ffff4fffa30fffd1
ffff3ffff52ffff04ffff
fffd1fffb4fffc1fffefffffffd
2a3fffefffffffa5fffd0
fffdfffdffff0010fffd3
25fffe40fff904ffff
fffffffe0fffe4fffafffefffeffff
17fffd0fffd0004
1fffd10fffd60ffff3
5fffb510fff8002
ffff258ffff3041
2fffaffff211ffff08
ffff200ffff206fffc
fffd1104ffff1fffbffff
8ffff8ffff21071
10107fffefffafffd0
00fff9fffc037ffff1
1024fffe070fffe
012120fffffffefffe
01fffa01fffcfffeffffffff
fffefffd03fffd2fffefffe2
0fffd7fffa32100
001ffff04fffb1fffe
0fffcfffe2fffe3fffa0fffe
ffff9ffff200dfff74
fffc3fffc112012
fffb31fffe105fffbfffc
fffcfffd03fffd6fffcffff1
4fffb52fffdfffeffffffff2
fffd1ffff2fffd01fff7ffff
0ffff500fffcfffc3c
0fffe305ffff411
50fffc0fffb0fffb06
203fffa0253fff8
fffffffefffefffeffff51fffe1
fffd610fffafffb750
2142fffffffefffe20
fffffffa3fffd2fffe00fff9
fffcffff4300ffff33
fffbfffefffd173fffcfffe2
fffe3010fffc112
0fffa750fffd351
1fff91fffd0ffff00fffc
ffff23ffff01520
0260fffe4705
1fffdfffbfffefffdfffd011
fffe403055ffff2
0520fffc200fff9
fffd1ffff1fffcfffe543
fffb000ffff0010
3fffd1fffe211fffe5
06fffafffc0ffff405
fffb10102fffd4fff8
fffeffff03fffcfffe102
fffc00020734
fffffffe35263fffffffe
2fffe38fffbfffffffcfffe0
00fffeffff624fffb1
ffff01fffc0fffe030
44fff9fffcfffd304fffb
fffe1fffeffff0fffb30fffe
fffdfffc0513ffff03
1ffff65fffe0fffe0ffff
21fffffffe0041ffff
5fff812002fffe4
ffff6fffc5fffe5fffe2fffa
032fffe1ffff0ffff5
00fffe00fffffffdffff1
4fffdfffb51fffd000
fffe5fffffffdffff4116
001fff8205fffffffd
0131150fffffffc
310101ffff01
4fffefffdfffd042fffefffe
fffe0fffefffd3fffefffb04
7fffa31fffa0fffb7fffa
fffffffffffdfffffffb07fffd6
fffe0fffbffff00fffdfffe0
130fffeffff0fffe91
fffdfffefffffffdfffffffe210
3004080fffe4
fffa6fffaffff102fffc4
fff9502fffe31fffd0
fffe20fffb0fff610fffc
0fffffffcfff903fffefffe1
10fffc1fffc1fffeffff0
0022fffeffff4fffd0
021ffff040fffc1
2ffff13fffb56ffff7
fffffff90fffb0fffb90fffc
fffa14fffffffb5620
ffff33003ffff50
fffefffffffd11fffb664
fffefffe300fffdffff3fffd
fffafffd1fffa10335
2fffc1fffefffc02fffe0
fffefffdfffc4002ffff0
41504fffe301
3fffe04fffefffc122
605300fff604
35fffefffe1015fffe
301051fffe00
3fffc3ffff0fffffffbfffc1
4fffffffa07ffff041
0ffff718fffc0fff9fffd
fffafffd334fff9fffafffe0
ffff33033fffcfffc2
1200fffd04fffe3
2fffc1ffff041fffe0
102fffcfffd4fffd3fffe
000fffd1affff04
0fffbffffffff1072ffff
5fffbfffb0fffa0fffb1ffff
03045ffffffff22
3fffcffff3013fffd0
120000fffc2fffd
22fffb21fffd30fffb
31fffeffff110fffffffd
fffdfffe120fffc232
7fffd0fffe00fff7fffe0
fffe2fffbfffefffcffff013
fffffff9fffd2fffefffefffe23
12106fffdfffafffafffa
fffffffefffdfffbfffd532fffd
4fffd30fffe1020
ffff0ffffa00fffc0ffff
311824fffffff92
022fffcffff5fffcffff0
01fffa6ffff0406
ffff03ffffffff9ffff3ffff
ffff162fffe1fffd00
22fffc00fffa050
04fffe0203fffd4
030ffff5fffc034
2fffd0082fff74fffb
fffc6030ffffffff0fff7
630341420
fff9031ffff070fffc
1109fffd06fffb2
3013fffffffe2fffe0
0ffff1fffe14410
fffefffdfff903fffd18fffe
0fffd007fffdfff9ffff1
00ffff302303
2fffe013fffb0fffdfffe
fffd3fffd20fffc3fffbffff
fffcffff21045fffdffff
fffcfffafffefffe020fffd1
23203ffffffff33
fffbfffb1fffffffd3fffcfffd8
fffc0504fffc63ffff
fffd2ffffffff0fffefffefffdfffd
fffa20fffcfffd0210
124201fffcfffffffe
2fffefffd3fff7fffe00ffff
ffff4211fffc234
4fffe5fff9fffc020ffff
554fffc05fff801
0fffdfffdfffb3fffffffb02
ffff834fffb3fffe02
70fffe4ffff40ffff4
0fffe2012fffc01
1fffc3ffff805fffe2
004fffb000fffefff9
312fff8fffb0390
fffbfffeffff051ffff4fff9
321fffcfffafffd0fffb2
541301ffff1fffd
fffdfff8fffaffff20048
fffffffdfffb23fffe223
fffd1fffc23fffc11ffff
0454ffff2024
03fffcfffcfffd51fffb1
fffafffafffefffcfffd4ffff30
fffb5fffe02ffff0fffa0
5730fffc0fff8fffcffff
fffb1142335fffe
2fffffffd620fffd43
10fffefffc24fffffffefffd
01fffb2fffe1fffd23
fffa20fff950fffefffd0
5fffefffdfffe07130
fffe2fffb03fffe30fffd
02ffff01fffcffff0fffd
6fff664fffd2ffff2fff7
0ffff311fffbfffe23
ffff040fffa03fffd1
1ffff5ffffffff1062
00fffe56fffc2fffa0
426351fffffff95
00ffff0fffefffd32fffe
0010fffffffd26fffd
ffff0fffcffff03001
fff9104020fffd2
fffa541770fffb3
030fffefffbfffd016
003fffe30fffcffff4
fff72fffa00fffd31ffff
fffffffe000fff9011
fffdffff243ffff52fffa
00000003fffd
fffffffaffff363fffbfffe2
0fffefffbfffefffbffff441
fffb0fffffffe30173
11fffc0fffa0311
fffe1027fffc2fffd0
fffc5fff813fffeffff1ffff
fff72fffe20fffe2ffff0
02fffe0fffffffb0fffe1
fff8201fffdfffffffefffcfffd
fffdfffdfffcffff0020fffd
660fffdfffe203ffff
360fffefffbfffa112
002014fff601
2ffff2fffffffd1fffcfffe7
0fffc051fffdfffa6fffe
040400fffffffefffe
01fffffffbffff0fffbfffd0
40fffe100030
fff9fffffffd23005fff8
0fffd6fffe6fffffffffffefffc
3014fffcfffe4fffffffc
4ffff18fffe3fffcfffdfffb
0fffe40ffff13fffffff7
ffff1fffe1ffff0250
1ffff5ffff030fffb2
4fffe3fffe6fffb2fffc0
36fffafffb26320
1fffd2fffd1fffdfffe20
ffff0023ffff103
0fffe404ffff511
70fffefffb0fffa201
003fffe4043fff9
fffc44ffff007fffffffd
315fffeffff0fffe1ffff
6fff90fffffffea12fffd
2ffff00fffeffff451
2fffe03ffffffff4fffdffff
3fffa41100fff95
0fffffffd412fffffffe0
2fffe03fffe06fffffffd
ffff02fffe60fffd1fffd
fffb12ffff10fffe06
3fffc1fffd43fffffffefffd
fffeffff8031fffe02
1fffc01fffcffff120
3fffd205ffff61fffe
330fff70520ffff
11200fffffffefffe3
0fff80fffd3fffefffc11
fffb4fffc1fffcfffd0ffff4
fffffffd004fffffffdfffe0
140fff7fffd0fffbfff9ffff
5fffe33000fffffffe
13fffc7fffffffffffa1fff8
fffe0fff92fffc0256
0104fffdfffdfffffffe2
fffffffe6fffefffd4fff803
01400ffff000
fffe15fffd2fffbfffffffffffd
4ffff31fffb0fffc53
fffdfffe1fffe23730
0020032ffff5
2fffb0fffc00010
03fffc2fff82630
11114fffa002
04fffb1fffcfffefffdfffbfff9
fffe0fff54fffd0001
03fffd6ffff0fffe5fffb
303fffe5123fffd
0fffb0fffe20230
00fffffffd1fffa7ffff0
0000401fffe0
fffcfffa1fffabfffcffff0fff9
60fffe0340fff9fffb
fffefffe40fffefffb23fffc
417fffa4fff8509
20fffc4102fffcfffb
fffffffd03210fffdfff9
fffe0fffcfffa106ffff0
0ffff204fffe00fffd
fffe00000ffff11
fffd31110417
185fffdfffa0530
1fffe24ffff1fffc40
3ffff5fffd2263ffff
fffa07fffcfffa1ffff35
fffe2fffd01fffb290
ffff42fffaffff21fffafffe
fffefffbfffe35121fffc
123fff976fffdffff5
060002101
5031fffcfffa46fff8
3100ffff8ffff0fffd
fffe6fffffffafff90722
fffa03fffbfffffffe30fffb
3ffff8fffd30fffc51
fffe10fffd0fff8fffd1fffe
0ffffffff4fffffffefffd1ffff
fffeffff01fffffff8fffd12
ffff0fffc2fffefffcffffffff2
ffffffff3ffff0fffb000
34fffafffb00121
fffc008fffd151ffff
001fffd0ffff035
fffc00fffd0fffa622
300000fffffffd0
30300fffdffff42
01ffff12fffc514
20110fffd00fffd
002fff85203fffb
fffe1fffd002fffe20
06fffd002fffd1fffd
fffe205fffcfffb3affff
11fffffffdfffb006fffa
0fffffffffff940230
120fff9fffefffcfffd32
0510ffff2fffefff9a
00fffd11ffff0fffefff8
2fffc4232fffeffff5
1121fffffffdfffdfffc0
14fffb0ffff0191
0fffb14fffc4621
fffcfffe01fffefff7fffe13
fffcfffffffdffff00ffff11
1fffd3001056
232fffe105ffffa
080fffe12fffc1fffd
1fffe740fffffffc0fffd
ffff0fffa00fffcfffcffff0
5000fffffffffffafffffffc
1000fffa51fffaffff
2ffff10fffd32fffafffb
fffe23fffd11fffefffd5
62fffcffff1fffe010
24fffefffffffd1ffff01
1fffd2ffff0fffe02fffe
1fff7afffec03fffffffd
ffff07ffff6fffcffff15
3fffc0fffe24ffffffff0
311fffeffff3ffff02
fffb71fffbfffe0612
214fffd30fff8fffe0
ffff13fffe3fffafffd1fffb
242fffffffdfff90fffe4
fffd123ffff0fffc10
2ffffffff0218fffd2
4010ffff50fffcfffe
0fffaffff32fffbfffafffdfffd
40ffff2fffbffffffff0ffff
11fffe523fffdfffd4
fffe0323fffe0ffff4
3fffb0ffff13ffff93
fffe233fffcfffcfffe00
fffdfffafffffffd231fffffffc
ffff01fffdfffe5fffefffd2
fffc7fffafff9fff90fff501
00fffffff33fffefffc2fffc
fffd3111fff6fffe0fffa
fffefffcfff8fffc34111
52fffd0fffdfff600fffe
fffb22fffd2fffefffe0ffff
fff90320fffe410
0fffc340ffff055
4ffff0fffbfffefffa260
60fffeffff7ffff00fffe
fff81fffb0fffdfffc5fffd3
7fffdfffbfff90fffd599
fffe3ffff0fffe0122
3fffd7fffcfffafffe455
10fffc8fffb4fffb01
20fffefffc04021
fffefff90fffe2fffb4fffe0
000fffbfffbfffd0fffdfffd
fffc184fffffff8ffff26
fffe103fffc13fffb6
fffe0fffffffe0fffffffe51
fffb10fffb0fffcfffcfffbfffb
74fffffff8fffffffffffd32
07fffb2fffcfffe1fffc0
ffff2fffffffe4fffd72fffe
22fffe0fffdfffb061
0fffefffb00fffffffd50
fffe0310112fffe
fffcfffd0fffcfffd02ffff2
4fffcfffd556fffe13
23fffffffffffc500fffc
fffafffe12fffffffffffd0ffff
316fffd11010
fffffffcfffd62fffffffdfffffffd
ffff45301240
3804fffffffcfffefffbffff
01fffd53fffe0ffffffff
fffe0fffba03243
8fffe136fffffffe0fffd
0fffdfffefffd21134
101fffffffc1fffc32
ffff2fffcfffd0502fffd
0243fffffffe180
fffffffe22fffffffc111
0fffe30fffc0fffbfffdfffd
0fffcfffd6fffd3fff920
1fffcfffdfffe64ffff2fffb
052fffefff9420fffe
05fffefffdfff9fffc00fffe
0fffe2fffc37024
fffefffdffff6ffffffff3fff90
061fff9fffbfffb2fffcffff
11fffd03fffffffdfffe1
1fffe4fffefffe81fffffffd
46240fff9352
23ffff3124b0
fffe0000102fffd
fffe3fffdfffffffdffff320
253fffe2fffb01ffff
0ffff014fffd4fffe1
0fffdfffffffc0fff9003
002fffcfffd2ffffffffffff
fffe400fff72fffd61
ffff3fff64ffff3fffb0ffff
fffe111fffd6fffe21
421fff9fffd3fffc0fffc
2ffff54fffe1426
20fffb56fff550fffe
2fffd0250fff951
008fffffffe010fffa
fffa3fffbfffb3010fffa
000005fffe0ffff
0fffe4fffa0fffd004
fffe22023fffafffffffc
60fffb4fffcfff9416
01010630fffc
fffd023fffc20fffb1
1fffdfffe0702ffff4
fffe5fffefffdfffd1723
fffcffff5fff96ffff1ffff0
01003fffdfffcffff2
035fffe0fffb265
fff97ffffffff1ffff00ffff
fffc000122fffefffe
00033fff6ffff3fffc
60fffffffd00ffff60
4fffe21fffcfffeffff1fffe
37300fffc466
fffc0fff810fffffffffffd7
02620fff8151
0400fffeffffffff22
fffe0fffffffd10fffe00
fffa330fffa2ffff0fffd
30fffd5fffe5fffe00
fff7430302fffe0
fffe05ffff15331
fffe40222fffdffff1
1fffcfffc335fffb10
0fffdfffdfffe24fffc00
fffdffff1511fffe18
2ffff0fffffffd15fffdfffe
fffe0fffc22fffb201
000fffd2fffe01fffe
1ffff2200010
0fffeffff01fffc240
2500ffff3011
74fffdfffcfffefffe200
fffffffd35150fffa0
ffff0fffe0fffd00fffe1
50fffb2010fffd0
fffffffd2fffcfffbfffdfffe00
0fffffffb222ffff02
1ffff02100fffcfff9
320fffafffd310ffff
ffff2200fffafffdfffefffe
40fffb2fff81ffff2fffd
fffcfffe314fffe300
fffb8fffffffe4fffefffcfffb0
0fffd105fffefffd1fffc
050fffe21fffeffff0
71fffd3fffcffff11fffe
0fffffff82ffff7fffb3fffb
fffd08fff9fffefffeffff0fffe
fffd001021ffff4
3010fffdfff9720
0610fffaffff00fffc
3200fffefffffffdfffd0
0240ffff51ffff0
fffefffd0fffd21034
0fffe0fffffffd3011
032302fffcfffcffff
00040fffafffdfff91
34fffdffff5fff806fff8
40fffffffb2470fffa
fff71ffffffff1fffb11ffff
00fffd0ffff2fffdfffeffff
fffefffe0fffd0fffaffff18
fffeffffffff0fffefffefffffffefffd
001300fffd7ffff
fffffffcfffb2fffe3fffb02
3100fffd21ffff0
fffefffffff923fffb01fffa
2200fffefff9352
fffdfffe105400fffe
fffe052fffefffd40fff7
fffe1606fffd220
fffc00fffe03fffe00
0fff72fffe4fffe002
2fffcfffd2fffffffdffff20
0ffff1ffff10120
1fffbfffcfffdffff5fffd1ffff
121fffcffff0120
304fffc56fff800
4fffb10fffdfffe51fffe
ffff02054fffbfffafffc
fffa0fffefffdfffc2812
fffe0fffc30626fffd
00fffc4fffdffff12fffb
1fffdfffdfffe10fffe13
ffff5fffc0100ffff5
fffdffff00ffff01ffffffff
fffa05fffbfffefffefffb71
0fffd7ffff56ffff34
0fffb3210fff8fffe7
0fff9fff9341010
fffbfffefffeffffffff0100
45fffbfffe83fffcfff90
fffffffe40300fffc0
00fff70fffc1fffeffffffff
0101012fffb1
fffc4fffe3fffbfffd41fffe
0fffcfffb441021
0030fffd1fffa40
0ffff0fffb6003ffff
190fffbfffffffb0fffc0
4fffcfffb42fffafffcfffbfffe
0fffdfffbfffc2fffe306
02fffc20fff72ffff2
3fffffffd0fffa6fffe42
fffe0fff9110003
012fffdfffd0fffb23
0ffffffff641230
000fffd03fffd0ffff
01fffbfffe080fffffffd
0fffffffefffd211ffff0
4010fffd1fffdfffe4
02221fffe001
603fffcfffe3002
fffffffeffff0100ffff1
fffe30ffff231fffdfffe
01fffb42fffffffd0fffe
233fffdfffb05fffefffc
fffe035fffcffff100
fffb44fff9fffd5ffff41
1fffe1ffffffff4005
2fffefffe0fffc0ffff00
30fffc50fffd530
0ffff20fffefffa73fffa
33047fff5102
3fffffff626010fff9
13011fffcffff15
1fffe01fffaffff132
fffc26fffd06fffe22
1fffc2fffffffe100fffd
510ffff00fffd4ffff
ffff41fffe03fffffffd0
0fffcfffc0fffffffb2fffe3
3fffafffd050fffc5ffff
ffffffff120201fffd
fffe6ffff0fffdfffcfffcfffd0
0102fffd11fffd5
fffc7ffff000fff9fffdfffc
1fffe3fffe010fffefffd
fffd00fffffffd60fffafffd
2ffff16135fffffffd
fffe12fffd30fffefffe7
52fffd9fffb0ffff5fffe
fff919fffc25000
71fffbfff6fffd02ffff2
fffe02fffffffefffd13fffa
fffcffff2fffffffefffe404
20fffffffcfffefffefffbfffdffff
4ffff170ffff21fffd
2fff91fffe40ffff3ffff
2fffb2035fffe03
2ffff600311fffe
fffe13600601
03fffefffe110fffffffe
fffafffc3852fffcffff0
22ffff0fffeffff10fffe
7fffefffe1fffffffdffff2fff8
fffc10010021
ffff2ffff0fffe0022
fffdfffd21fffc000fffe
fffffffcffff5fffffffffffffffffffd
ffffa4fffafffffffc11fffe
fffdfffd630fffeffff03
602ffff2fffbfffe4fffe
11fff8100132
fffe03fff9fffbffff040
fffcfffffffe500fffafffc2
5112fff8fffe521
fff7fffd4fffa00fffe10
250fffefffa035fffe
00bfffcfffd2fffd49
411ffff5fffdfffefffd0
5ffff0ffffffff0fffe2fffa
3fffc20fffb6223
03fffc3fffe8001
8fffc20fffb0fffdfffc0
00ffff1fffc0ffff14
0fffc204ffff021
0fffe10fffffffffffbfffeffff
0fffdfffdfffd4fffefffc0fffd
ffff0060fffd001
0431fff8fffd254
201fffdfffc112fffb
fffdffff102fffd00fffe
0ffff0420fffd2fffe
fffdfffd0fffefffffffe3fffe4
2fffd0fffe10400
ffff41fffa301ffff3
fff7fffe2014120
fffffffbfffb108fffefffc0
0ffff50ffff2003
75090fffefffcfffafffc
135fffffffe110ffff
5ffff1fffefffd12ffff0
fffc02fffe3fffe200
fff9fffeffff103fffffffefffd
4fffe5fffd00fffe10
212fffffff90fffeffff0
00fffb0031fffefffd
06fffc1fffb34fffafffa
1fff90fff95fffe21ffff
fffb1fffcffffcfff6513
1fffa02ffff0fffffffdfffc
fffbfffdfff9fffefffa02fffcfffd
1fffffffb03fffc60fffe
00fffbfff805ffff01
fffe1fffa3203fffdffff
fffe20fffefffb2fffefff92
10032fffd04fffc
012030fffe05
fffefffd1fffffffe5011
14fffe430212
ffff6fffc6432fffeffff
fffb4fffe0fffd221ffff
3fffafffcffff2ffff0fffda
ffff2fff92fffa3fffe2fffe
fffc5ffff3ffff3fffe45
02fffe000040
00230ffff0fffefffd
331205fffe0fffe
6fffffffd70fffb5fffc1
fffffffbfffc2ffffffffffff5fffd
5fffffffd000200
100fffcfffd0102
0fffdfffe00fffe3fff71
00fffa7002fffe0
8325fffbfffffffffff8fff7
489fffefffbfffdfffdfffffffe
fffbfffffffcfffffffe413fffe
fffe0fffffff94fffe130
041ffff0fffb03ffff
21fffdfffdfffe02fffb4
fffc0220fffd0fffbffff
21fffe0fffefffe2fffbfffe
10020fff8123
fffb01fff809207
00005fffd0fffffffc
fffe4fffeffff2fffbffff13
30330fffefffdfff9fffd
010fff9131fffa4
ffff11fffafffc2410
1208fff9fffffffe0fffd
ffff03fffcfffdfffe2fffd1
fffe045fffe00fffc3
0370fffefffffffffff82
303fffdffff1fffe2fffc
328fff81401fffd
fffffffffffffff701ffff20
211fffe20fffc02
142103fffffffe0
1fffe3024441
1ffff6fffdfffe000fffe
fffd5fffdfffe17fffdfffc1
fffdffff13127fffe7
ffff10fffc04fffeffff0
0fffffff83fff10fffdfffe5
3fffe36031fffdfffe
30fffa2fffe00fffa4
00ffff370056
13000fffffffd0fff9
6fffa5ffff2fff9fffdfffb1
fffe05ffff60324
2fffffffffffdfffe3ffff03
7fffa1fffd25fffffffcfffe
fffdfffc0ffffffff3113
fffdfffa20fffdfffafffd2ffff
13fffdfffd02001
ffff0fffe32fffdfffbfffb1
2105fffbfffe31fffd
fffe0fffd0423fffefffe
fffc40002ffff0fffd
ffff00605ffff01
10fffd82ffff10ffff
fffb53510fffd17
ffff0255fffd262
0fffe010fffcfffc00
000ffff3ffff307
0fffffffcfffeffff5213
fffe730ffff9fffd06
2fffc10fff80fffa6fffd
2fffc2fffc3fffffffeffff2
30021fffd21fffe
300ffff2fffa004
fffe231ffff0fffe22
fffdfffe0fff8fffc2fffe22
fffffffcffff0fff9fffe311
04fffcfffd00fffd0ffff
400fffffffc0033
fffa007ffff5ffff21
ffff5fffffff6ffff0253
fffb001fff92413
fff8543fffdfffcffff01
142fffb10fffffff9fff9
0003fffc0fffe4fffb
40fffbfffffffcfffb11ffff
01fffefffcffff0ffff3fffe
03ffff320fffd1ffff
200402fff90fffe
ffff00430ffff40
fff93fffeffff60ffff14
1304fffa34fffffffc
ffff16fffe43fffc41
33fffe2fff93fffffffd6
3000fffffffcfffb0ffff
20fffeffff4fffffffc0fffb
ffff452fffd03ffff0
0003ffff422fffa
fffffffc20ffff4241
2fffd0fffb000fffbfffc
0fffa50fffc1103
1fffc1103fffafffdfffe
4fffaffff1fffb0010
0fffb543ffff1fffe0
4fffefffaffff09022
232ffff00fffe01
0fffe413fffd410
030143fff70fff8
2110fff87ffff13
52120fffbffff2fffa
304140fffafffe3
2fffe034fffffffeffff1
fffa002fffdffff41fffb
ffff0570ffff60ffff
4011ffffffff00ffff
ffff41039fffc16
1fffdfffd36fffa0fffdffff
fffd13fff904fffd05
03fffffffc1fffb7ffffffff
42008ffff211
30fffbfffc6ffffffff19
1fffd2fffd08000
0ffff32fffefffe02fffb
fffb32024fff80fff7
fffe00ffff8fffa3fffc5
0fffefffefffc21ffff0ffff
ffff54fff7fffffffd1ffff0
fffe6ffff0fffffffcfffe4fffe
fffcffff5fffe1fffdfffe43
0000ffff0fffdfffefffc
fffe3fffd001fffc0ffff
fffeffff04ffff4245
ffff5fffdfffc13fffd0fffd
028ffffc05fffc4
021fff9ffff0513
002fffd0113fffc
3fffcfffdfffb226fffdfffe
0fffeaffff2fff8101
ffff0fffc011fffe0fffa
1fffe2fffdfffffffcfffe0fffc
ffff4ffff0ffff0ffff60
fffdfffd0110fffe50
0182fffb6021
fffe0522fff8fffc54
21fffefffd113fffb0
0ffff004fffc130
16fffdfffe1fffd3fffe0
0fffefffbfffefffe00fffefffb
561fffd05fff9fff6fffd
56fffffff9000fffffffb
20014fffc21fffc
ffff0ffff1fffffffcfffefffc0
fffefffe00fffcfffe53fffd
fffe1001fffdffffffff0
013fff94430fffc
20fffb71fffe022
22000fffe100
fffefffffffffffd7fffafffc7ffff
40ffff43035fffc
fffffffffffe101200
1ffffffff0fffe63fffb3
1fffefff9019b1fffe
fff5fffe23fffbfff92fffd0
5fffd0fffc6fffbfffc7ffff
1ffff151fffb0fffe3
fffe0fffe1fffbfffcfffdfffcffff
031fffb04fffb0fffe
1fffd0fff902fffbfffe2
40fffefffffffe212ffff
4fffdfffd300130
26fffd26fffcfff8fffe0
300ffff02fffe00
ffffffffffffffff35210
2fffc6ffff001fffffffc
10ffff05ffff2fffa4
1010fffe0ffff4fffc
fffcfffe1fffcfffb24fffd1
fffe4fffd0fffa3fffefffbffff
4fffc4fffdfffb0fffe2fffe
93fffffffefffffffc2fffd0
2fff9550fffefffefffe4
413300fffe0fff8
4ffff3ffff300ffff0
0ffff00050ffff0
3032fffefffd109
17fff723fffd9fffa6
fff9ffff2fffdfff9053ffff
01fffd805fffefffaffff
02012205fff7
ffff2fffefff6fffd5fffaffff1
1ffff03ffff2fffa33
646fff94082fffd
fff82503fffe442
02fffe01fff2ffff2fffd
fffa2fff82fffd4fffeffff2
fffb341ffff3347
000fffa57fffcffff4
1fffc8ffff9fffdffff11
7fffdffff010fffbfffd3
0fffeffff3fffe2fffefffeffff
31fffcffff06fffdfffa0
21fffe2030fffffffd
fffcfffafffefffb004fffffffa
0030ffff4fffd22
6005fffd14fffeffff
4fffa732ffff00fff9
0fffdfffffffe030fffcfffd
0012fff900ffff2
2fffcfffeffff02fff920
4fffffffcfffb13310
300fffffff928fffb1
2ffff1114fffa3ffff
fffd042fffcfff910fffc
1111ffff310fffb
30fffe3fffefffa5fffc4
fffbfffd0ffffffff0225
1232fffb4012
30ffff081fffffffffffe
0fffc00ffff0020
20241501fffa
affff59fffd162fffc
441fffd0031ffff
7ffff036fffc27fffd
fffc5fffe5fffe0001
fffffffd4fffa4fffcfffffffe0
fffffffffffe140fffe00
fffdffff1fffdfffd0344
3fffdfffb30450fffa
4fffd025fffcffff5ffff
403fffd1002ffff
0fffafffdffff20113
fffa3fffd23fffb200
972fff91fffefffcfffefffd
fffe3fffdffff0ffffffff2fffd
fffeffff340fffd030
9672100fffbfffb
330fffffffeffff742
3fffafffcfffffffe0ffff02
00624ffff1fffc2
12ffff230008
10fffd2fffefffe001
0fff96fffcfffd4002
373101612
5fffbfffe3fffd0111
fffd1101fffe6ffff2
ffff1fffdffff3ffff23fffc
3ffffffff00fffc046
2fffb00601fffe1
fffb020fffa48fffa9
ffff01fffe50510
1fffb2fffcfffffffaffff43
000010ffff40
ffff0fffa3fffd00fffc4
fffa02fff8ffff3ffff04
fffc302033fffcfff9
ffff0113ffff1fffeffff
223fffffffb1530
fffb0fffe02180fffe
6005fffe3102
fffe0ffff00200fffb
10fffe00fffefffefffefffb
02fffe020202
fffbfffefff9134071
1ffffffff44fffbffff0fffd
3605ffff0fffefffdfffa
fffcfffffffffffffffc2fffb34
033fffe42fffb20
0fffe1fffe4fffffffe0fffc
fffd0040ffff02fffc
fffc64fffefffd5000
5fffe20fffd10fffcfffd
0213ffffffff30fffb
007000fffd20
fffb5fffefffd5fff9ffff7fffc
4fffdfffffffc042fffe0
0fffe111fffafffd4ffff
0fffe2fffbfffd000ffff
520271fffdfffdffff
22fffc00ffffffff1fffd
31fff87fffb1073
1fffefffbfffefffdfffa214
4fffafffaffff021fffbfffe
fffbfffb0fffefffe42fffffffe
065fffa5fffdfffe0fffe
30fffefffe6a6fff8fffe
2fffd0050181
1fff613fffdfffffffd31
fffd130fffafffefffa2ffff
334213fffc50
11fffa4240fff9fffe
0fffefffefffefffd1fffa2fffe
43ffff3fffdfffb22fff9
fffdfff9fffc0ffff031fffe
3906023fffe2
ffff0fff92fffdfffe02fffd
1ffff04000ffff2
121fffe47fffe3ffff
3fffdfffa8fffffffd1ffff2
904031fff9fffe0
190430324
12fffc4321fffdfffd
011341fffefffffffe
00ffff0fffd0fffc45
fffd5fffb2023fffa0
fffb1fffd010aa2
437000201
002fffd18002
004243121
fffffffc0fffe40fffe00
fffe2fffd00fffe215
2fffffffffffbfffd0fffd50
10fffefffe2fffcfffcfffc1
06425fffc5fffd3
fffc2ffff3fff930fffffffe
20fffc11fffb11fff7
fffe310fffb0233
002fffefff70010
410210110
3401fffe7fffc2ffff
13fffffff910650
502fffa10fff9ffff7
4fffd5140fffcfffe4
ffff42fffb3fffd0ffff1
1210ffff1305
43b1000fffefffc
420702fffffffdfffe
41fffefffc12fffc0fff8
ffff2ffff3046ffff0
162fffcfffc20fffd0
0fffefffc0fffd22fffefffb
372fffffffdffff04fffd
0fffdfffb283530
12fffeffff10ffff1fffc
02502fffffffe75
62232260fffd
20fffe1fffdfffefffffffd0
fffffffbfffb60130fffe
fffd0fffd11fffd1fffbfffb
ffff220ffff2fffdfffefffb
120002ffff35
fffefffa004fffffffa00
fffffffc5fffb56fffffffe4
fff7fffefffd2fffd0011
fffe14140fffd12
fffe18ffff41303
11344fffe3ffff0
fffdfffd0fffefffe20fffa0
505058fffc2fffc
123024fffe11
12ffff00fffc05fffb
3101fffe60fffc0
0fffe10fffcfffe613
000fffb1052fffe
fffefffbfffd10104fffc
fffbfffefffffffffffdfffe00fffd
fffe735ffff1fffbfffeffff
1152ffff0fffeffff2
30105342ffff
fffe3fffdfff474310
7fffa0fffe0ffffffff05
fffc2ffff7fff71fffd03
2fffe03fff83fffb05
40fffa2fffc52fffbfffe
03fffc2ffff0ffffffff6
010245fffe70
fffcfffffffefffd00fffa3ffff
200001020
143631fffb41
fffa1ffff08002fffe
0013017fffcffff
fff9fffbfffd0112fffe2
01fffffffc00fffc00
ffff7025ffff1ffff0
0bffff01010ffff
3fffefffd145fffb00
122412200
48203fffe000
1903fffefffe701
fffc70fffe00fffcfffbfffd
33fffc0fffe00fffa1
28fffffffffffdffffb00
fffdfffdfffc6a31fffffffe
0fffdffff80fffb102
1fffe060fffbfffdffff6
ffff002230fff93
fffbfffd0fffffffe01fffffffc
ffff104fffeffff58fffa
22fffe01010fffe
ffff000fffefffc200
5fffcfffaffff0ffff3fff95
fffdfffcfffdfffdfffafffffffc00
fffe00000003
30fffb2fffd0220
0ffff005fffefff8fffefffe
45fffe01fffe5fffffffc
fffc22fffc50fffdfff78
fffe013fffe10fff98
305ffff2233fffc
10220fffffffe11
2ffff01fffe2fffbfffe5
022fffdffff5fffffffd6
5fff75fffffffe8fffeffffffff
50fffe2fffe006ffff
fffa0121fffc104
fffffffe1ffff1ffff1ffff3
14200fffeffff62
105021fffc10
0fffffffafffffffbfffc620
fffcfffafffbfffefffb2063
0fffc010fff9ffff3ffff
ffff2ffff0041fffcffff
1ffff0fffb100fffefff9
0fffdfff9146fffffffa0
204151fff9fffd3
fffffffcffff1fff97fffbfffc0
fff3fffd0601fffa02
3fffe30400fffefffe
fffcfffffffc1fffe0502
fffcfffcfffe035fffaffff0
20ffff0fffd1003
2050ffffffff110
fffc0fffbfffd2fffffffc00
14fffdafffd1632
3ffff00fffeffff05fffc
01fffe00fffc04fffe
02fffd0fffb33fffffff7
003010fffc0fffb
4ffff00fffe012ffff
03fffb3104fffb0
5fffe724010fffe
1fffffffe00035ffff
1fff8700fffffffb00
000fffa6fff703fffe
05ffff1fffe4fffefffffffd
4fffdfffb0600fffefffe
fffa34356ffff56
fffa52fffe3fffbfffffffffffe
fffc1ffffffff310fffe5
0fffffffe0fffafffc18fffb
5fffefffafffdfffbfffcfffc00
ffff4fff9fffdfffdfffb1fffb0
50ffff7fffd4ffff11
5804040fffcfffe
7361ffff0fffc33
2ffff103fffe4fffe6
fffbfffc10ffff0ffff31
4602ffff300fffc
23fffe0ffff1001
10fffffffd0fffffffe0fffe
1fffc2fffc02fffe36
0fffefffafffcfffafffcffff2fffc
1fffe03230fffefffd
0316fffd013fffd
80ffff1fffd12ffff2
636231ffff3fff8
fffb64430fffffffd2
fffefff80fffe34fffbfffbfffd
021ffff304fffd2
fffffffcfffdfff70fffb004
8fffb01fffc3fffe20
ffff20215fffd0fffe
fffd42fffffffffffd4ffff9
fffd04fffcfffc0fffb23
fffb37fffd2fffbfffefffb3
0fffbffff2fffffffe802
fffefffe113100ffff
fff9200fffe0fffa5fffd
fff93fffe11fffe410
0fffafffa00ffffffff60
0fffbfffffffe51fffaffff3
8fffb05fffb6fffe1fff8
1fff91ffff0fffdfffefffefffb
0fffcfffbffff0200fffd
3ffff05fffaffff743
fffdfffefffd2fffffffffffb1fffc
1fffd430fffdfffdfffffffe
fffb0fffd0fffc02fffdfffe
1fffefffcfffefffe0fffefffe2
03fffc41fffc13fffa
10fffe705fffcfffffffe
fffd38ffff14340
54fffbffff0500fffe
0fff83230fffbfffafffd
fffbfffd1fffdfffdfffd412
fffafffb0ffff032ffff0
fff8fffcfffd001fffffffc0
fffea21fffffffcfffc30
300fffefffafffdfffdffffffff
fffefffd60fffd0fffd20
003032ffff02
fffc50fffd1ffff0fffefffc
ffffffff2421301
fffffff9fffb4fffeffff003
0fffd4fff700fffcffff1
0021ffff301fffd
03fffc20fffe401
50fffcfff9fffbfffc23fffe
0fffe0204115
00fffe21fffd6fffe0
fffaffff2005fffd00
fffffffcfffa1fffbfffb30fffc
fff7fffc5fff923ffff13
fffdfffa12ffff3004
3001006fffffffc
fffd7fffd1fffefffe4fffe2
13021fffd00fffe
