00010000fffa0002fffd0004fffd0004ffff
fffdfffc0000000700010004fffe00060000
fffb0004fffd0002fffbfffd000300030000
000400030000fffc0001ffff0000fffd0002
0001fffb0003000000050004fffe00040000
0001000500000000fffa000200010000ffff
fffe000600000000fffd0002fffdfffffffb
00010000ffff000500030002fffcfffefffc
0000fffdffff000800000001000200010005
00040003fffefffffffbfffe000900040004
fffe0006000000000001ffff00000000fffe
0001fffcffffffff00000001000400020003
00000002fff8ffff0002fffdffff00010005
00000003fffffffbfffafffdfffafffb0001
0002fffc0002fffefffefffefffe00010000
fffe0001fff90004fffdfffc0000ffff0000
fffe0000fff9000000040000fff7fffdffff
000100020000ffff000000000000fffbfff9
fffffffbfffd00080003ffff000400050005
0006000300030003fffdfffd0006fffe0004
fff9fffe0005000500030001fffffffd0000
ffff00000001fffb00070000fffa0000fffe
0001fffcfffe000100050000000200040001
00000000fffefffcfffd0005fffd00010000
0000fffcfffe000200020004fffffffffffb
0002fffefff70000ffff0001000400030005
0001fffefffb00020000ffff00010007ffff
fffffffa000000000000fffd00040001ffff
ffff0002000600000000fffe000000020003
00060000ffff000100020001fffffffc0000
000000010001fff900040000000200010003
0003fffd00000002fffd0000000100010003
0003ffff0003fffbffffffffffff00000002
0002fffd0005000700010000fffdfffdffff
fffd00000000000000020001000000040001
fffd000000000001fffffffe00020000ffff
0002fffd00020003000400070001fff6fffc
0002ffff00040002fffafffb0000fffd0000
00020003fffdfffd0002fffdfffdfffefffe
0002fffcfffe0005fffd0001fffe00020000
0000000400020001fffdfffd00000000fffd
00000002fffe00020000fff90001fffd0004
ffff000300020001fffc0003000200000007
ffff00010000fff80001ffff000200020003
0005fffffffe000100020003ffff00000001
00010003000200000000fffb00000000fffb
000600040001000100000002fffffffc0000
0002fffd0000000700020002000300020003
0000ffff0000000200050000000000000000
00000000ffff0006000000010000fffefffc
00000003000100010001fffc000300000001
fffe00030001fffefffd00000004fffafffe
0002fffcfffc000300000001fffcffff0006
0006fff700000003000200010004fffb0000
fffeffff000600070004000400000001fffc
0000000500020000fffa0000fffeffffffff
fffa0000fffc000600010007fffbfffcfffd
fffefffb000000020004fffa000000000000
fffd0001fffa000100030008fffb00000000
000500000001fffcfffffffbfffc00070004
0000000000030000ffff0000fffffffe0001
0000fffffffe0001fffe0000000100040002
fffe0001fffefffe0004fffb000000050003
0004000500060003fffffffffffefffe0002
fffefffdffff000100000003fffe0000fff9
000000010002ffff0000000300010004fffe
fffe00040000fffffffd00000002fffb0004
fffefffdfffe00030004fffc000000040004
000200010003fffcfffe00010005fffbfffa
fffe0000ffffffff00020000fff8fffd0000
0000fffe000100050000fff700050004ffff
0003000600000000ffff00010000fffefffe
ffff0002fffd0000fffffffc00000001fffe
0003fffcfffffffc0000fffd0003fffe0002
ffff0000fffe0000fffc0001000200060000
00020000fffefffdfffbffff000300040007
ffff0002ffff0003fffe0002000000000001
0004fffefffd0002fffcffff0000fffefffe
000500010000fffb00050004fffbfffc0000
0000000000000001000000040000fffe0000
000300000004000000040000fffa00000001
00070003fffe00050003fffefffb00000003
000000060002fffbffff0000fffefffffff8
000200010000fffd0000000500000000ffff
fffd0000fffd000700000005fffe00000000
fff8fffafffc000200000000000200000000
000100020006000000000002fffffffafffc
fffcfffd0000fffcfffd0001000000020000
000200010001ffff0004fffd00010001fffe
fffe00030000000500010000fffe00000000
0005fffe0006fffefffb000100000000fffd
fffb0000000000000004ffff0001fffffffd
fffe00040001fffe0000000100000004ffff
0001fffaffff0005fffffffdfff800030001
0000fffffffc00040001fffe000100020001
fffd0001fffcfffffffd0000fffb0001ffff
00030002fffe00010000000100020002fffd
ffff00000008fffbfff80000fffdfffeffff
fffb0000fffdfffb00000001000000000000
000000000002ffff0007000500020000fffa
0003000300060000fffcfffefffcfffe0000
0000fffc00010009fffe0003fffffff6fffa
fffffffe00000000fffffffefffd00000003
0004000100030000fffdfffffffd00000001
ffff00000002ffff000000000001fffcffff
00030002000500000000fffe000300010002
000000020004fffbfffd0003000200000000
000000060001fffffffb0003fffafff9fffe
fffcfffffff9000afffe0002fffe00040001
ffff000000000005ffff0001000600010000
000000000001ffff000200060000fffd0003
0000fffe0004fffffffb0006fffffffe0004
fffdfffd0000ffff0000fffcfffc0002ffff
0000000200000009000000000000ffff0004
00040005fffd000300040000fffefffcfffe
0000fffe0001fffc0002fffb000100080007
00010000ffff0004000000000000fffcfffa
fffe00020005fff8fffd00000002ffff0005
0004fffdfffffffdfffbffff0000fffeffff
fffefffd0000000200020000000000030001
ffff00000002fffbfffbfffc000000000000
00000000000000000000000a00050000fffd
0004fffffffb00000001fffe000500010001
00060008000100060001fffdffff00050002
0001fffeffffffff0002fffeffff0005ffff
00010003ffff00000005ffff0004fffafffa
0005fffd0005fffe000000060000fffefffe
000200010002fffe0001000200010001fffc
fffd0000ffffffff00000003fffffffd0005
0005ffff0002ffff0001fffb000100020004
fffffffa0005000800000007fffafffefffc
00020003fffb0008fffd00010003fffdfffe
0000ffff00010000000500040000fffa0002
fffe0000fff7ffff0009fffbfffdfffe0000
ffff0004000200010002fffa000000010000
0000000000020001fffeffff00010007fffb
fffffffdffff0000fffc0001ffffffff0000
0000fffcfffdffff000500070002fffd0001
fffe00010002fffbfffd000200060000ffff
fffd00020000ffff00010000000000000002
0002fffdfffb00000005000600070000fff9
0006000200000005fffd00010003ffff0003
fffe0002fffc00030000ffff000200000003
ffff0002fffffffffffbffff0001fffe0004
fffb00040006fffefffd00020000fffcfffc
fffe00000002fffb0000fffefffe00000002
000000080006000200000000fffe0000fffe
0004fffdfffd0001fffefffe000400050003
0001fffe0004fffefffdfffe0000fffdffff
fffe0003fff9000300000003fffb0000fffa
00050000fffd00040006fffe0003fffcffff
0002000200000003ffffffff000100010000
00010004fffd0000ffff00020004fffc0001
0000fffc0000fffe0002fffd000100010005
00000005fffd00040004000600040000ffff
fffffffe0002fffbfff90002fffffff60000
00020000ffff00000004fffffffb0003ffff
fffe000400000001fffc0004fffafffffffb
000000000001000000030004fffbfffc0002
00050005fffffff8fffb0002000600070000
0000000100000000fffe00020000fffc0000
0001fffa0005000000050001ffff00060001
0000fffe00030002fffe0003fffefffffff8
fffe0002fffe0000000000020000fff9fffd
0006ffff0000fffcfffcffff000300080006
0007000100060001ffff0000fff9fffd0002
0003fffd0000fff600000000000300030003
fffe0000fffc0008000200050003fffdfffb
fffcfffafffa0001fffffffb00030005fffc
000200060005000200000000000100000000
00020000fffe00030000000000000000fff9
000400000001fffe0003fffc0003fffc0001
fffdffff0001fffd0003fffefffa00000000
ffff000000020005000b0001ffff0000fffe
0003000400010000fffd0000000000000000
0001fffcffff000000040000ffff00000002
0004fffe00020000fffe0000fffe0004ffff
0004fff9fffffffd00040000000000020006
0000fffcffff00020005fffd0000ffff0004
000200010002000400040002000300010002
0001000000050001fffbfffffffd00000005
fffc0000000100010000fffd000000030003
00010000ffff000100040000fff900020004
ffff00030000fffffffc0002000000000002
fffffffe0000000300000003000100000002
000000010000000100050006fffcfffffffd
00020000ffff00040002fffdfffc00030000
fffdfffffffe0001fffb0006000200040000
000000000005fffc0004ffff00040001fffe
fffbfffcfffe000400040001000000010000
0003fffc0000fffd00000001000600020005
fffdffff0004000000040002fff80002ffff
0000000000030001ffff0002fffefffb0001
fffe000000000006000500040005fff9fffb
000200050004ffffffff000000040004fffd
000afffa00040004fffffffe0000fffeffff
0006000a0007ffff0001fff9fffffffc0000
fffcfffdfffd00040001fffbfffafffafffe
0004ffff000400010004ffff000300020005
00000000fffb000000020003000100000002
000400010000000000000006fffe0002fffd
0003000100000001ffff00050004fffafffe
0000fffe00040001fffdfffbfffe0001fff8
fffefffbfffe00040003fffb000000010004
000100010000000500000000fff9fffe0001
fffcfff9fffc00010001ffff000600050007
fffeffff00000000ffff0005fffdfffefffe
fffd0007fff90005fff7000200000002fff8
fffdffff0000fffeffff0000fffb00000000
00000002000400000001fffe000100030001
00000001ffff000200000000000000030000
0001ffff0002000000000001fffc0003fffd
00000002fffd0003fffafffd000000030001
000400000006fffa0007fffe0003fff90004
0004fff70000fff9000200060007fffa0001
ffff0000000600010000fffcfffd0000ffff
0000fff8000300040005000afffc0001fffd
ffff000000040006000300000001fffd0000
fffb0006fffd0001fffe00010002fffbfffe
0003ffff0000fffffffa0000000800030001
fffcfffd0004fffefffd0001000200060003
ffff00060001fffdfffbfffc000000010001
fffe0006fffbfffefffdfffefffb00020003
00020004000200010003fffe0000fffdfffd
fffffffefff7000400010003fffe00010000
000100010005000400000001000000030002
000000000000000000000000fffe00010002
fffdfffafff800020004fffcffff00050001
000000040002fffffffc0000fffdfffcfffb
fffffffffffe0000fffd0001fffd00010001
fffc00030001fffe0000fffd000000020002
fffe00010004fffb000200010001fffc0003
0001fffe0003ffffffff0005ffff0000fffe
fffc000100020003fffe0001000000000000
0001000400000001fffb0000fffa00040000
000100000000fffe0000ffff000200030000
000000000001fffffff7fffffffb0000fffc
000200020000000000060000fffffffbfffa
fffbfffa0000000200050007ffff0000fffc
fffdfffcfffc00060006fffefffcfffafffd
0002fffd000000020007ffff000500000001
fffd00010005ffff0000fffcfffcfff90000
0006fffd0005fffffffd0004fffffffe0000
00000005fffffffbfffe0003fffd00000000
0002fffffffa00010001ffff0004fffdffff
fffbfffeffff0004fffe0004000100000002
000100020005fffffffd0006fffafffe0002
00010001fffe0004fffe0002ffff00010001
00000005fffe0005fffeffff0002ffff0001
fffefffdfffc0000fffd0001000500000002
000100000000000600000001fffd00000000
00000003fffafffdffff0000000000050006
00000003ffff000200060000fffffffafff7
fffffffe0002fffffffbfffdfffffffcfffe
fffcfffefffdfffeffff0003ffffffff0002
0000fffe000200000000ffff00000004fffa
fffb0004000600000000fffffffc00010003
00010003000000040002ffff000000000002
fffe0000fffbfffe0004fffe0006fffb0003
fffe0000fff800000004fffe0001fffd0000
00040003000600010002ffff00030004fffe
000000010001fffffffe0000fffc0000ffff
fffd0005fffffffdffff0000fffe00030001
fffd00000000fff800030001fffaffff0004
000400030000fffcfffcfffc00060001ffff
0002000400000000000200000000fffefffe
fffd0000fffafffe0001fffafffc0004ffff
0007fffe00010009ffff0003000000050007
0000fffefffd0000fffbfffd0000ffff0003
0000fffcfffffff900010004fffe0000ffff
000100000001ffff00040000ffff00010002
0000000100000000000000000000fffffffb
000000000001000000020007000500000000
0002fffdfff9000200030000fffd00030007
fffd00020003fffc00040001ffff00010000
ffff0004fffcfffefffc00020002fffc0000
fffffffffffd0003000400000004fffb0001
00000003fffc0001000500020002ffff0002
fffb00020009fffefffd0007fff9fffbfffb
000000060000fffd0006fffffffafffe0003
ffff00010000fffd0003fffffffe00050000
fffd00000000ffff0002fffcfffd0000fffd
00020002ffff0002fffdfffefffa0008fffd
00040000000000020009000300000001fffe
00030005fffe000300040001fffdfffd0000
fff9fffe0008fffefffffffb000500020005
fffdfffa0000fffefffd0001fffdffff0000
fffe00060005fffd0005fffcfffe0004fffc
0004fffdfffc0000ffff00000001fffffffd
0000fffd00040004fffd000000030001fffd
0000000300000000000300000003fffd0007
0002000100040000fffffffffffdfffbfffe
fffcffff0000fffe000100070002fffcfffe
00060002ffff000100040001fffffffcfff8
0000fffafffb000500050003000000000003
0000fffa0003fffb00000000fff70000fffe
fffe00010000fffdfffdffff0001fffe0002
fffb0000fffe0001fffa0002fffa0002ffff
fff9fffc00000000ffffffff000100000003
ffffffff0001000600000003000800000002
000000020005000000000001fffdfffb0001
00000004fffefffdfffefffdfffffffdfffe
fffefffdfffdfffffffefff9000400010000
ffff000100000002fffc0003fffa0000fffd
0000fff8ffff0003ffffffffffff00040004
fffffffcfffefffcffff0000fffe0001fffe
ffff0001000000030002fffdfffa0000fffe
000100030002fffdffff0004fffd0002fffd
ffff00020003fffffffd0000fffcfffd0002
000200020000fffb000100060000fffa0000
00010004ffffffff0002fffefffe00050000
00000003fff900000003fffe0003fffa0000
000000040003000600050006ffff00020001
ffff0000fffcfffffffc0000fffc00020000
00050000fffffffb0001fffefffffffd0007
00020000fffcfffc000000000004fffefffe
fffb0009000500010000fffdfffe0000fffc
00000007000900000000fffffffdffff0000
0000fff90005000400010002fffafffdffff
fffaffff0004fffffffefffb000000000001
0000fffb00000000fffffffdfffe00050003
0002000000010002000100030001fffe0000
0000fffb0005fffb00030000000300060000
00010004fffffffd0002fffe000100020004
fffc0000000100040000fffcfff7ffff0004
0000ffff0000fff90000fffcfffc00000003
000400070005000000050002fffd0001ffff
00000002fffdfffbfffb000a0000fffc0003
0000fffcfffffffdfffd0000fffcfffffffd
fffd0006fffd000000040004fffefffdfffe
0000000100020004fffefffefffc00060000
000100010000fffe00040000000400040008
fffe0000000000000002fffe000100060002
fffd0005fffcfffc0000fffffffe00000000
0001000000050000000000030002fff80001
000000000001fffe00000000000000000001
ffffffff00020000fffc0000000100010007
0002ffff0000fffd00000004fffc00000002
00000002fffffffd0007fffdfffe00000000
fffc000200040000000000000001ffff0000
00020003000700000000ffff0002fffffffd
ffff0000fffe00000001ffff000000020000
0003fffefffeffff0000fff7fff7fffdfffd
000000040000fffd00030002000700020001
0003000600020004fffe00010002fffc0001
0002fffc0004000300000000ffff00010000
fffbfff9fffa00010004fffcfff5ffff0003
0000ffff0003fffd0000fffffffdfffeffff
00060001fffd00020003fffe0004fffeffff
0000fffefffc000400010005000600010000
000300000000000000000005000000000004
000000030005000000030006ffff00020004
ffff00000000fffcfffe0000fffffffcfffe
00060001fff9fffe00020003fffc0000fffc
0004fffffffffffffffafffe0002fff90000
0000000600070000000400010000fffffffb
00000006fffefffdfffd0001fffefffeffff
0002fffbfffefffe0000000600060003ffff
000200020003fffc00000003fffe00010000
fffffffbfffa000000050004fffbfff9ffff
000600050002fffb00040006fffd00030000
0000fffefffd0002fffffffc0007fffdffff
0001000300020000fffd000000060000fffe
fffd000000000000fffdfffc000100050002
0002ffff00020003fffe0000fff900030000
0001fffc0003fffb00000004fff900040001
00010004000400040007fffd00020000fffb
0004fffe000000010001fffc00050000fffb
fffe0002fffe0000fffefffcfffe0005fffd
fffe0000fffefffefffc00000004fffe0007
00000001fffffffffffefffdfffdfffd0001
00080001fffefffffffdffff000200010000
ffff00020001fffd0002000000030002fffd
fffffffd0000000100000001fffdfffbffff
fffefffe00000003fffdfffffffc00060002
fffefffb00010007ffff0005000000040003
0003fffefffe000000030002000200020009
00000006000200010006fffd00010001ffff
ffff000500030007fffb000000000001fffd
00010001fffc0003ffff000000040000fffc
fffdfffcffff00010000fffc00050000fffe
ffff0001fffffffc0000fffcfffa0002fffe
00070000ffff000000010001fffcffff0000
000000060001000400040002ffffffffffff
fffe000000020001fffd0000000000020000
fffe0000fffbfffffffd00000007fffc0002
fffd000200040001fffeffff0000fffb0000
fffb00040000000000030000fffc0000fffe
fff90002000500050000fffffffd0004fffe
fffd00010000fffdfffafffe000000010000
fffe00000000fffffffe0001000b0004ffff
00070005000100020002fffa0005ffff0000
fffcfffffffb000300000000000000020003
ffff0002000700010003ffff000000030000
fffc000000050006fffffffd0004fffefffd
000300000002ffff0002fffd000000030001
00000005000300010001fffe00000001fffe
0000ffff00000000fffe0003fffb0000fffe
ffff00020000000100040000fffffffefffd
fffeffff0005000000010005fffcffffffff
fffffff90002fffe0005fffbfffd00030003
0000000c0006ffff00020003ffff0000fffe
000000060000fffa0000fffdfff8fff70003
000100070004ffff000200020000fffefffc
0000000200010005fffffffd000000060000
000100030002fffc00080005ffff00020008
fffffffc00040000fffc0003000300000000
fffffffd0005fffcfffa000b000200010002
00020003ffff000300020001fffdfffdfffc
fffbfffe0000000400030002000300020005
fff9ffff0005fffffffd0006000400000000
0000fffffffb00030000fffe000200040004
fffc0000000000000001fffd0005fffd0002
00020001fffe000300020003000000050000
ffff0006fffafffbfffd0000000300010005
000100040001fffefffeffff000100030001
fffdfff6000300000000fffd000100030002
0003000000000000fffaffff00000005ffff
0006fff6fffcfffb00060000fffefffe0000
0000000000000000fffeffff000000050002
ffff00000002000200010005ffffffff0000
fffe00000001fffc0004fffefffe0001fffe
000600000003fffffffd000000010000fffe
000b0000ffff0000fffefffd0000fffc0000
fffe0000fffbfffeffff0000000200000006
0001fffefffd0000fffa0003000300000000
0003000000030000fffe0004fffd0005ffff
0006fffdfffefff800000003fffffffffffe
fffe00000002ffff00000001fffb00000002
ffff0007fffdfffd0000fffc000400000000
0003fffe0003fffc00030004000000000001
0001ffff0002fffd0000ffff0000ffff0000
000500050002fffdfff90000fffffffdffff
fffb0004000500000003000300050004fffc
00000001000400010000fffcfffe0005fffa
00020000ffff00020000ffff00000002ffff
fffc0004000400000002fffdffff0000fffe
00040000fffa0000000300000001ffff0003
0003fffeffff000000000003000200020000
00000000ffff0001fffe0005000000080006
fffc000200040000000000030002fffa0004
fffd00060007fff900060001fffb00010000
fffffffd00000000fffb0001fffb00000002
000000060006fffffffbffff000200000001
0001000500000000000100080001fffb0001
ffff00020006000400020003fffe0000fffc
0000000300060004fffe0000000500000002
0000fffe00000003fffdffff000100040000
ffff0001fffbfffefffd0000000000040000
00020001000100070003000000010003ffff
fffdfffc000000060001fff6fffc00010005
0003ffff00040001fff70004fffd0000ffff
0003fffefff90002fffffffe00000001fffd
0001fffffffefffaffffffffffff0000fffd
fffbffff0001fffa0006000000050000fffb
0000ffff00020000fffefffe0004ffff0006
fffefff7ffff000400010005fff8fffb0002
000000050000fffe0003fffdfffdfffdffff
0002fff70000000300030002fffcfffefffe
0001000000050000000600020002fffbfffd
00000007fffb00010000000000000001ffff
000400000004fffcfffffffb000200090001
00000000fffefffd00040000000000000004
0003000200030001000000000001fffe0000
00030000fffc0008000500020008fffe0000
000000000006fffb00020000fffffffafff9
00010003fffdfffefffd0000fffffffbffff
000300020000fffdffff00040001ffff0001
000200000000fffe0000ffff00030003fffd
0000000100040000fffdfffb000400030000
fffe0004fffe000000040000fffc00010000
0002fffd00000003fffd0007ffff0001ffff
00000000fffc0001000000000000ffff0000
000000050003ffffffff000000000002fffb
0002fffeffff0004000000030003ffff0000
0000000200050004000100050004fffefffd
00010001000400000000ffff0000fffe0000
fffffffafffe00050003fffefffcfffe0002
fffdfffb0002fffc00030001000100000000
000200000006fffa0008fffd0002fffdfffe
0000fffbfffe000300060000000200020001
00010003fffffffb00000001000300010002
00030008000000020001000000050000ffff
00030004fffefffe00010004fff800040005
00000001fffefffd0004fffe000300000001
000300050007000000050002fffe00020000
fffc0002ffff000000000000000200000001
0002000000010002000000010000fffbffff
00040002fffafffdfffb0000ffff00000000
fffdfffcfffbfffbfffefffd000500000002
00050004fffffffd00000003fffe00040005
fffd0000fffdfffa00000000000200040001
0001fffafff9fffbfffefffcfffd00040007
0000ffffffff000100010003fffbfff9fffc
0003fffa0000ffff000300000002fffd0001
000100010002000100010008fffd00010002
000100040002fffc00010000fffefff90002
fffe0000fffcfffd0006fffe0000fffefffe
000000020002fffdfffffffe0007fffc0003
0000000300020000ffff0002fffd0000fff8
0000fffe00000001fffffffd0002fffbfffc
000300000000fffe0000fffffffeffff0000
0005fffffffd0004ffff0001000000040002
fffbfffb000800040000fffafffcfffd0000
fff50000000000010005fffffff9fffffffd
ffff00010000000000030002000000060003
00000001fffcffff0003fffdfffe0000ffff
fffa000100010007ffff0000ffff0003ffff
ffff0000fffefffc00000000000000010001
00040001ffff000300020002fffe00020002
00020000ffff000600050006fffefffb0008
000000020002fff700000000ffff0002fffa
0003fffe000400010004fffd000100000003
000000020000ffffffff000100040002fffb
fffe00020006000500050002000400020004
fff8fffffffc00010000ffff000100030000
0000fffdfffa00030006ffff00000001fffe
00030000fffe0006fffc0001000000030000
fffffffafffeffffffff0000fffa000affff
0002000000000000fffe0000fffb0000fffe
0000fffafffa000200020000000000000002
0000fffc00040005fffb0002000700030003
fffa0003000500010001fffe0003fff8fffd
0003fffeffff00000003ffffffffffff0000
0000fffb0000ffff00000002fffcfffe0002
0004000400080001fffa00010000fff90000
00030000fffb0002fffffffdfffffffe0003
fffffffffffafffd000400020000fffd0001
0001000200000004000200050002fffa0000
fffa00010002000400050004ffffffffffff
00000003ffff000300070002000200080003
fffb000000000000ffff0001000100050002
0000fffe00000001000000010000fffefffc
0006000000020002fffe0007fffa00010000
fff1fffefffb000c00060004fffffffeffff
00000002000200000002fffd0004fffe0000
00020000ffff0000fffe0005ffffffff0000
fffefffcffff00030002fffe0001ffff0008
0002fffe00030002fffc0001fffe00030006
fffbfffefffefffffffffff8000600020002
0003fffd0000fffdfffb0000000300030000
fffefffbfffd00050008000200000000ffff
fffdffff000000000002ffff000300000003
0000fffa0004fffe00000001000100030005
00010000fff8000000030001fff8fffe0000
fffc0001fffbfffe000300020001fffd0000
ffffffff00030004fffe000400020004fffc
fffe00010000fffcfffe0003fffd00010000
fffd000200000001fffbfffa0002fffc0000
0000fffc00020000fff80000000000040005
fffe00090006fffb00010008fffffffe000d
fffd0001fffefffd00000000fffc00000000
000300040002fffdffff0005fffc00040003
0001000400000003fffd0001fffb0000fffd
0000fffffffc000000000002000600060001
00010000fffe0004000600010000fffe0004
0002fff9ffff00030000fffefffc0004fffd
0002000000070002fffa0004000200020000
0000fffeffff00000006fff700040003fffe
0001fffdfffbfffc00000001ffff0001fffd
00090003ffff00000007fffffff900030002
0002fffffffa00050003fffffffd0005fffe
fffe00070005fffffffe000100000000fffe
000400020000fffefffa00010000fffa0001
fffffffe0000000000080000fffe00040007
fffcfffc00000004fffe0000000400010000
0000ffffffff0001000500010000fffefffb
000000010003fffefffe00000000fffdfffd
fffffffbfffb000900000003fffe00010003
fff900030004000200020000ffff00000004
00040002ffff0001000200000003fffeffff
fffefffe0000fffe00070001fffbfffdffff
ffff00040002000200000000ffff00000001
00040001fffefffcffff0003000500030000
0000fffffff600020004000000000003fffa
0001fffbfffe0001ffff0000000000060006
fff70000fffefffe00020000fffb0001fffb
000200000001fffcfffe0001000100070000
fffeffff00000002000000000001fffe0004
0004fffc0000fffd000100000003ffff0000
0004fffd0001000600010000ffff0002fffa
ffff0000fffe00010000fffefffcfffefffc
fffb00020000fffffff70004000000010001
fffe00000000fffefffaffff0003fffb0001
000000010002fffd00020000000900010000
ffff0004fffd00010002fffb000300010001
0006fff9000500010001fffe000000000001
fffe0001fffffffb00070000fffffffe0000
00040005ffff0004ffff000100000003fffd
0000fffc000000010000fffe0000fffcfffe
fffefffd0000fffd0000fffdffff0000fff8
0000fffc0002000200030003000000030007
00010000fffefffd0000ffff000400000000
ffff0000000000000005fffc00000000ffff
fffd00020001fffcfffb0000fffbfffe0000
000600030006fffe0003fffffffe00050000
fff9fffbfffe0001ffff0002fff600010002
0006fff4fff8fffffffcfffd00060004fffe
00020008000300000000000500000000fffd
fffefffd0005fffd00030007fffdffff0001
00030001fffc000000010001fffd0000fffc
0002fffe0005fffcffff00010000fffa0002
000300020002000000030003fffd0000ffff
0001fffe0000000000010004000400040005
000000040001fffb0004fffe0002fffcffff
0000fffc000300000004fffdfffc0006fffe
fff900040004fffb00020001fffd00020001
0002fffdfffd00040000fffe00010001ffff
0000fffe000000010001fffbffff0000fff8
0003000100040000fffa0000000100050006
00030007000300030000ffff0001fffafffe
fffd0004000100000006000200010001fffe
fffd0004fffe0000fffc0002fffefffafffd
00000004fffc0000000000000000fff90003
ffff000300000003fff80000000100080007
000100030000fffffffafffd000200000003
0001000200000000000200050004ffff0003
ffff0004fffcfffb000100030000fffbfffe
00040003000500000002fffdfffbfffdfffc
000100060002fffbffff0003fff8fffe0000
00010000fffb00020001fffcfffd00090000
0000000200000003fffcfffeffffffff0000
fffb00000000fffe000300030000fffc0001
0001fffffffc0000fffcfffc0003fffe0001
0000fffe0000ffff00000000fffe00010003
0003fffdffff000000010007fffafffcfffe
0000ffff00030000000000010001fffd0000
fffd0002fffefff6fffffffe000000020000
0000fffe00030001fffe0001000000020004
0001000300000002fffdfffc0004fffe0000
00000002fffd00000003000200020003ffff
0004fffdfff900000004000000040000fffe
000000000001fff80001fffd00030000fffb
00000000fffffffc000100010001ffff0003
fffffffc000000000001fffffff90002ffff
fffbffff00010002fffbfffbfff600000005
00030002fffc0000fffa000000000002fff9
fffc00010003000100020002ffff00020003
0000000100050000fffdfffdfffdfffffffd
fffa00000004fffa00020000000a00040000
fffcfff9ffff0000000300020003fff90001
fffffffeffff0003fffe0008fffc00020002
000400000000fffefffbfffdfff9fffdffff
0005ffffffff0003ffff0006000000030000
fffefffcfffe00050003ffff000200000000
0002fff9ffff000400000003fffcfffefffe
fffdfffd0000fffffffb00020000ffff0005
fffe0000fffcffffffff00010004fffffffc
00010000fffd0000000500000004fffffffe
0002ffffffff000000020000fffe00000000
00030001fffffffd000200020001fffc0001
fffffffe0002fff900010005fffe00000004
fffcfffe0003ffff00030001000200000000
fffb0003fffdfffefffffffdfffc00000001
00020003fffe0000fffc0000000500000007
0001000000010004fffc00030003fffdfffe
000bfffcfffffffe000000000008fffb0000
0001fffe000100050005fffe000000000000
00020001ffff0000000000020000fffe0000
fff9fffdfffffffc00000002000700040004
000000000000000300000000fffffffbfffc
000300000003fffe00040000fffafffe0002
0000fffafffb00000004ffff00020001ffff
0000000000000000fffc0006000100040004
000300030005fffafffefffc0003ffffffff
00010000fffc00030004fffffffdfffd0000
000000010007fffc00010002ffff00040004
0004000500080006000000020002fffdfffe
fffa00040000fff60005fffe0000fffe0000
000300000001fffefffe0007fffc00000004
ffff0000000400010002fffefffcfffa0001
0004fffb0004ffff00000003000200040007
000200030000fff9fffbfffdfffe0001fffd
fffd000100000006fffffffcffff0000ffff
0007000000030002fffc00000002fffc0001
0002000000010000000100030000ffff0001
ffff000100000000fffeffff000300010000
0003fffefffe0001fffe000200000004ffff
ffffffff0006ffff00010000ffff00000000
fffc000000040000fffdfffbfffffffe0001
ffffffff00000005fffd000300030001fffe
fffb000000000004fffe0001000000060005
0003fffc000300010006fffefff70000fffe
fffbfffe0000fffdfffffffe000000000000
00000002fffffffdfffe0000000600000000
00000002fffc000200000005fffbfffc0005
fffd0006fffc0000ffffffff0000ffff0004
fffdfffe00000001fffefffb000800000008
fffd00020000000200020001fffe00000001
fffffff7000000030001fffa000400040003
fffe0001fffefffc00020000000000020002
0001fffd00020003fffe000000000004ffff
0000fffdfffffffdfffd0004fffd00050004
000afffe0000fff8fffffffcffff0007fffe
fffafffffffe0003fffd0001fffe00040000
0004fffd0000fffc00000002fffa00000006
fffffffdfffe0000fffe0001000200030000
fffffffffffc0000fffe0004000100000004
fffdfffeffff000200060000fffd0000ffff
0002fffffffffffc0000fffe0004fffefffe
fffa00010001fffe00020002000000010000
0000fffefffc00060005fffc00010003fffd
fffefff8fffdfffd0006fffc000400020004
000100030002fffc000a00010001fffbfffd
0000000200000000fffffffefffbfffffffc
0000000200010001000300000002fffe0005
000000000001ffff0001fffdfffdfffeffff
fff800050003fffc0002fff9fff900040000
00050003fffd00010000fffafffefffdffff
fffb00020002000400000003000000020000
fffcfffdffff0000fffffffb000000030000
fffefffffffdfffdffff0000000000020002
00020004fffefff7fffffffb000700030002
0003000000040002ffff00000000ffff0002
ffff00000000ffff0000fffe0000fffcfff8
fff900000000fffdfffe0000000100050002
0003fffc00060006fffe0000fffefffffffc
fffefffbfffd00080000000000000004ffff
000200010000000400020000fffc00000000
fffdfffe00010000ffff0003fffe0002fffe
0001ffff00020000fffefffd00020003fffc
0002ffff0002fffffffc0000000000030002
0000000000060003fffdfff500010000ffff
fffc00000000ffff0000fff9fffefffffffa
000100000002fffcfffe000200040000000a
00010000fffdfffb000200000000fffefffa
00000001fffb00020000fff900000001fff9
ffff00010003fffefffffffcffff0002fffa
0004fffb0001ffff0000fffdfffefffcffff
fffffffe0000fffcfffc00010000fffb0006
fffffffe00060001fffefffcfffe00000000
0001fffd0002fffd000100000004fffe0004
0000fffffffd0002ffff0003000700070000
0000000300000000fff9fffc00030000fffd
0007fffc0003000000000004000400010002
fffe0001ffff0000ffff00030007fff70004
fffafffb0000000000010000ffff00040002
fffdffff0003fffe00050003000100000000
000000010001fffe00010000fffc0000fffd
00000000000100050001fffdfffd00020000
0000fffeffff00060000000200010000fffb
fffafff900000005ffffffff0000fffd0003
00060001fffffff9fff900000002ffff0003
fffe0001000000000000fffd0009fffffffd
0000fff9fffc00010004fffdfffefffefffd
fffcffff000300000002000a0000fff90001
00050000fffe000000000002fffe0000fffe
fffe00040001ffffffff0000000200050002
00010005000300030001fffa0001fffafffc
00020009000200010001fffcfffffff9fffb
00000001fffe00010001fffcfffefffefffc
ffff000100030001ffff0003fffc00000002
ffffffffffffffff0000ffff000300070000
00000005ffff0006fffc000000000000fffe
0004fffb000c000000000001fffefffb0004
0006000000040000fffa00010001fffb0005
0002ffff00000000000000000000fffcfffd
000100000004ffff0004fffb0001fffffff7
00020000000000010000ffff0000fffafffc
fffd0001fffefffd00030000fffe00030001
0000000100010000fffe00010002ffff0003
fffdfffd000a0000fffe00010005ffff0000
0001fffefffefffd0008fffe00030006fffe
fffdfffe0002fffe00000002fffb00020000
00000001fffc0001fffffffd0007fff90000
0000fffd0003fffe00000000000300000002
0000fffc00030004fffd0004000300000001
fffb000400040003ffff0002fffffffd0000
0000000400010001fffdfffe00000009fffd
0003fffaffff0003fffefffdffff0002fffc
ffff0002000200040003fffd000200050000
fffe00010004fffefffffff8000100000005
ffff00030000fffffffe000000000000ffff
00040002000300000000fffbfffffffe0006
fffe0003ffff00030000fffcfffffffeffff
000000000000000200010000000000020000
00000003fffd0000fffb000000000002ffff
0000fffd000100000000fff900030000fff9
ffff0000fffe0000fffdfffd000200070004
0000000200010002fffd0003fffc00000000
0000000100000002fffffffe0001fffe0000
fffcfffe0000fffd000100010006fffd0005
fffcfffefffcfffe00020006fffefffd0004
000000020000fffc0001000000000000ffff
fffd00020000fffc00000000fffefffd0002
ffff00010000fffd00000002000100030003
00000001fffdfffefffbfffe000000000000
0003fffcfffe000400000006fffd0000fffa
0001000200050000ffff0000ffff00010002
fffefffb0000ffffffff0000000000040004
00000001ffff000000000002fffe00050000
0003fffeffff00020000fffcfffffffe0001
0000fffdfffb0000ffff00000000fffeffff
00010003000200000002fffa000000000005
000600010000000000020000000100000000
00040000ffffffff00000001ffff0000fffe
00000003000000030002fffffffd00010002
ffff000600010000fffa0000fffc0000ffff
0002fffc0004000300010000000100010000
00020002ffff000000020005fffffffe0001
00010000fffe0000000500000003fffe0003
00000004fffe0000fffc0001000400000001
fffd000700000002fffdfff8fffd00010004
fffeffffffff00020005000000010000fffe
0000fffc0009fffe0004fffb0000fffd0000
ffff0002fffc000400050008fffe00000000
0002fffefffe000300080000fffffffe0001
000000000002fffe0000fffcffffffff0000
0001fffd00050000000200040001ffff0001
00000001ffff00000000ffff0001fffe0002
fffe00000000000300010000ffff00020003
00040001000700020002fffd00000000fffb
0003000100000001fffffffc000100040001
00020000fffe0000000200000000fffefffe
000100020001fffdfff9fffc0000ffff0001
0002fffc0000ffffffffffff00000000ffff
fff80000fffd00050000000100050009fffb
ffff0000fffb00000006fffcfffd00030001
000100030000fffb0001fffefffe00000003
000000020000000100020004ffff00010000
000000000000000100010003fffe0000ffff
0006fff20003ffff0006fffbfffafffb0000
000000020002000000020002000000040003
000200000001000000000000000000000003
fffd0006fffffffe00000000000400010006
0004000000000000fffd0000fffc00020000
fffefffb0000ffff00000000fffffffb0008
fffefffdffff00050000000100040001fff9
fffffffe0002000100000000ffff0000fffd
fffc00000003fffffffefffffffeffff0000
fffeffff0002000000020003fffdffffffff
fff9fffd000700010000000100010000fff9
fffb0000000200040001fffb000300030000
fffc0004fffe0000000100000002fffa0003
fffdffff0005000600030002000400020000
0000000400000000fffe00010000fffffffe
ffff0000ffff000000000000000000000001
000200000001000200040000000100010001
0000fffafffe00010003fffe0002fffd0000
0002fffeffff00010003fffe000400050000
000000000000000100000002fffd0000ffff
000000010000000100010003fffffffeffff
ffff000500030000fff60006fffe0006fffa
00060003ffff0002ffff0000fff900030004
0002fffc0000fffb0002ffff00010000ffff
fffffffffffe00000000fffa00020001ffff
0001fffd00030000fffe00010002fffeffff
0002ffff00000000fffffffc000200020000
0002fffb00000000fffcffff000000000000
0003fffcffff0004fffb0000000000030001
0003fffdffff00030004fffd000100000002
0000000100020000fffcfffa00030000ffff
000500010006000300000000fffc00000001
000500000003000000020001fffc00020001
0000fffffffc000000000001fffbfffffffd
00050000fffdfffe00030003000000000001
0001fffcfffefffe0003fffdfffc00000000
fffc0004fff90004fffa0005ffff0001fff7
0000ffff0000000000010002000300000000
0001fffd0003000100000002fffefffcffff
fffd00070000000100040001ffff00000000
0000fffdfffb0000fffcfffd0000fffc0003
00030000fffefffe0003fffe0000fffffffd
fffa000200020000fffefffd00000000ffff
ffff00030000000300000004fffdffff0001
00000000fffe0000000d0006fffc0002fffc
fffcffff00000002000400000000fffcfffe
000000000001fffd00010001fffdffff0000
0002fffffffffffe00010001000000010000
ffffffff0001ffff0001ffff0000fffffffd
0001ffff0003fffe0000000800010003fffe
fffe0002fffb000400000009fffe0003fffe
fffffffefffefffd00020006ffffffff0001
0001fffcffff00010003fffffffe0001fffb
0000000000010001000000000001fffc0000
0000fffc0001fffa000600000002ffff0007
00000002fffefffdfffefffa0000fffffffd
0003ffff0000fffbfffe0001fffd0001fffe
000100020002fffbfffc0000ffff00030000
00030000000000000002fffeffff00010005
fffd000300000001ffffffff000000010000
0000ffff0000fffefffc0000000200000002
00010001fffc000100020003fffe00000000
fffd00040004ffffffff000000040000fffe
0000fffe0003fffdffff0002fffe0000fffd
0001fffc000300000008fffdfffeffff0001
000000000002fffffffdfffd00000000fffd
fffb00000000ffff00000005ffff00000000
ffff00020005ffffffff0005ffff00040002
000200000000000000020002fffdffff0004
0000000cfff7fffcfff700040004000afffa
00000001000300000004ffff000000000004
0000ffff0000fffd0000fffdfffcfffd0008
0000fffb00020001ffff0000000300000003
0001fffbfffc000000000006fff90005fffe
0001ffff00030001fffeffff0001fffe0000
00030002000000060000ffff0000fffd0000
00040005ffffffff0003fffdfffefffa000a
000200000000fffdfffdfffbffff00020003
00020002000000000000fffffffe00000005
0000fff800030000fffeffff000000030003
0002fffe0000ffff0001fffc00000000fffe
000400010003fffbfffbfffe00000004fffd
000000040000fffe000000000000fffffffd
ffff0002ffff00040000fffe0002fffb0001
fffd00000000fffffffcfffefffb00000005
0000fffc00000000ffff0001fffffffe0000
ffff0001fffffffefffc0002fffffffe0000
000100000000000000000001ffff00000001
00000000000100000000000200050000fffc
fffb0000000000050002fffe0000fffcfffd
0002000000040004ffff0003000200000000
fff9fffb00130000ffff000100040000fffb
0004ffff00020002fff9000300030000fffe
000000040002000100000000fffe00000001
00000003fffe00020001000000020000fffa
00020000000000000000000300020002ffff
fffc0004fffdfffd00000003ffff00000004
0003fff9fffa0002fffbfffffffcfffd0003
000200000004000200010000ffff00010000
fffd0001ffff0003ffff0005fffe00010000
0003000300020002fffffffb000400010001
fffd0001fffefffafffafffe0002fffe0000
fffb00000000ffff00000000000300020005
0000000400000000fffdfffa000000000002
fffe000200030002fffe0000fffe00030000
0004fffffffe0000fffeffff000600010000
0005fffffffdfff8fffd00020004fffffffe
0004fffc0007000100010003fffe0000fffc
0005000000010001fffffffe000100000002
0003ffe80005000600060008fffd0001ffff
00010001ffff00010003ffff0000fffbfffe
ffff00000005fffffffe0002fffe00030004
0002000200000003ffff0000000000000002
0000fffa00040003ffff0000fffcfffffffd
00000000ffff000000010000ffff00000000
0001fffd0000fffbfffffff9fffdfffb0000
0000fffafffffffe0000fffe000000040000
fffcfffbfffcffffffff0001fffe00020001
0002000000050000ffff0002fffe00040000
00010004ffff0001fffbfffe0001fffe0000
000000010000fffe0000ffff0001fffefffe
00050002fffd0000fffa0004ffff00020001
fffd00080001000100000003fffe0006fff8
ffff00020000000200000003ffff0000fffc
0001000800020002ffff0002fffffffcfffc
00040000000300030000000000010002fffc
000200000000ffff0003fffd0001fffd0002
fffd000300020000000600000001fffb0000
0000fffd0000fffd000300000001fffe0001
fffdffff00050000ffffffff00000001fffe
fffe0005fff800000001000300000000fffd
0001fff90000fffc000500020008fff80005
0004000300000000fffdfffefffe00050000
ffff00020006fffffffe000000040001ffff
0000fffe00010001fffffffe0001fffdfffc
0001ffff000300010001fffc000100020000
000000000001fffeffff0003fffdfffc0000
00050007fffeffff000300000001fffcfffc
fffd0001fffc0002fffe000500000004ffff
ffff00000001ffff0000fffd000000000001
00020002000100000000fffffffeffffffff
fffe00000007fffefffffff900000016fffe
0001000500000002ffff00030000ffffffff
fffffffe0000ffff00000000000000030000
0001fffffffe0000ffff0000000000000000
0000fffe0003000000020000fffffffb0002
0003ffff000200020001ffff00000002fffd
000200010001fffefffc00000000fffd0000
00000001fffe00040001ffff000400000001
fff9fff6000300060000fffffffe0001fffd
fffbfffcffff000000000000fffdfffe0000
00000000fffe00000000ffff000300000004
ffff000200020000fffbfffdfffffffdfffe
000200040003fff8fff90002fffd00010001
fffffffe000000030000fffd0002fffc0001
fffdffff00030001ffff0002000000010000
fffd0003000000010004fffe000000000001
000600010001000000000001ffffffffffff
fffc0003fffcfffefffa0000fffbfffc0003
fffe0006fffa000200060001000000010002
00000001fffffffffffb0003000400010000
fffbfffc0001fffefffc0001000100000003
0002fffa00010000000000000000fffe0001
00010000ffff000000000001000200030005
0001000300000002fffffffd00030004ffff
00000001fffb000000040003000000000000
00010000ffff000000040000fffeffff0000
0001000100030000fffb0005fffe0000fffe
fffe00010000000500000001000000050000
fffb0002ffff000300000001000000020007
0009fffc0007fffb0001fffd0004fffb000c
000000010000fffffffcfffc000000010005
0000fffe00010000fffc0006fffc00000004
00000002fffe000000000001ffffffff0003
00010000fff7fffdfffc0000fff3ffff0003
fffffffe000500000002fffd000100010000
000000010001fffefffd0000fffdfffe0000
fffdfffafffe0001000100040000fffdfffe
fffeffff00070002fffb0003fffc00030001
0007fffe000000000004fffc0006fffc0000
000000020000fffb00020000000000000002
00020003fff9fff90003fffe000000010003
0003000200020003fffefffe00010003ffff
ffffffff00010001ffff0003fffc00010000
00040000ffff00000001fffcffff00010003
00020004000afffcffffffff000000000001
0000ffff0002fffffffe0000fffffffdfffb
0000fffdfffc000000050002fffdffff0000
fffefffe0000fffb00020000ffffffff0000
000200040001fffdffff0001000500010000
fffe0004ffff000100060018fff60000fffa
00000004000400000003ffffffff00000000
fffc00000000fffffffffffe0005fffcffff
0005fffdfffb0004fffefffe0000fffe0004
0002000300020000fffdfffb00020001ffff
0000000300000001ffffffff000100050003
00000000fffc0004fffb000000010000ffff
fffffffd0000fffe000000040000fff90001
0000000ffffcfffafffe0000fffc00060007
000200010005fffc0002fff9000400050001
fffdffff0005fffe00000004fffcfffbfffa
0001fffffff9fffe00010000000000020001
fffeffff0000000000050002fffd0005fffc
ffff0001fffffffd00000000fffb00000000
00000005000000020000fffdfffc00030000
0004000300000001000000040000fffd0001
fffe0005fffe00010004fffeffff00000000
0001fffafffffffc00020000fff80007fffa
0003ffff0005fffc0002fffcfffcfffffffc
fffc0000fffdfffa0001fffffffbfffd0000
0004fffdfffefffe00020003fffe00060003
0004fffffffffffd0000000000040002fffa
fffefffdfffa000100020003000000010001
ffff0001fffd0004000900000000fffe0004
000300000001fffdfffd00000000fffa0002
fffb0003fffe0000fffdfff8000100000002
00060007fffe000800000005000700000000
fffdfffb0003fffa00010002fffa0000ffff
00050001000200040000ffff000000020003
00030000000000020002ffff000300070005
0002000200050000ffff0001fffdfffe0000
fffe00000004000500010003fffe00000000
fffa0005000000000001fffffff900070000
00000003000100020003fffc0000fffc0000
ffff00020007fffe00050004000000020005
fffb0005fffe000100000003fffffffd0000
fffe0000fffcfffe0000fffe000300000000
0004fffdfff70000ffff000000030001ffff
00000000fffffffc0003fffd000500000002
0002fffe0002000100000000000000010007
000000010002fffdfffdfffdfffe0000fffa
0001fffaffff000500030002000000000001
00000000000000010002000000000000ffff
fffd0000ffff0003fffe00030006fff9000b
fffeffff0002fffc0004ffff000300020000
00000005fffbfffc0003fffb00000000ffff
000000000000000000030001000000060000
00010002fffe000000060002000400000000
fffb0003fffefffe0001fffb0003fffe0002
ffff00040003fffd0000fffafff9fffaffff
0004fffbfff800060002fffe000900010009
00010002000b0003fff90006000400080004
00010000fff7ffff0005fff600000009ffff
fffbfffe00050000000700010004ffff0000
fffffffdffff00000000fffd000000000005
0000fffe0000fffe00050004000000020002
00000000fffb0005ffff0007000300010004
0000fffe00030002fffe0000000300010001
fffeffff0000000200040002000500020005
ffff0007fffb00000006fffd0003fffdfffe
fffffff9fffbfffbfffafffefffd0004fffd
ffff00010000fff80001fffeffff0004fffe
fffe0007fffefff900010001fffc0006fffc
0000fffe0003fffc0008fffcfffc00000003
fffe00000000fffcfffffff9fffc00050000
000000010002fff8fffe0000fff8ffffffff
0000fffd00020000fffe0000ffff0006fffb
00000000fffdffff0005fffffffffffffffb
00010002fffd0005fffd0000ffff0001fffc
fffdffff0001fffa00070000ffff00010001
0003fffc0001ffff0000fffbfffe00030002
00020002ffff0001000100010002ffffffff
0007000100040000fffcfffe000800050001
ffff00000000000000000000fffefffefff9
fffd0002fffd000200030005fffb00010001
0002fffe0001000100000000fffe0000fffc
fffcfffa000000000000fffefffdffff0002
ffff00010001fffd00000002000000030000
fffe00050000fffffffb000000040004fffd
00030005000300000000ffff0004fffe0000
00000001fffefffffffffffcfffffffafffe
fffc000500010001000200000002ffff0002
0000fffd0003fffbffff0001fff8fffe0005
0000fffdfffd0003fffe0000000500060003
0005000600000005fffbfffb0004fffa0000
ffff00020002000600020003ffff0006fffc
ffff0004fffc00010005fffe000100010000
00010000fffd000300000002000000000006
fff90002fffbfffe0006ffff0000fffd0000
0000fffc000600020005fffbfff7fffe0006
000400030001ffff00000006fffffffcfffb
fffd0000fffb00050001fffa000300000000
0007fffe0006000200060000fffefffb0001
fffefffe0000fffe00020008fffafffc0000
0003fffdffff000100000000ffff00030000
00000001fffdfffd0001fffd000000010005
000000040003ffff0007fffdfffdfffdfffc
fffdffff0001fffefff80006fffb00030001
000000030002fffe0002000200000000fffb
0002fffffffc00010002ffff00020001ffff
fffc00010008000200040001fffcffff0000
ffff00000000fffe0000000000010004fffe
ffff0000fffe0000ffff0000000000040000
0003fffe000200000002000700010006fffd
0000000000040000fffefffe0001fffe0003
fffdfffcfffa0007000100050000fff90000
00000000fffffffe00010002fffcfffa0004
000500060000fffc0002fffcfff900010000
fff80002ffff00000002fffe000100000002
00010003fffa000000010003000000000000
000200010002fffffff9ffff000500040000
fffc00000000000300010003000300000002
000000040003fffbfffefffffffefffefff9
ffff0003ffff0002fffe0000ffff00000002
fffefffffffdfffd0002fffe000000000000
000100000001fffa00000000fff9fff80000
000400000000fffe0000fffffffe00010000
0000fffffffffffe0000000000000003fffd
000200010000000400050000ffff0004fffc
000300000001fffefff90002fffffffcfffd
0000fffb0003fffe00000000fffcfff80004
ffff0001fffafffa0001fffd000000050000
0003fffdffff0001fffb0002fffa0003fffc
ffffffff0000fffd00050000fffd00000002
000400000001000600050004000500000000
fffe0000fffe0003fffd000000070002fffe
00000000ffff0004000100000005ffff0000
0002ffff0006000200030007000100020006
fffe0000fffe000100000001fffefffdffff
ffff00010003000000010000fffd00020000
fffffffdfffffffeffff0000fffcffff0001
00030004000800050002000000000000fffd
0001000300030003fff90002fffb00050002
0002fffb00030000000000000001fffffffc
fffb0005fffe0002fffdfffdfffffffbfffd
0000fffffffefffd000300010000ffff0000
ffff00010001fffcfffefffdfffe00000000
fffc0000fffe00000002000300000001ffff
ffff0005fffcffff000a0003000000030000
0002000000000000fffcfffc0001fffefffc
0001fffefffc0003000000000000fffe0001
0003fffc00080002fff900060003ffff0000
fffefffffffc0001fffb0003000300000000
000000020000fffb0005fffb0000fffffffa
0003ffff0000000700000002fffffffc0003
fffd00000002fffd000300000000fffaffff
00010002fffd00040005fffa00040004fffd
000000050003fffd0000fffd0000fffdffff
00050000fffdfffc0002fffe00000005fffa
00020004fffd0005fffdfffd0000fffe0003
ffff0001fffffffefffc0000fff9fffe0004
0005fff80001fffe00000000000000020001
0001fff80002fffffffa0003fffafffefffc
fffefffe0000fffdfffdfffeffffffff0000
fffbfffdfffffffe0004ffff00000005fffb
fffeffff00000001fffc0001fffd00020005
000100010004ffffffff0000ffffffff0000
000100010000000100020004000000010000
fffd0000fffa0001000000010004fff70007
0005fffd000000010000fffdfffefffc0007
fffdfffffffe0005fffdfffb00040001ffff
fffe0009ffff00040002fffefff90007fffd
fffefffb000000000000fffdfffe00010002
fffefffa00010000fffb0000000000040004
fff9fff9ffff0001fffffffe00000004ffff
0000ffff000000060002fffa000600040000
fffd0000fffeffffffff00070001fffe0002
fffc0004fffd00000001000000020000fffd
000400000004000400000000000000030004
fffffffd0001ffff00030001fffefffc0004
0008fffe000000030008fffe000000050000
fffc000200010003fffe00010003fff60005
0000fffd00010000fffeffff000000050000
000000010003fffffffa0003fffdfffffffc
0002fffe0003fffbfffb00050000fffcfffd
0001fffe00030003fffd000100010000fffc
0001000100020002fffd0000fffcfffcfffb
fffbfffefffdfffdfffbfffd0004fffd0000
00000001fffefffc000000000001fffe0001
00000000fffdfffcfffe000000010001ffff
00020000fffefffffffbfffd0001fff7fffb
000100040000fffc00000002000200000000
0001ffffffff000100020001000000090000
0006fffffffe000a00020003000100030001
00010004fffdffff0004fffc0004fffb0000
fffcfffafff600030003ffff0000fffe0005
fffd0002ffff00010000ffff0007fffb0000
fffb00040000fffdfffa0001fff700000003
000100020000fffa0003fffdfffe00020001
00030000fffd0000fffdfffe000000040000
000000000002fff3fffdfffcfffefffe0000
000200020001fffa00020000fffd0004fff9
0005fffb0007fffb0009fffbffff0000ffff
0000fffb000000040001fffdfffefffe0002
0002fffd0000fffb0003fffffffffffafffe
000100000001fffd00040001fffbffff0005
fffcfffe0002000200020001000500030009
fffe0000000200030000fffffffcfffd0002
fffffffe0000fffe00000001fffbfffe0004
0000ffffffff0000fffcfff900020001fff8
00000003fffb0001ffff0000fff9fffcffff
fff8fffdfffd0000ffff0000000000000004
fffd0002ffff000400060004000000020003
fffffffd000000010000fffe000100020005
fffffffffffe0006fffc00060003fffe0002
000300000004fffaffff0000000200020002
00030000ffff0004fff8fffd00030003fffc
00020000fffbffff00010004fffeffff0000
00000002fffcfffd0008fffcfffc0003fffc
ffff000400000000fffffffefffdfffe0000
fffdfffafffa0001000200030001fffdfffc
fffd0001fffffffffffe00010002fffefffc
0005000500010003000000000005fffd0004
ffff0002fffdfffefffafffbfffe0000ffff
0001000000020004fffd00000003fffbffff
0005000000000001fffd0002fffa0000fffd
ffff0000fffffffe0001fffb0001fffe0003
ffff0006fff900010004ffff0002fff20003
fffe00010000fffc00020003fffe0000fff7
0002000300040000fffe00020000fffc0001
fffdffff00010002ffff0002000200010001
fffe000100030002fffb0001000000000004
0003fff9000bfffd000afffc000300020000
ffff000200030000fffffffffffb00000000
00020000fffbfffefffefffefffafff9fff4
00010003ffff000200000003ffff00030002
0001fffffffbfff700020000fffffff60000
fffefffa00000000fffbfffefffe00010002
0002000300000004000400020002fffcfffd
0001000300030001fffb000bfffefffbfffe
00010000fffdfffefffefffafffe00020000
00010001ffff0000fff8fffe000300010000
0002fffdfffb00000001fffa000000000001
ffff0004ffff0007ffff0004000200060000
ffffffff0004000300020000000000010002
0000fffe0001fffc000100050000fffe0000
0002fff800040005fff60002000000000000
fffe0000fffcfffd00000000000000000002
fff9fffbfffd000000040003000000000004
0003fffc0000fffdfffe0004000000000000
ffffffff00020000fffe000100010001fffd
fffe000b0000fffafffe00000003fffc0001
fffd00000005fffd0000fffcfffafffffffd
0000fffdfffe0002000200060003ffff0003
00000002fffc0000fffb000300020000ffff
0002fffd0003fff800050003fffdfffd0002
0003000300000000fffcfffffffdfffd0000
00020000000300010000fffffffd00020001
ffff00020000fffc0004000000040000fffd
00060004000100010004fffd0000fffcfffd
0003fffefffb0004fffdfffc000000000000
000000000001fffb00040007fff9fffc0000
0000fffffffcfffdfffdfffe00010000ffff
ffff00000002fff700000003ffff00000003
0002fffefffd000100030000000100000001
0000fffc00040000fffe0000000400010000
0002fffc00020000fffcffff000400010001
fffcfffe00000000fffefffcfffd0005fffc
ffff0000fffc0002fffffffc0002fffe0004
00000001fffc0006fffa00060001fffe0001
fffe0000000100000005fffeffff00000003
00000005fffe0002fffefffdfffe0000fffe
0002fffdfffc0003fffbfffdfffffffd0000
0001fffefffa0009000100020003fffdffff
ffff0001000000010000fffd000300000007
ffff000000000001fffd0007fffc00040000
000300030001000400000002000100000000
00020000000300050000ffff000000000001
0000fffe00000000fffe0002fffd000afffc
ffff0006fffe000700000004fffc0001ffff
ffff0000ffff000000030005fffffffd0004
fff6ffff00060002fffd0007ffff00040007
fffc00000005fffeffffffff0006fffd0000
0006fffb00030004ffff00030000fffffffc
0000fffe00030000fffe0000fffb00000000
0001000a000000020002fffffff8fffeffff
00020001ffff0000fff9000000010003fffd
00010000ffff000000040001000400010002
0001fffffff8000000060001fffffffc0001
fffe000000010004fffcfffc000100020003
00000004fffdffff0001fffdfffbfffd0002
0000fffc000200060001fffb0002ffff0001
fffafffd000000000002fff700020002fffa
0001000200000001ffff0000000000000000
0005ffff00000002fffe0000fffd0001fffb
fffeffff000100010001fffffffa00030000
0001000000000001000200030000fffeffff
ffff00010000fffffffbfffefff90000fff9
ffff0000ffff000600000006fffcfffffffe
fffdfffd0000000400000000fffdfffdfffd
fffc0001fffdfffe0002fffe00000001ffff
0001000300030001fffffffe0000fffe0000
000000000001fffe0003fffa0001fffd0004
00000000fffb0000ffff0000fffb00060000
fffe000000030005fffe0000fffcfffafffd
0002000100030002fffe000200000004fffe
fffefffb000300040001fffc000300060000
00010002fffe00010005000000040000fffe
fffe000300000001fffeffff00040001fffb
00000005fffdffff0004fffb000300020004
00000001fffe00000003ffff0000fffdfffb
000b0001ffff0000000a00020004fffd0007
00000000000000010000fffb000000020002
fffd000400030002fffffffbfffd00000003
0001fffcfff80002fffefffb0000ffff0000
00020003ffff000000010000fffd00040004
00040006fffd0000000000040000fffe0002
ffffffff00020000ffff0000fffefffdfffb
0001ffff0000000000030000fffc0005ffff
00010000fffffffcfffb0003fffc00000000
00000006ffff00030004000000000000fffd
fffd00020001000100010003fffe00030001
fffffffefffffffe0001fffcffff0002ffff
00080000fffafffe0002000500020004fffc
00000001fffdfffcffff0000fffc00000000
000000000001ffff0005000200040005ffff
00050002fffe0002fffe00080000000b0000
0009000200030002fffe0002000800010007
0006000600010006000000000006fffc0007
00010001ffff0000fffd0000fffd00040000
00040002fffc0000fffe0004fffa00010000
fffffffe0002000200050000000200030000
0002fffb0004fffc000200010000fffafffe
000000050004000300020006000400010000
fffd0000ffff0003fffe0002000300000002
00010000fffe000400000000fff700020000
000200040001fffffffbfffefffffffdfffe
0004ffff0000fffd0000fffa0001fffefffd
fffcfffd0001fffe00000000fff900050002
0002000100040000000100010002fffb0004
fffeffff00030003000500010004fffe0000
0000fffdfffc0000000400020005fffeffff
00030000fffe000200040002fffefffd0002
0000fffb00080000fffd0001fffc00050005
00040002ffff0001fffffffcfffdfffc0000
fffe00000001fffd0005fffdfffc00010001
000200040003fffffffcffff0000fffcfffa
000000030001000000000000fffcffff0000
000400010004ffff00000002000300000001
000500000000fffe00000000fffefffdfffc
000300060000000500020000fffa00000004
ffff000000000002fffd000500000000fffb
000100020004000200000000fffefffb0005
00000002fffc0004fff90002fffc0003fffe
fffb00020000000100000002fffefffb0000
000000000004fffe0000fffdfffd00020000
00030000000000010003fffdfffc0000fffe
ffff00030002fffd0002fffd000600030000
000000000005000000030006fff90003000a
fffffffdffff000500040000fffd0000fffd
00000000fff700010008fffefffd00020001
fffd0001fffd00030004000000000000ffff
000200030007fffbfffffffe000100050002
0004fffffffe0001fffa000400030000ffff
fffefffefffc000400040000fffc0000fffd
fffefffefffefffffffcfffb000300010000
000200060000fffaffff00040000fffcfffb
0001fffbfffe000400020000fffbfffafffa
fffd000100000002ffff0002fffb00030000
0001fffe0004ffff00020001ffff00000000
ffff000400000000fffeffff000100030001
fffbfff60000fffd00020004000300000006
00000000000000000005fffcfffdfffdffff
0001fffd0004000000000000fffe0000fffc
0001ffff00000008fffefffcfffe0001fffe
fffc0000ffff0005fffe0000000000030001
000100000000000000040005000200010000
0000fffd0005fffd0000fffe00000002fffd
00000003fffdfffe000300010003fffe0000
000200080007fffffffcfffd00000006ffff
000200030003ffff000200020000fffe0001
000000000001000000020001000300020000
000100020001ffff0000000800050004fffe
00020000ffff0000fffb000000020000fffe
0000000100000000000300020000ffff0000
000100070006fff8fffefffcfffd00000002
ffff000400040000fffe0004fff800000003
00040000fffefffefffc0003fffb00010000
000000020005000afff9fffcffff0000fffd
000400010002fffcfffa0000fffbfffc0000
000200020002000000000001fffdfffe0003
000000000000000300020001fffbfffdfffe
0000000300010001fff8fffafffc00000000
fffdffff0001fffefffefffb0000fffdfff9
000200000001fff9ffffffff0005fffffffe
fffa0003fffb0000fffe0000fffa0001fffb
fffcfffe0000000100040000000000030000
ffff00000000fffe00030003fffcfffcfff9
fffd0000fffffffcffff00020006fffbfffd
000100020002fffb0000000000010000fffd
0000000400010000000100010000fffd0008
00000004fffb0004fff90004fffd0003fff9
0000000000000000fffffffd000000080002
fffffffcfffdffff00030001000000030003
0000000afffbfffe00050000fffe0003fffc
0001fffeffff000300000003000000020000
0003ffff000400000002000300030003fffa
00000005fffbfffe0008fffbfff7fffb0000
fffe000300020004000300000001fffdffff
000000000005ffffffff0001fffe00010000
0000000100030001fffc0003000000000002
000100070000000600010000fffa0000fffd
fffafffc0004ffff0002fffc00030006fffb
fffe00020000fffdfffdffff000500040000
000400000002fffaffff000600020001fffa
ffff0000000100090000fffc000300000000
0001fffcfffd000000000000fffa00000002
fffe0000fffafffd000100000001fffd0000
0002fffc00030004fffbfffeffff00030004
0000000200000001fffc0005000300040000
0005fffc00000005fffdfffa0001fffffffd
0000fffeffff0002fffefffe0003fffffffe
fffffffbfffe00000001000100020004fffe
ffff00000007ffff0006fffc0002fffe0000
0003fffffffb000000070001fffc00000000
0007000100020001ffff0002000600030000
0002fffb000100000000fffe00020003fff9
00010004fffdfffa0002fffdfffd00000000
00060001000000010004000300000000ffff
fffe0002fffffffb0008fffb0000fffffffe
00000007000000040000fffd000000000001
0000fffafffe0002fffdfffd000100010000
fffdfffd0005fffd00010001fffb00000005
fffd00000000fffb00080000000200010000
000300010004fffdfff900030001fffffffe
fffd000300000000fffdfffe0000fffa0003
fffc00010001000000010000fffcfffb0001
00000001000300000002fffffff9ffff0000
00050003fffaffff000000050003fffefffa
000100020008000100000004ffff00000001
ffff00030000fff900000000fffefffeffff
0001fffb0001fff90005ffff000200010001
000000030001fffe000000000005fffd0002
fffb0000000000040000fffe0003fffffffb
00010004000200000003ffff000100020003
0003fffcfffaffff0008fffefffcfff80000
0000fff90000000000020003000000010000
0000fffe0000fffdfff600030003fffeffff
fffffffffffe0000fffdfffefffc0000ffff
0002ffff0000fffdfffffffefffe0000ffff
fffffffdfffe0000fffd000100000002000a
00000000fffdfffcfffb0002fffffffd0000
000000000001fffd00040000fffefffbfffd
0005000000000003fffe00050000fffbfffc
0000fffdfffe000200030001ffffffff0000
000700020000fffe0002fffafffc00040000
00070003000100010005fffe00020000fffe
ffffffff0000fffe00040001000000070000
fffa000300000000ffff0001000000000000
0003fffc0002fffe00010002fffefffd000a
000300000000000100010000fffd0005fffd
00000003ffff000000010005fffdfffaffff
fffe0001fffb0004fffd0005fffb00000000
fffffffd0004fffd000a000000000001fffd
ffff000500010000fffefff8ffff0000fffe
000500000003000100030000ffff00010000
ffff0000ffff00000003fffc000000000001
000300070000fffe0004fffb000400000000
0003000500000000fff60000000400000001
00070002fff9ffff0002ffff00060000ffff
fff9ffff00050000fffa0002000300010000
fffc00010000000000040001fffd0004ffff
0002fffffffd000400000000000400000005
000000010001000000000001000000020000
000300010000fffe000000060001fffdfffd
0004ffff0000000000040003000500040005
00050000fffeffff00010003000200030002
0008fff90000000000040000000200000008
0007000100010001fffe0002fffa00010000
0002fffefffdfffb0000fffe000800030000
0005fffafffcfffe0006fff8fffa00030006
fffefffb0003fffe00000000000000000000
0001fffdfffb00040002fffc00030003fffd
fffdfffdfffd00010005ffff000200030002
fffc000000000000000300040000fffdfffb
0000000300060002fffd000000030001fffd
00020000000200030001fffe00020001fffc
fffe0004000000020000fffffffe0006fffd
000200000004ffff0007fffc000000020000
00030003fffc0001ffffffff0001000a0005
000200030002000000040002ffff00000000
0000fffbfffe00050002000700030000fffe
0002ffffffffffff00030002fffffffbfffd
0004000100020008ffff0000000200060002
0002ffff0004fffe00010001fffffffd0002
ffffffff0007fffafffffffffffb0000fff8
000200080002000100000000fffdfffdfffe
0000ffffffff0000fffe00060005fffc0007
0000fffffffdfffcfffd0000fffd0004ffff
fffe000100000000ffff000400000007ffff
0003000000010007fffd0001000100030002
0000fffffffe00000007fffd000000010001
000000060000fffd0007fff80003fffa0001
fffc0006fffb0000ffff0006fffe0000ffff
0004fffb00010002ffff0006fffefffa0002
00050003000000010000fffffffe0004fffe
0003fffcfffc0006fffcfffb000000000000
fffcfffcfffefffdfffcffff000200080007
fffefffc000000010003fffe0000ffff0000
fffbfffcfffc00000000000000010000fffc
00000004fffbfffd0000fffc000100020001
fffefffc0002000000010003000000030009
0000000200080003fffe0000000300000006
000000030005fffffffa0002fffefffdfffc
fffe00010006fffefffb0008fffa0001fffd
fffe000000030001000500000004fffd0000
00000000fff800000000fff90001fffb0001
0004ffff000400030004fffffffafffe0005
00040002fffe00050000fffd000300020002
0000fffffffa00000006000000050000ffff
0000fffa00050004fffd0005fffd0004fffd
00000000fffd0002000000020001fffc0006
00000000fffe0000ffff000200000004fffb
0001fffd0000000a00080000000000040000
ffff0003fffa0003fffefffe0006fffd0004
000000000002fffbfffffff9000000060007
fffd000300010001fffdfffffffe00040001
0003000000010006fffc0000000000030004
fffefffd00000003fffffffc000000000000
0000fff7fffc0004fffc0000000200010001
ffff0003fff90007fffa0000fffa00020000
fffb0003fffe00040000fffafffbfffb0001
fffbfffefffd000000040003fffc00010000
000100000007000000030004fffc0000fffe
ffff00010000fffd0002000600010004fffe
fffffff8000200000002ffff0000fffd0001
fffe0000fffc0003fffefffe0002fffe0001
fffefffd0001fffb00030000000000060000
0003000100000000fff60003000000000001
0001fffffffe0003fffdfffd000000000002
0002fffbfffd0002fffc00000000fffe0007
fffefffd0006000200020002000300000005
00000004fffbffff00010006fffeffff0000
fffe0002fff7000500020000fffefffcfffd
000300000005000000030001fffc00000004
ffff00050001fffdfffcfff8fffbfffc0000
fffefffd0002ffff00040005fffb0000fffc
0003fff800030000ffff000300070001fff8
00040001ffff0005fffe0004000000010002
00000000fffe0000ffff0000fffb0000fffe
0002000400040002fffffffc00000002fffb
fffb0000000b0001fffafff9000300000004
0002000c0002fffb0000fffefffdfffefffc
00010003fffc00000004fffe000100020000
0001fff7fffd000100000002000900010006
0004000000000001fffdfffe000400060003
00090002ffff00020004ffff00030002fffe
0000fffcffffffff00030000ffff00070000
0001fffcfffd00040000ffff000000000000
0000fffc0003fffe0005fffe0002fffb0001
0003fffc0003000300020007fffffffcffff
fffb00010000ffff00020000fffc0003ffff
0002fff6fffa00000004fffc000400010003
00030002fffd000500000006000300020005
00020000fffffffe0000000200010000fffa
fffd00020000fffe0002000000000003fffb
0000fffeffff0005fffa0005000200000002
fffd000000000001fffd000100000001fffe
fffe0005fffffffe0002fffe0001fffc0002
fffc0004fffdfffd0001fffefffffffffffd
fffc0003fffdfffe00060001000000020000
fffefffefffc00010005fffb0004ffff0002
000100000000ffff00000003fffe0004fffe
00010001000100030002fffe000800060006
fff9ffff0002fffdfffa000b0004fff80007
fffa00050003fff80003000100000000fffe
00010002fffffffe00010001fff9fffb0003
fffffffd0003fff80000fffe00010000ffff
00040003000200020003fffbfffdfffcfff8
0000fffd000100000002fffd00020000fffd
0000000000040000fffd0003fffdfff80005
00030000fffd0002fffdffff000100000003
0001ffff0005fffefffeffff0001fff8fffc
0000000400010001fffefffd00060000fffb
fffffffdfffdfffcfffe00040000fffd0002
fffd000200030004fffefffc0001fffb0002
00040000fffefffeffff00040001ffff0003
00000002000000040001fffefffbfffffffe
fffffffbfffe00010000fffe000100000003
0000fffefffc000100040004fffcfff90000
000200010002000000000000000200060002
ffff000400010005fffeffff000600000001
fff9fffe0005000100030004fffdfffefffe
00040001000300000000fffeffff00000002
ffff0003fffffffcfffefffe000100000000
00000003fffc0001fffdfff9000300050005
fffcfffdfffcffff0001fffd00070003fffa
000300070000fff9fffcffff000100060000
000000060003fffefffe0003fffc00000000
fffcfff90000ffffffff0005000cfff90006
ffff0001fffffffb0000000500000000fffd
00040005fffc0002fffa0002fffdfffe0000
0003fffffffc00000005000300030002fffd
000800000000ffff00010003fffd0000fffd
fffb0001fffc000000010000fffffffaffff
fffc0002fffe000500000005000300030004
fffdfff80004fff600040003ffff00030001
ffffffff00020002fffa0000fffffffd0000
fffcfffbfffc000300000005000700030005
0000fffe000100020000000000000001fffd
000100000000fffb00000002ffff00040000
000400000001fffe0002ffff00060002fffe
fffcfffa00000000ffff00000003ffff0000
0001000300020001ffff0000000000040000
00000000fff9fffd0001ffff000300030003
00020000fffa00000000fffafffb00010000
fffe00060002fffdfffa0000fffbfffffffe
fffdfffbffffffff00060002fffe00020002
0000fff9fffe000000040002000600050001
00030000fffc00010009ffff0004fff9fff8
fff9fffcffff00000005000000000000fffe
00000002fffb0005000600030000fffc0000
0001fffc0002000300000001000000050007
000000000002fffe00020001000300050000
0001fffb000000030004fffe000200020000
000500020004fffc00000002ffff00030001
fffe00000000ffff0003000700000001fffe
00050004fffe0000fffffffe0002fffeffff
fffe00030003fffbfffefffefffcfffdfffd
fffafffdfffd00010000fff900010000ffff
0001fffc000000000005fffe000800060000
fffffffc000200000005fffc000000000003
00010002fffc000000050001000000000001
fffffffe0002fffb0004fffefffe0001fffc
fffdfff9fff8000800010000000300040005
0000fffcfffc0002fffc0000fffbfffb0000
0000fffbfffe00020001ffff000600020004
fffe0001fffefffffffc0002fffffffd0003
fffc0002ffff0003fffb0000fffa00030001
000400040000000200050002ffff00050000
fffdfffb0003fffefffd0000fffcfffffffd
000000000002fffe00000002fffdfffd0000
000000000004fffcfffe0001ffffffff0000
000000030004ffffffff0001000400010000
fffd0000fff9fffcfffc0002fff900070007
ffff000100000001fffffffd00040001fffc
0001fffb00000000fffcfffb000200000005
ffff00000005fffbffff0000fffefffe0001
0000ffff0000fffd00000006ffff0001fffb
fffb0004fffbfffd0004fff8fffe0004fff6
0003fffdfff80007fffd0000000600010000
00020005fffffffc0004fff9000000020000
00000003ffff00000000fffb000200000003
fffe0004fffd0002fffeffff000000010003
fffa00000002fff900000004000b0002fffd
fffafffd000600000000fffdfffd00000000
00020005fffb0000ffff00090007ffff0003
00000000fffd000100000004fffd0000fffd
00000001fffe000400010002fffffffafffd
0003000500010000fffffffffffe0000fffd
00020000fffc000000050003000200000002
0000fffb0000fffffffefffdfffc00020000
00030002000100030001fff8000000000005
fffaffff0003ffff00020007000400000002
00020000fffe0001ffff000300000000fff8
0002fffdfffffffc0000fffefffffffffffb
000100010003000200030005fffaffff0003
0001000100000000ffff0001fffc0000ffff
00050000fffffffefffd0002ffff00030000
00010001000200010001ffff0004ffff0002
0003fffdffff00000002ffff0000ffff0002
000200000003fffe00000000fffc00010001
0003ffff00000008000c0004fffe00050006
0002fffdfffd0002fffcfffefffe0004fffa
0000000000000004fffb000000000000ffff
ffff0003fffaffff0004fffefffefffe0006
0001fffa00020000fffb0005000100000000
00000001fffc00020005fffe00040004ffff
00010000fffdfffefffffffc000000030001
000000030000ffff00020000000000030001
00010001fffefffb00010000000400050002
000000000004ffff0004fffc000200000000
0000ffff00030002fffffffe0000fffcfffc
fffe00000004fffcfffafffafff9fffd0003
0006000000000004000afffcfffa00010002
00000002000000000000000000000000fff6
0004000300010000fffe0005000000000001
000300000000000500030001000300060002
000000030001fffdfffbffff0000fffbfff9
fffcfffdfffe0000fffcfffd0004fffa0001
0003ffff0000fffe00030003fffdffff0005
0003fffd0003fffe0001000200000000fffa
000300000001fffc0003fffe000000030003
000100050002fff8000000000000fffefffe
0000000000000000fffffffefffeffff0002
00010000fffffffd00000000000300000002
fff50005fffbfffcfffe0001fffcfffd0006
ffff00000002fffe0000fffd000000000000
0004fffcfffc000500040000fffd00080008
fffffffffffd0004000000020000fff70001
fffb00000001fffd000100020002fffffffc
fffdfffd0002fffd0001000000020003ffff
fffdfff9ffff0003ffff0001000000010005
0000fffbfffe0000fffc00040003fffe0001
00000004000400010000fffdfffd0000fffd
0000000000030001ffff0000fffc0002fffd
fffd00000000fffd0001000200000000fff9
000200080002fffd00020006fffafffeffff
0002000200000003fffb000300000003fffd
000100000006fffbfffb0002000000020000
fffb000400030001fffd0001ffff0003ffff
ffff0002000000000000fffd000000020001
fffdfffaffff00040000000000060000fffe
00000001fffa0000000200000000fffc0002
ffff0000fffa00010008fff7000300070001
0002fffc0002ffff0002000300020000fffc
0006fffcffff00000003ffff000200020000
fffa0000ffff000100000000000300010001
ffff0000000000000000000100000003fffc
0000fffffffe0002fffefffc0003ffff0005
0004fffeffff000300060000ffff0001ffff
fff700050001fffcfffe0000000200020000
000300020000fffe0000fffdffff0003fffe
fffd0005000100030004000700000001fffc
0000fffe0001000100040000000100030000
0000ffffffff000200010001fffb0000fffb
0001000000000006fffffff800020005fffd
ffff000600050000fff700040001fffc0004
00020000fffefffffffefffdfffd00000003
00010002fffe00010003000100030000fffb
fff50003fffdfffa0004fffa000000000006
fffefffcfffd00010002fffb00000000fffe
000300050007fffefffafffbfffefffe0000
00000000fffc0001fffd00000007fff90001
000000010001fff700040005fffffffbfffe
fffcfffcfffc00010003fffffffffffdffff
fffa0000fffcfffe00050003fffd00010003
fffd0000fffdfffefffdfffe00020003ffff
00040002fffcfffb000000000002fffdfffd
000100000001fffcfffffff9000500020000
00030000fffa0000fffb0007000400030000
00000006fffeffff00020003ffff00060003
0005fff80000000000060001000200010001
0007fffa0000fffe00010000000100010002
fffefffdfffb0001fffcfffefffdffff0004
fffffffd00030003fffefffcfffe0000fffe
0000fffcfffffffdfffdfffefffd00020000
000afffe0001000afffbfffc0003fff9fffe
0003fffdfffb0001000400000001fffffffd
00060000000200010004000000000002fffe
fffcfffffff8fffeffff00000004fffa0006
fffffffd0002fffe00030000000100010000
fffffffa0000fffd00040003000200040000
0000000100040001fffe0000000100000000
fffe000100030001fff80000fffd0006fffe
0002fffbfffe00010000000000040008fffd
0004000000050001000000010004fff9fffb
000100020000fffffffc00000000fffefffc
00010001fffdffff0002fffd00000001ffff
fffc00000007fffdfffbfffc0005fffd0002
0002ffff0004fff90004000000000000fffc
fffffffbfff9fffdfff7ffff000100010005
000100010000ffff0000000000000000fff7
00030000fff8fff800020004fffe00000001
0004000000080001fffffff50000ffff0001
00040002fff80004000100050000fffafffe
00020003fffd0004fffe00020000fffe0000
000200040000fffd00030000fffdfffcfffe
000000000005fffc0000fffffffc0000fffa
0003fffe0004fffeffff0002fff80000ffff
fffafffe0000ffff0003ffff0000ffff0003
0005fff9ffff0006fffcfffffffb00000003
fffe000300000006fffefffffffe00000000
fffc00020002fffdfffffffb000100000000
fffe000300030002000100030002fffe0000
00010004fffe0000fff7fffcfffefffc0001
0004000000000002fffe000200030003fffe
0005ffff0003000100000000fffe0005fffb
00040001000200010002000500010000ffff
0002000600000000fffefffbfffefffefffd
fffc00000002fff60001fffffffc0000ffff
0002fffefffe00000001fffbfffc00030000
0001ffff0000fffe000100000002fffcfffd
0002fff900010000000000010001fffb0000
0005ffff0006000400040000ffff00030000
000000060003fffc0005fffffffefffffff9
00000000000200010001000300020000fffc
fffd00050000000000030001ffff0000fffc
fffcfffffffffffe00000001000000040000
ffff000200010000ffff0000fffd00050000
fffcfffffffc00020001fffb0000fffb0004
00000001000500060000fffcfffc0001ffff
0000ffff0001fffcfffc0000fffe0004fffd
0005ffff0002000400010004fffc0001fffd
fffc0000fffb00000004fff8ffff00010002
00000002000000000003fffe00050001fffb
00030003ffff00020001fffd000200020002
000000000003fffd000500000002fffe0001
0001ffff0000fff7000000040000fffffff8
fffb0003fff9fffc0002000000040000ffff
00000000000200000000000000010001fffd
fffe00010000fffffffffffdffff00000001
00070000fffc0004fffd000000000000fffb
fffe00020000fffe0000fffefffffffdfffe
fffd0005fffe00000001ffff0002fffffffe
000400030000fffd00020001fffc0000fffd
0000ffffffff00060003fff700030000ffff
ffff0006000b0003fffdfffcfffc0001fffd
0000fffefffcfffffffe0002fffffffd0009
000200000000fffffffd0003000000030001
00020005fffb000100000000fffb0005fffe
fffe0004fffe0000fffc0004000b0001fffe
fffe00000000ffff0001fffffffd00000001
00070002fffe0003fffb0004fffefffe0000
fffa00020000fffe0005fffa0004fffefffd
fffffffd0002fffd00080002000000070004
fffa0006fffefffe0005fff60007ffff0000
0002000100080000ffff000000000001fffe
0003fffffffd00040000fff9fffc00000001
0000fffafffc0003fffcfffd0003fffefff8
000000000005fffa0000fffe000600020003
fffd0003fffd0000fffffffe0001fffe0001
fffb0000fffafffdfff900000000fffd0001
0005fffffff500000006fffbfff80002ffff
00000003000000000004fffdfffb0004ffff
00000000fffdfffd0000fffe0000fffd0004
0002fffd00040000fffe0002ffff00090000
fffffffdfffffffbfffd0003000000020000
00000004fffa0003fffc0000fffefffefffe
000100050002000200010002ffff00010007
0003fffc0000fffe00000007fffffffe0003
000100000002fffa00000001fffd00090006
ffff0004ffff00010001000100020000ffff
0005ffff000100010008fffbfff8fffefffb
fffefffd0003000400010000000400000000
0000000000030002fffc0000000500000000
fffd00020006fffefffd0007000000020000
fff9fffefffcfffffffffffe0001fffe0003
fffefffc0000fffc00020005000100030001
00060000000300070000fffdfffd00000002
00020000fffdfffe00000000000000040000
fffe00040000ffff00050000000100010001
0000000000000004000000050002ffff0001
ffff00000004fffefffe000000030008fffd
fffefffe0007fffffffdfffe0000fffefffe
00030001000000010000fffe000300020003
fffa0004fffa00040000fffd00010000fffb
00000001fffd00040000fffcfffffff90001
0000fffffffffffd00010000000100000001
00000002ffff00030002fffefffe0000fff8
0000fffb0002ffff000800000000fffdfffe
00010003fffb00000002fff8fff700000002
00000003fffdfffc0003ffff00030002fff8
00030000fffe0001fffefffcfffefffffffc
00020006ffff0002fffefff900050000fffb
0000fffc0000fffb0000fffdfffe00000003
0000fffffffd00040005fffe00030000fffb
000000020006000000000001000300000004
fffd0006fffc000100000000fffffffafffd
00030004000200030002fffcfffc00000004
000500010002000100030000000500000000
fffe0002fffbfff8fffc0002000400000004
0000fff900010005ffff0004000000000000
ffff00010005fffb0001000200050000ffff
ffff0001000200030000ffff00000000fffd
0000fffd00000004fffbfffe00010002fffe
fffa0000fffffffc0002000300000005ffff
0000fffc00010000fffc000300010000fffc
00030000ffff0002000300070005fffe0002
fffcfffafffffffe00030000ffff00060002
0004000000040002fffd0000ffffffff0000
fffcfffc0000fffefffc0002fffdfffd0007
fffbffff0000fffdffff0000000000060001
fffe00020001fffd0000ffffffff00010005
fffa00000002000300030001ffffffff0001
0000fffefffefffe000700000001fffbfffb
0004fffc00010003fff9fffe00000001ffff
00000005000600030000fffc0001ffff0002
000000040001fffaffff0006fffb00010001
fffe0000fffd0001fff80000fffe00000002
fffefffb000000000000000000000001fffe
0008ffff000400030003fffbfffd00020002
000700050001fffeffff0000000000000006
0004fffe0002ffff0000fffb00040000fffc
fffe00000000fffe00060000ffff00070003
00000000000300000008fffefffa00030002
fffbfffd00050001fffc0000fffe0000fff9
fffc0001fffbfffffff9000700050000fffb
000000050000fffeffff0001fffefffc0000
000200010006fffbfffd0000000000040002
00020008fffc0000fffdffff0001fffb0000
000300040009ffff00000001fffe00000003
00020000000300000000fffe00050000fffd
ffff00050000fffc000500040006fffd0000
0003000000000003000400000004fffcfffb
00000004fffcfffeffff00050000fffefffc
00010006000100000003fffe000800020000
0000fffc0000000100040000000300030005
000500000006000100020002fffb00000004
0005fffdfffd00000001fffefff9fffefffb
fffbfffdfffefffdffff000000040003fffd
fffbfffbfffcffff000000020001fffffffe
00000001ffff0000fffefffc0000fffffffe
000600000004000100070001fffffff9fffd
0000fff80003ffffffff00040000000affff
fffefffdfffe0000000200010007000b0004
000000030001fffd0005fffdfffbffff0001
0001fffd0000fffffffcfffa0000fffd0003
00010000fffffffe0002fffe0002fffbfffe
0000fffe0002fffffffbfffafffd00010002
000200000000fff9000000060005000afff9
fffc0006fffcfffdfffffffdfffdfffcfffe
0003fff9fffd000000080000fff9fffefffd
00000000fffc000100000000000200000003
00010003fffb0000fffdfffffffeffff0000
0001000000000003fffafffb00090001fffa
00010005fffcfffd0005ffff000000010000
0000fffd0004fffa00000001ffff0004fffe
00010002fffd0000fffb0004fffd00010007
fffb0003000000080000fffe0001fffa0003
ffff000200000000fffc00070005ffff0003
0001fffc00010000fff9000000000000fffd
000200000002000afffefffb000100010000
fffefffdfffdfffafffd0001fffd0000fffe
fffefff9fffffffdfffffffd00000000fffe
fffd00030001fffc0001ffff0007ffff0000
00000000fffcfffe0000000000000008fffe
00060001fffb0009fffdfffb0001fffe0002
00010000fffb00010000fffa000000000002
ffff0000000000000003fffcfffd00040001
0000000000000000fffe0001ffff00030003
000000070000fffbfffffffffff6fffe0004
fff8fffe0002fffdfffb00030006fffb0003
000200000002000300000000ffff00060005
0002fffefffeffff0001fffffffb0007fffa
0000000300000001ffff000000020001ffff
fff90003fffffffbfffffffb0000fffc0000
00030003fffe00010002ffffffff0002ffff
fffc000000050000000200030000fffe0003
fffdfffffff90001fffcffff000100000003
000300010002000200000002fffe0000fffb
fffffffcfffffffffffb0002ffff00050000
fffb0000fffffffcffff00030006fffffffb
fffdfffcfffc00030000fff6000000030000
ffff00010004fffd00020003fffdfffefffe
fff80003000400000004fffffffe00020004
000000020002fffefffe00010001ffffffff
fffc0005fff9fffb0003fffcfffd00050000
00010002000100000005fffefffafffd0005
000100020003000100000004000000020004
fffe00020001fffdfffefffdfffe00030001
000300000000fffe00020004ffff0004fffb
00000000fffffffd00000004000100000002
0000fffd000600000000000000000000fffb
0008000200000005fffc0002fffffffd0000
fffb0000fffd00000002fffd00000000fffe
fffb00050000fffe00030000000300000002
ffff0001fffdfff700000000fffffff80000
ffffffff00020000fffd00000002ffff0006
ffff0006fffd0005fffd00000004fffffffd
fffffffffffafffffffe0003000400060000
0004fffa00020001fffeffffffff0000fffe
00000001000300010000ffff00040003fffc
000200000002000200020002fffa00000000
fffeffff0003000100000003fffe00020000
0005fffdfffffffd00000005fffc0000fffa
00060004fffefffb0001ffff0001fffc0003
0002fff9fffefffefffffffffffe0004fffa
000000020000fffc00050004fffeffffffff
000200000000fff90004000200000000ffff
000700000001fffa00020001fffe0000fffc
0004fffdffff0006fffdfffefffffffffffd
0000fffeffff0002fff90005fffe0000fffe
000400050002fffd000500000000fffe0000
fffa0003000200000000000000030000fffc
000000000007000100010004fffe00000005
ffff0000000500000002fff90002fffd0006
000500010005fffe00000006ffffffff0000
fff8fffffffaffff0000fffffffb0003ffff
ffff0003fffcfffbfffefffc000400000002
000000000002fffefffcfffaffff0007fffb
fffd0000fffe0003fffefffd0004fffe0001
fffe00020001ffff000000000002fffffffd
000400000003000000010002000300010003
fffa0000000000060000fffe0002fffcfffe
fffdfff9fffb00010003ffff00040005fffe
000500000003fffd0003fffffffa0004ffff
0001fff7fffbfffd0000000000000003fffc
0008fffd0002000000010000000000040005
00020005fffcffff0002fffeffffffff0002
00080002000300040006ffff000000030003
000000010000fffdfffe0000ffff00000001
0000fffd00040006000000000008ffff0004
0002000100000002fffe000200000001fffb
fffcfffcfff7fffc0004fffefffc00000002
00000001fffe0003fffd0001000000000004
0006fffefffaffffffff0000fffefffe0002
0003fffdfffb0004fffcfffffffd0000fffd
fffa000000020000fffc0007fffe00010000
fffd000200040004fffb00070000fff80003
ffff0000000500000005fffd0007fff90001
0000000300000005fffd000000030005fffd
00000000fffcfff900040000fff900000001
0004fffe00030003fffa00010005fffdfffe
fffe00000000fffe00000009fffefffe0005
0000fffc000100010007000000020001fffe
fffbfffdfffffffafffd0006fffeffff0008
0007fff800060004fffffffe000200020000
000200040000000100010003fffb00000003
0000000100000003fffd000c00030000ffff
0002fffd00000002fffd0000000000000006
0000fffb00000000fffdffff00010001fff9
000000000006000400060005000300030000
0004000400030002000300060003fffe0000
fffd0003fffeffff00000004fffafffc0001
fffa0002fff8fffb00070007fff90002ffff
fffe0000ffff00000000000000000001fff8
ffff00000000fffd0003ffff000400010000
fffefffc000400010000fffefffd00000004
00010006fffefffe00010005fffe00000004
fffd0000fffefffa0000fffefffcfffb0001
fffb00020000fffc0000ffff0003fffeffff
00010002fff7fffc000000000000fffe0000
00040003fff9ffff0000fffd00000002fffd
0001fff8ffff0000ffff00020005ffff0002
0001fffb00040000fffa0004fffe00030000
ffff00010004fffbfffe0006ffff00020006
0004fffe0001fffe0002000100000000fffe
fffa0008ffff0000fffe0005fffefffd0007
00010000000300010000fffefffe00000006
000000040005fffdfffc0000fff7fffd0005
0003fffffffd0000ffff0000000500030000
0000ffff0002fffffffefffffffefffffffe
000000000002fffffffb0004000100000003
000000000004fffdfffe00000005fffefffe
0000ffff0002fffffffd00030003fffffffd
fffd00010000000600040002ffff00010000
ffff0002fffc0001fffc0000ffff0000fff9
fffd0003fffe0001fffd0002fff700000001
0001ffff0006000600000000000000030001
ffff000000000008fffd0002000700010000
0002fffc0000ffff0000ffff00010002ffff
0000fffffffefffd00000000000100000003
ffff0004ffff000000010000000300060000
ffffffff0005000100020000fffe00030004
00040003fffc00000001fffcfffefffefffd
000400040002fffeffff0001fffdfffe0006
fffffffd000300000004fffafffffffb0003
0003000000000003fffe0000fffe0003fffe
00060001fffafffe00010003fffbfffefffb
fffd0001fffd000000060003000000040000
fffffffe0000fffd00060001fffe00020004
00010001fffb0000000000070002ffff0001
fffafffe0001ffff0002fffc0001fffb0002
0006ffff0003000000010004fffefffcfffb
0001fffefffd0006000300020002fffffffd
fffe0000000000020004fffefffb0003fffe
fffd00000003fffcfff900020003fffe0002
0002fff8fffcfffe0004fffe00030004fffd
00000000fffc0000000400040004fffd0002
00000003fffd00040001fffcfffefffffffe
fffffffc00000001fffffffafffcffff0002
00000005fffe00010000fffb000000000004
000000050000fffdfffe0000fffefffd0003
fffffffefffd00050002fffe000100030004
0003fffefffd000700010003fffe00000000
000000020000fffdffff0000000100090001
0007fffefffa0000fffd0003fffd0002fffc
00060000000100050006fffbfffb0002ffff
fffa00020000000000000001000100010001
0004000500000000000000000000fffe0002
fffe00000004000300020002fffaffff0002
fffffffd000200000005000100010000fffd
00010000fffd00000004fffb000200020006
fffc0000ffff000200000003000500070000
0003fffbfffc000000010000000200050003
ffff0000000100000000fffffffe00010006
fffffffffffc0000fffd00010001ffff0004
0001000100010003fffd0002000100020004
fffdffff00000001000000000001fffe0000
0000fffffffffffffffe0000000000000000
00000002fffffffd00070002fffdfff60000
0000fffa0004000100050000000200040000
000200010003ffff00000003ffff00000000
ffff0000fffffffe00000000fffd0001fffd
fffc0000fffc000000000002000000010005
0004fffc0000ffff0003fffcffff0000ffff
000000020006000000000000fffffffe0002
0006fffd0002fffefffffffd0002ffff0003
0003ffff000000020000ffff0005fffd0001
fffd0000fffdfffffffcfffd000100010001
0001fffc0005fffd0004fffcfffeffff0004
fffb0000000300000001fffe0000fffe0001
0000fffdfffd0005fffc00000002ffff0000
fffdfff700010001ffff0002fffb00030000
fffdfffbfffb00020007fffffffefffd0001
ffff00000001000100030000000500010001
00010003fffe0000ffff0001fffdfffcfffc
0002000300020001fffe0006fffdfffffffb
0002fffbfffa0000fffffffdfffafffb0001
000200030002fffcfffd00030004fffa0006
fffffffdfffe000400020002fffffff8fffe
000000030000fffd00080001000400010000
00040004ffff00020001fffbfffdfffe0001
0003fff8fffcffff00000001fffe0003fffa
fffefffcfffc00000001fff8ffff00000004
00050000ffffffff000500040005fffa0003
00000001fffe0004ffff0004fffefffdfffa
00000006fff7000000010003fffefffcffff
000500010002fffdfffcfff80006ffff0002
ffff00030005fffb0001fffa00010002fff9
0002fffffffefffd0000ffff0005fffa0005
0000000400020000fffe0004000300000000
0007fffc00040000fff80000ffffffff0005
00010005000200050004000000010001ffff
00000000ffff0001fffafffd000000020004
fffa000100030000fffe000a0001fffb0001
0000000100020001fffd0001ffff0004fffd
000100020005ffff000000000003fffefffe
fffd000200030001fff900020006fffc000b
000400050002000500030002fffe0000fffc
fffefffe000400020000fffefffc00030001
000100010005ffff00020000000000030005
0000fffe0000000000020001000300000000
000100050002fffdfffe0009000000020005
fffe00030003fffe00030005ffff00030004
00020000fffa0006000500040002fffa0003
fffafffdffff0003fffbffff00020000fffb
ffff0002000100000000000200060000fffd
0000fffafffffffb0000fffd0002fffc0001
000800040000fffc000200030003ffff0000
fffffffa0002000600010000000100010000
0002000200050000fffcffff0003fffffffe
0002fffdfffd0003ffff0000000000000000
000000030002fff9fffffffafffc0000fffc
00000003fffffffe00010000000500040003
0007fffe0007fffb0003fffffffe00060003
fffffffafffd0000fffe0003000400020000
00000000ffff0000fff90001fffffffe0000
00040003ffff0003fffdfffcfffbfffcfffa
00010001fffefffbffff0004ffff00000005
000000010000fffd0004ffff0002fffd000a
ffff00030001fffb000700010004fffc0006
fffe00030002fffefffa00040007ffff0000
fffefffbfffb0000ffff0002000000040002
00000001ffff0000fffe0000fffdfffdfffd
000000050004000300000002000000050004
fffc000000030000fffe0006000400010001
00050007000100020005fffffffa0003fffd
0002fffe00040000000000040000fffa0004
ffff000500010003fffbfffd0003fffbffff
0006ffff0000ffffffff000100010002fffa
0003fffe0001000100030000fffe0005fffa
00010003fffbfffcfffd0001fffefffdfffe
ffff00020000fffefffb0007fffffffe0000
0001000200020000fffe000000010000fffe
000100010000fffdfffd0008fffb0002ffff
000300010004000300020001fffe0001fffd
000200000002fffa0000fffafffffffe0002
fffc0001fffe00080000fffdfffd00000002
000100000006000100020000fffe0003ffff
0002fffa00030003000000010002fffe0004
00000007fffb000200010003fffe00000000
00010001000300060000fff9000000000003
00000004fffbfffbfffcfffd00050000fffe
fffa0002ffff0000fffe0001000100000005
00050000fff9fff8000200010004fffd0002
0002ffff0001fffcfffffffffffe0001fffe
0007fffbfffe0002ffff0002fffc00050000
fffc000200010000fffeffff00000002fffd
ffffffff0000fffe0000fffafffe00010009
0003fffd0001fffefffefff90002ffff0002
fffa000200020002fffe000100000004fff8
000100040005fffd000100010000fffffffc
fffffffcfffd0000ffff0005fffd00010000
fffdfff900020001fff70004000200000003
fffd000200000004000000050004fffaffff
fffcfffb0001ffff000400010000fffdffff
00000002ffff00000001fffdfffcfffb0003
00000003fffbfffcfffa0000fffb0004fffd
00010004fffffffffffffffb0000fffc0002
fffffff900000000fffffffb000200040004
fffc00000002000000080000ffff00070000
0000fffbfffafffeffff0000000400010000
0002000b00070000fff90006fffa0002fffe
0000fffffffe00020000fffb00000000fffc
00000000ffff0002fffd0007ffff0000fffd
000000000001fffefffefffafff600000007
0000000000040001000100000005fff90004
00040001fffbfffdfffd0006000200010001
00000003000000000003fffd000400020003
0000fffe000400000001fffefffa00010001
0001000700000000fffffffeffffffff0000
0000fff90000fffe0008fffbfffdfffdffff
fffdfffd0001000000010001000000000007
00040000fffd000200000000fffd00030001
fffd00030003fffdfffc0000fffcfffa0002
0000fffc00000000fffd000800050000fffd
00010000fffffffefffcfffefffd0003fffc
00070004000000020002fffe0001ffff0000
fffbfffa0002fffbffff00000000fffe0007
fff7fffd00000004000200010000ffff0001
0006fffbfff90002000400000000fffc0004
ffff00040001fffe00040001fffe0000fffe
00000000000000010002fffdfffcfffd0003
fffb0001fffc0004fffe0000ffffffff0003
fffd0000000800080000fffefff900060006
0000fffafffa000000000001fffffffffffc
fffa00000001fffd00000004000000030000
0004fffcffff00000000fffffffefffc0007
ffff00030003fffdfffe0003000500030002
000000050004000000020003fffcfffc0000
fff9fffb0002fff9fffc00020003fffcffff
000000050000fffbfffc0002000a000afffe
ffff00020003000000000002000200030006
00010004000000000000fffb0005ffff0000
0002fffd00000003ffff0000000100040000
0002fffc0000fffdfffa0000fffc00000004
00000001000100040000fffb0005fffe0003
fffffffdfffa0000fff90002000000000000
fffc0003fffdffff00030002000100000002
000000010003fffbffff0000fffefffcfffc
00010000000100000000000100010003ffff
00000000fffdfffe0000ffff000200010002
00000000fffffffd00010001000100060000
fffffff7fff9fffd0003000400000000fffb
00010003fffdfffe0006fffe000000030004
0001000000000004000300030006fffafffe
000500010006fffefffd0001fffcfffc0000
000400010002fffe000300020002fffa0003
fffcfffb00030005fffefffe000100020001
0000000100000004fffc0002fffffffc0002
00010000000000000007fffcfffcfffcffff
000200000004ffff00020002fffe00010006
000300070001000000000001fffa00090000
fffd00000002ffff0000fffffffc0000fffd
fffc0001fffcfffe0003ffff000500030000
fffa0002ffff0005fff7fffe00000002fffe
00020003000000060000ffffffff0000fffc
fffdfffefffe0002fffc00000005ffff0000
0000fffc00030004fff80000000400000000
000500040003ffff00020001fffc0002fffe
fffd000200000002fffb0000000200060005
fffffffd0000fffd0005fffbfffc0007fff9
0000ffff0000000000000002000200050002
00020002fffdfffbfff9fffe000000020000
fffcfffcfffcfffd0001fffcfffb00040000
000700050005fffbfffc000200030001ffff
fffdfffffffe0002000000010000fffb0001
000500020000fffa0000fffd000100010001
00010000fff9fff800020000000200030001
fffe0004fffafffb0000fff9fffc00010002
0002000000050003000000000002fffe0002
0002fffdfffc000100000000fffbfffa0000
fffc00000003ffff0003fffa0000ffff0008
000000050002fff800000001000100020005
fff800010001ffff00030002fffffffd0000
fffffffcfffffffe000000040007fffe0003
000200060007ffff00060002fffe0002fffc
0004fffeffff0003fff800000005ffff0005
000000010005000100000000fffe0003fffc
00010000fffbfffffffb0002fffffffefffe
0007000200020001fffe00040006fffaffff
00040006fffefffa00000000ffff00000001
ffff00000001fffb00040005000000030001
0002fffe00010001fffa000200020004fffd
00000000fffefffe00000000000000020000
ffffffff000300030003fffa000000000003
fffefff400030002fffc00010002ffff0004
0000fff80005fffe0000fffd00020000fffb
0000fffb0005fffd00000002fffe00000000
fffd0001fffb00000001ffff0000fffc0000
000200010005fffe00010000000500020003
fffdfffd00000000fffb0004ffff00020000
000200040000fffd00020007ffffffff0000
00050001fffc000000050000fffe0003fffc
fffd0000fffbfffffffefffcffff00000005
ffff000a00000002fffa00010000fffc0002
00010001fffb000000010002ffff00060000
00030000fffd00030003fffd0004fffcfffb
0003fff900000001fffa00030002fffe0001
fffc00020000fffdffff00010002ffff0001
fffafffc0002000200030000ffff00020006
00020000fffcfffefffffffd000000010000
0003000200030001ffff0005fffdfffefffb
00000000000700000003fffe0003fffffffd
fff9fff9000000000000fffdffff00050002
0004ffff00010003fffdfffa000000040000
fffa000600000000fffefffe0001fffa0002
fff90002fffe00000003fffc00000001fffc
ffffffff00010002ffff0000fffc00000001
0004fffd00020002fffd00000002fffdfffa
000000000004fffe000200040000fffefff8
fffe00040001fffe0002fffbfffd0000fffe
ffff0000fffcffff00050000000100020000
fffffffa00040005fffeffff0002fffd0001
00020001ffff0001fffe0006fffd00080000
0000fffe00030001fff80003000800010004
fffd0006fffe0002000000020004fffbfffd
ffff00000003fffefffe0003fffe0001fffd
ffff0000000800000000fffe000300030001
0003fffffff900020002fffbfffc00000002
fffc0000fffd0004fffbfffffff900040001
0002000500080000fffbfffdffff0000fffd
00000002fffffffc000600030006fffd0000
00000000000000010000fffe000400040000
0008000800050001fffffff9fffefffc0000
00050002ffff000900030000000300060000
0005ffff00020000fffefffffff800010001
ffff00010002ffff00010000fffdfffe0002
00080002fffcfffe0000000000030005fffc
ffff0003fffffffffff9000500080004fffb
fffd0002fffd00050000fffc000500040000
fffafffefffefffd00020001fffefffeffff
00000007fffffffafffdfffe00000000fffc
0000fffd0001fffe00000002fffb00030001
0000fffb0003fffafffefffffffd00030000
fffeffffffff0000fffafffd000200010001
fffefffbfff90000fffa0000fffa0001fffe
00050001ffff00020000fffefffc00010002
fffcffff00000000fffffffe000300000002
0002000500000001ffff0000fffefffd0007
0005fffc000100000000fffefffc0000ffff
000200000002fffffffefffe000100010000
fffbffff000000000001ffff000100000000
0001fffc0000fffdfffa0000000500030003
0004ffff0000fffefffe00010000fffefffc
ffff00040000ffff000700040005fffffffd
0008ffff0005fffefffbfffe0003fffd0001
0000000500000000000100010002fffd0000
00000004ffff0001fffdfffffffafffefffc
00000002fffbfffc00050003fffffffefffb
000500010006fffd0000000000000000fffc
00000001ffff00000002fffe0000fffd0005
00010006000000000003fffd000000000000
00090006fffffffd00000000ffffffff0007
0004ffff0000fff80003fffdfffbfff9fffa
0003000000040000fffefffc000200060006
fffa0005fffd00000001fffd000200020006
fffbfffffffd0001fffc0000fffd00000004
fffd00000005fff9fffffffefffbfffefffc
00020000000100000001fffd00000000fffd
fffc00000001000200050000ffff0000ffff
00000003ffff000100000003fffffffdffff
fffefffc0000fffe00000001fffe0002ffff
00070000fffdfffc0003fff90000fff8fffa
0004000200010000ffffffff000100000001
fffdfffe000200050000000000020000fffd
fffe0001000000000002fffa0001fffdfff7
000300000002fff90000ffff00020000fffd
000200040001ffff0000000300010002fffe
fffdffff00000005ffff0001fffbfffe0000
00000003ffff0004fffe0000ffff00000002
0005000000010000ffff0003000000030000
fffeffffffff000600020009fffa0003ffff
00010002fffe0003fffdfffd00040003fffe
0001fffffffffffe000300000000fff90001
000000020000fffbffff00030008fffe0000
fffe00010003fffffffffffffffe00040005
00000000ffff0004fffbffff000000050002
00040004fffe0002fff7fffe00000003ffff
fffffffefffd0000fffc000000060000fffe
00010003fffdfffa00010000fffffffc0000
0002ffff0002fffd00030001ffffffff0003
00030003000100000000fffe000100060000
0000fffc0000000100010007fffc00000004
fffffff900000002fffdfffdfff90004fffd
0005000000040001fffffffffffd0000fffc
fffd00010004000000010000ffff0003ffff
0003ffff000000030000fffa000100020005
0000ffff0003ffff00050000000100040003
fff7fffe0001fffdfffcfffefffffffe0001
0003fffc00030001fffc00010000fffc0001
000000010002000000000004000100010001
fffa00000000000700040008000600000000
fffe0005fffc0001fffc00030000fffbfffb
fffb00020000fffe00030000fffcffff0004
00000000fffe0000fffefffe00000002fffc
0005ffff0001fffc0004fffd0005ffff0002
fffe000300020004fffa0000fffd00030000
0006fffc00030001fffd0008000000020002
fff9fffd000100000003fffe000600030003
000500010005ffff00000000fffcfffefffc
0009000700010001fffafffd000400020000
fffd00000002ffffffff0003000300080000
0001fffefffe000400010000000100000006
00020002000700090000fffefffc0005fffd
000800010002fffa0004fffe00020003fffd
fffefffa00040000ffffffff000000000000
ffff00040003fffd00000001fffb00000001
0000fffe00030000ffffffff000300000002
0003fffd000200000001fffe000b00050005
ffff00000000000000060006000100030000
fffcfff7000700040000fffbfffc0002fffc
fffc0002ffff00040000fffafffefffb0000
ffff0000fffe000700000001000200010000
fffcfffdfffb000000000000fffe0002fffe
00020006ffff000000000000fffeffff0003
fffdfff900000003fffa0000fffc00020001
fffdfffefffe00000000000200000003ffff
fffcfffe00020000fffdfffefffefff9fffa
fffb0000fffd000300000000fff9ffff0003
000100000001fffa000300050003fffffff8
fffefffd0000000000030008fff80000ffff
fffdffff00040002ffff0001000000000002
0002000000030000fffd000000020000fffd
fffefffffffffffd000400020001fffe0001
00020000000000010005000000010000ffff
00000002fffd0000fffc00020004fff90003
ffff00000000000200010000ffff0000fffe
0000fffb0004ffff0004000200000004fffd
fffdfffdfffefffffffffffb00010007fffd
000300020000fffe00050003ffff00050000
0003000300000000fffdfffe000000000003
0000fffdfffffffcfff7ffff000000020001
ffff0005fffc0000ffff000000040000fffd
0000fffd0000ffff0004000400000002ffff
0003fffffffb00020000fff900050004fffc
00050002000200020003fffe00000000fffe
fffffffbfffe00010004ffff000400010001
00000002fffd000000010001fffc00020000
000300030002fffbfffb0000fffdfff9ffff
00000001fffffffefff60004ffff0001fffb
fffa0007ffff0000fffbfffb00050001fffd
fffefffffffbffff0005fffe000400000003
0002fffe0000fffdffff0000000200050001
0005000000010000fffd0000fffbffff0003
0000fffc00000003fffb00000002fffafff6
fffe00040002fff800000000fffdfffd0002
fffd00000002fffd000900040005fffd0005
0000ffff0002fffd0002fffefffffffa0000
0001000300010004fffefffe0001fffafffe
000400040003000000020003fffd0005fffe
0002fffd0000fff900010001fffcfffcfffc
0004fff900000004ffff00000007fffefffe
fffd000000000001fffb0000fffe00030006
fffd0003fffcfffe0000fffefffe00010004
ffff0001fffe0001000400040000ffffffff
00010001ffff00020001ffff00000002ffff
00030000fffefffffffefffdfffafffe0002
0001fffc0003fffbfffe0000fffb00020003
00020008fffafffa000500020002ffff0001
fffc0000fffefffe0005ffff000100010002
00000003fffefffe0004ffff000100010002
fffe00000000000600040007fffe00010003
fffd0002ffff00080004000400000005fffd
0004000200000006fffbfffeffff00020001
00000002fffd00000000fffc0000fffe0006
fffcffff0001fff9000bfffd000000010007
fffd000400000000fffd0001000000020000
fffe0001fffe000300000001fffe00000000
0001fffefffffffd00000000000500040001
ffff000000020000fffe000000010001ffff
00010002fffdfffa0000000100020001ffff
fffe0001fffffffb00020005ffff00060002
fffe0002fffefffa0002fffbfffaffff0001
0000fffdfffffffefffefffc000200050004
fffa00020000000000020004fffeffff0001
fffffffffffc0000fffd0001ffff00030000
000100040000fffc00040003fffdffff0001
fffbffff0003fffc00010002ffff00000005
ffff0000ffff00010007ffff0006fffb0008
0000fffffff9ffff0002fffe000000070002
fffffffdfffcfffb0003fffd000000020000
0006fffefffffffcfffc0003fffefffe0004
fffb00000003000400060000fffefff90000
0002fffafffefffd00030001fffc00000000
00050000fffdfffffffdfffc000300000005
fffe00030005fff70007fffcfffffff90000
000100000000fffc000200000000fffffffe
000000000002000300010001fffdfffd0005
fffb00000000fffb00020000fffe00020002
0001fffd0000fffe0004fffefffe00020000
fffbfffffffe00070000fffffffdfffcfffc
0000fffe000100000000fffb000100000000
fffdfffd0003000000000003000000020003
ffff00010001000000010000000300000003
0001ffffffff0003fffeffff000000000006
0000fffdfff8fffdfffe000000000000fff7
00000002fffa000100010001fffc0000fffe
000300000000fffe00000000fff900000000
000afffe0000fffefffe0006fff7fffe0001
000400020000ffffffff00000000fffefffe
0001fff50001ffff0004fffafffcfffb0005
fffb0000fffe00020000000200000000fffe
0000fffffffe0003fffb000100010000ffff
00020001ffffffff000000000004fffffff7
fffe000200000003ffff0000fffefffffffd
fffe0004000400010000000000040002fffe
000000000001fffcffff0004fffefff90000
fffc0002fffa000300030005fff700020001
000100040002fff9fffa0000000300000007
fffffffe0000fffffffdfff9000000000002
00070000fffd0000000000000002fffb0000
0000fffffffc00030001ffff00000002fffd
00000005fffb00020000fffffffc00020001
0000fffcfffeffffffff00020001fffffffe
0000000000010001ffff0000000300040003
00010007fffe00000002ffff00000000ffff
fffe0002fffe0002fffc00030004fffe0000
fffbfffb0001000100020002fff8fffdfff9
0005fffb00000003ffff000000000001fffc
fffffffcfffdfffdffff0000fffe00000003
000000050003ffff000100020000fffdfffa
0000fffe00000000fffefffa0001fff90002
fffb00000002000400000001fffd00000000
00010002ffff00020006fffaffff00000000
fffe00000000fffa000400030000fffeffff
0003fffc0001fffc00000000000000070000
fffd00020002fffefffefffdfffd00010000
fffc00020004000300000002ffff0000fffe
fffdfffc00050004fff7000000030001fff9
0004fffdfffffffdffff0003fffefffd0000
fffdfffcfffc0003fffd0001ffffffff0004
ffff00000000fff900000005fffa00020000
0000000000000006fffc00050000fffafff7
000000050002fff9000000060005ffff0004
00010000000000010000000000030001fffe
fffa0004000300030007000100010007fffe
0000fffffffd0004000800010001fffb0003
000100070004000100030000fffdfffe0000
fffb0002fffa000300000004ffff0000fffd
fffa0005fffc000000000003000600030005
00050000fff8fffa0000000100020000fffe
fffcfffeffff0000fffd0000fffffffefffe
0002ffff0002fff9fffffffcfffefffd0001
0000ffff00030000000000000003ffff0008
ffff000700000000000100020003fffd0000
fffc0002000400030006fff8000200050000
fffefffbffff0001ffff0001000400030002
0000fffdfffd0001fffffffefffd00040000
0001fffb00050001fffffff6000000050006
fffb0000fffbfffcfffc0003000100030001
fffe00000000fffe00010000fff90002fffb
fffd0002fffdfffa0004fffdfffb00030004
0000000200030000fffa0001fffe0001ffff
fffffffb00010000fffa000500000001fffa
0003fffd00040001fffe000100010004fffe
000200030000000100000003fffe00000000
ffff00000000ffff00000003ffffffff0000
fff8ffffffffffff00060009fffffffd0000
fffcfffe0000ffff0006fffd0004fffafffe
fffc0000fffffffc00010000fffffffe0004
0003fffefffbffff0000fffc000300010000
fffcfff90002fffefffb0001fffa00020001
000000000004fffc000500000003ffff0002
fffcfffbffff00020003000200000001fffc
fffffffbfffb000400020000fffeffffffff
fffc0000fffe00020000fffe0004ffff0000
0000fffffffd0002000000020000ffff0003
ffff000100060007fff10000000000000002
0000fffe00030005fffb0000fffc0005fffe
0001ffff000000040004fffb000600040002
fffbfffafffd0000000300040000fffd0004
000500020000fffefffbfffefffe00060003
ffff00020000fffb0000ffff000700000003
ffff0001fffefffb000000010000fffeffff
fffdfffdfffdfffcfffffffeffff0000fffc
0003ffff0004fffffffe0000fffd00030005
00010001fffffffffffefffd00090001fffc
fffd0000000100050000fff9000100000002
fffb0004fffefffafffbffff000700000001
0000fffd0001fffefffdfffcfffdfffe0003
fffafffd000300030003ffff000200000002
fffeffff0005000600080005ffffffff0000
fffffffe0005000000000003ffff00020008
0001ffff000000030000ffff00010000fffe
0006fffe000400000000fffffffdfff9fffd
fffffffd00010004fff7fffe000500010004
0002fffdfffdfffe000100040007fffefffc
0000fffe00040005fffd00000005fffdffff
00010001fff9fffa00000005fffe0006fffd
000100000008000000000000fffbfffe0002
0001fffd0002000200040003fffd00000006
000200000000000300040005000100020008
000000000002000100000000000000030000
fffefffd0000fffffff90003000500010000
00020000fffd0001fffe00010004ffff0001
fffdffff0004fffdffff0004000400010006
fffbfffb000100010007ffff0001fff8fffb
fffd00030001fffdfffa0004fffefffe0000
fff8fffdfffa0000fffcffff000800000000
000000060001fffd00000000ffff00020000
0002fffdfffc0000fffcfffa0001fffffffa
fffcfffd00030005000300000000fffefffd
0003fffd0003000300000003000100000000
fffcfffefffa0000fffffffe0004ffff0000
00000000fffcfffdfffeffff00000000fffa
fffa0003000500080000fff8ffffffffffff
00000002fffffff60000000200070000fffe
fffefffd00020001fffa0003ffffffff0003
0002fff9000100050002fffafffa00060004
000100000000fffffffdfffe00000001fffb
000000030003fffbffff0004000100020000
0002000100000005ffff00020000fffd0000
0000fffc00000003000000000004fffefffd
0001fffefffb0008000600000002fffb0000
fff6fffa0003fffcfff600020003ffff0002
0002ffff0000000000010000fff8fffe0007
ffff00040000fffafffbfffdfffe00010005
0000000500000000000000020000fffdfffc
000100040002fffffffeffff00030002fffe
ffff00050002fffafffa0006fffffff70000
fffafffe0004000700010003fffdffff0002
0000fffb00000002fffefffe000600000000
0003000200000000fffeffff00000003fffc
ffff000400010002ffff0000000000000002
00040001fffe00000001000100000000fffd
000500000000000500040000ffff00040001
000a00030001fffa0002000200030005fffd
fffd0003fffefffc00050001ffff00000000
0001ffff0001000100020000fffffffd0005
00000000fffa00060000000000030002fffe
0000fffffffc000100030000000100000001
0007fffc000100000002fffe0001fffefffe
fffd000000030002ffffffff0004fff90003
00010000fff5fffafffb000400030000fffc
000100040001fffb00000002fffe00000000
00000000fffe0000fffdfffbfffffffcfffb
0006fffefff600000001ffff00020000fffe
0003000100010004fffd0000fff80002fffe
00020003ffff000000000001000200020000
0002fffc0001fffd00000004000100030002
fffeffff0000fffefff70004fffe00010001
000000000003000200040000000000000001
0000fffe000000000009fffb0009fffa0002
00010005fffb000100020004fffdfffc0000
fffc000300000001fffafffffffdfffc0001
000400010004000000060001fffd00000006
00010002ffff000000010000000000010000
00020000fffd00000000fffcfffe00010001
0003fffffffcfffb0000fffc0000fffd0003
fffd0000fffdfffe0002fffc000100010002
000000000001fff80002fffd000200000001
0002000000020000fffdfffe0003fffffffd
000300010000ffff00050001ffff00010004
0000fffffffefffe00000002fffd00020002
0000ffff00030002fffafffe00000000fffd
fffcfffdfffe00030003ffff000200060004
00010002fffd0000fff9ffff0004fffcffff
0008fffe000000000001fffefffefffe0000
0000fffd0000000500030003ffff0000ffff
fffffffc00010000fffa0000000200030002
fff5fffaffff0005000700000000fff9fffc
00030001fffb000300050000000000020003
00000004000200030002fffefffefff9fff9
fff9fffd000a000200000003fffc00070002
0000fffbfff6fffb0001000000070003fffc
fffc0005fffa0000000000030004fffc0000
fffc000400000007fffc0001fff900020000
0001fffd00000005000000000001fffd0000
00020008fffefffdfffcfffc000500030004
fffbffff0009fffdfffd00020008fffe0002
fffbfffefffbffff0000fffffffe0000fffe
0000ffff000100000000fffe000000000004
00060000fffffffffffd0002ffffffff0001
0000fffbfff6000000010000fffefffcfffa
000600040007000000000003fffa00010007
fffcffff000000000006fffe00060001ffff
0000fffbfffbfffd0000fffd0001fffb0000
fffb00000004ffff00070004fffcfffe0003
00000003fffc00000000ffff000000010009
00030003fffa00040002ffff000000000001
fffc00020000000000020000ffffffff0000
000000040000000000010002fffe00000000
0000ffff0006fffcfff5fffd000300050003
0000000100020000fffffffefff8fffefffa
0003fffd0003ffff00000000fffb00040002
00010004fffeffff000100010004fffffffe
0000000400040002fffd000100030001fffe
ffffffff0005fffefffb0003000000010002
00030000fffc0003fffe000000000001fffe
000200080004fffffffc0004ffff00000002
0008fffffffd00040000fffe00000003ffff
fffd00030005fff50003fffffff9fffc0005
0003ffff000000050002fff80003fffafffa
000200000001000200010000fffe000a0000
fffdfffc0002ffff0000fffe0000fffe0001
fffcfffe0000ffff00000003fffe00040005
00000001fffdfffcffff0000fffa0002fffb
00010001fffc00040000fffb00010000fffb
000400000004fffd000000040000ffff0000
0000ffff000500000004fffcfffefff90000
000100040002fffc00060005fffc00030007
fffe000100000001000100040000ffff0000
0000fffd0000ffff00000001fffeffff0000
fffa000200010003fffcffff00050000fffe
0000fffcfffffffffffffffffffe0005fffa
000100020000fffdfffefffe0000ffff0000
fffcfffe000600070004000000000000fffc
0002fffb00000000fffa00060000fffe0003
0007fffd0001fffa0000fffe00020004fffd
0000ffff00000000fffefffefffffffe0000
ffff0000fffdfffefffc0000000300020000
fffb00020004000600000001fffc00010000
000100020000ffff00000001fffd00030000
00020000000000020001ffff000500050004
fffd00000000fffe0004fffffffdfffd0004
0000fffcfffe00000001fffdffff0001fffd
0003fffefffcfffc00040000000300030004
0000fffb0004fffd000000030000fffd0004
